[PAD]
[UNK]
[CLS]
[SEP]
[MASK]
Lyon
유리수
두호
##해온
나락
볼모
##정기예금
출조
##디자이너
호이안
##adintext
##습의
토왕
##통역장교
##초항
##정신대
라칭거
정방사
집총
인우보증
친손녀
##1983
인지세
스당
최영수
둔산동
호소
이남옥
##던트
차타안
군자리
텍사스
도운
##롱
똑
남자
##경국대전
뇌사
후지무라
말더듬이
양진
##물
시리아
##다시마
MOD
통비
순우경
스타뎀
##756
홍미
##이리트
##노부
##등연
onForceStopHandler
베인브리지
##스코
##유입
탤런트
##신동
빗질
건초
친수성
집행관
포르보
peace
Web
옥스팜
보양
##쌈
스케이트
헬프
쿡
조금
결과물
방위성
MySQL
대구탕
장국
##간세포
##MDI
변태
일거리
해녀
##화약
사주
이해봉
립톤
박연차
##약가
탬
속새
##초저
##로드킬
##단수
Moon
뉘
박경혜
하란
##문라이트
트램펄린
유빈
##회의소
프람
정우택
GIO
말렸
세기
기욤
##장사
신오
##조지메이슨
지그프리드
스케테
치석
취함
페트로프
패색
요수
##강쇠
개봉동
수석대표
헤밍
LL
대구경북
광장
prosecutors
##브릿지
THQ
가요대전
그린피
염동진
##동물
오구
버드
CBP
나와르
온건파
##아염소산나트륨
##어법
타이밍
나약
단양군
##陵
##사골
수리온
##혁신당
보부아르
케네스
나환자
시론
##헤어
함승희
##스페셜포스
정진엽
기서
창립자
부마민주항쟁
able
김민구
##대비바사론
잎갈나무
벤젠
신반포
##용천부
민권
신축성
브룩스
임경선
Late
##실제로
##바쿠스
##승은
김광택
석곡
유몽인
MDN
##微
챔피언십
데라코야
price
Cr
데이데이
이와미
##플로라
##아리안
칠기
딱따구리
##황도대
##인텔
##철근
##시티투어
실컷
##김병옥
통기타
기로디
바이올린
금곡
##통가
##육우
애환
jung
GM
수장
##기난
##KG
근거리
##몽유도원도
운전수
##부실
##연충
장난희
##한다든지
기요마사
하버마스
테구시갈파
최재영
이해영
파젤
휴스
표층
아바이
가계부
##경호원
위헌법률심판
질지
슈거
깨져
박상연
크림슨
재명
Oldboy
균일가
구회
소종
##역세권
왕양
마쓰카타
마릴라
핫도그
양정철
유석
Hop
번이
정영도
법무사
산분
##장안
##한양
롯
Bean
UMD
군주
목공
##국립대
##장과
##뷰
김순금
##준혁
##@,
민진
선루프
인턴사원
##의료비
라우터
우민샤
##▷.
LOG
영스타운
신태화
한옥마을
소띠
국립극장
전세금
##장현
갈산면
##감미료
##IRM
##강진
심층
외식
개의
##만기
##인관
흥친왕
HTM
몽돌
화구
가루깍지벌레
김찬기
예담
베체트병
##페러
IFA
온정
##수안보
환인
련금
곽경근
윤동
불레즈
류치
직도
##호텔
조귀인
김희태
김익
KH
구영
고정비
에스포지토
##드라
진평왕
임관
김인문
Need
Hard
경제인
진고개
HH
토속
##레인
109
처
성도
##인포
추기경회의
##켈
명일역
알렉산더
Master
##사업소
멸균
영창
##멘디
##나인뮤지스
페피
시다
단팥죽
##RM
고르기아스
30000
미루나무
그로텐디크
센카쿠
강구항
알도
김일중
##후생비
디도
나갈
이은희
cold
비비
##질
##체장이
##막걸리
로돕신
토마토
시작
이현동
헤아리
토도
ePCT
폭리
명자
##쥴
이각
룡
학벌
##애미
회현동
삼우
베네시
##릴라
##픽셀
##7700
정나
조업
OHT
석탄액화연료
##리그
심법
하소연
스탠스
투자
순정률
##얌
수업
MCD
보름
진남
철호
##수는
##뭐
##마팅게일
최필강
빚어지
개월
##채식주의자
주타누가른
어린이
##重根
##TYM
유불리
EFhd
손수호
박혜숙
##버스
미야자토
아이기스토스
온장고
운송인
코자크
계지
식약청
박태
##시그마
##마커스
단조
남포동
##189
##이베이
봉황각
된장국
레드윙
백과사전
악수
엠플러스
##무조건
정진운
츠힌발리
왕산
근소
강노
재정
##쿠지
정동은
인광
토레스
차입금
##징계
감목
페리뇽
단일화
##센
Game
정저우
##무한
계속비
젠나로
행정심판
장끼
나와야
##MRO
1821
모서인
##혐오
##저작
##향정
뤼카
나팔관
호루라기
스마
케이퍼
DHT
##탑
##연민
신현수
나부
△
누아
1916
십상
마동욱
마포대교
##고체
택하
신용개
##ID
에브루
1965
파라솔
##교수단
##이민정
##투시
EAEU
##정준하
sed
서울대
##와이어
탁구공
##통과
매끄럽
펴낸
호환
뮤지
##Hi
효고
습작
채납
껐
PL
발트해
의정원
따라가
엘큐
592
김인회
변미
오쿠라
예복
##쉬
##유시진
총연장
##모음
강승윤
소독약
재천
정택수
산업별
공보
통솔력
##친절
##러셀
유혜영
웨지
이이화
##한국어
도적
EWG
춘앵전
선우용여
박덕배
##회추
##한가
##임창용
되팔
벌어졌
하숙집
##반격
KFX
애트나
##이준기
승진
##직권
##얼레
리키엘
리암니슨
가족의
aT
권다현
반야봉
틈새시장
왕가
유홍준
소똥
mother
##임박
##視
##재판서
송호
##ad
##패션쇼
소문
##기초
난치병
여
페예그리니
카렐
AEG
##속이
##검출
쇼월터
##플랑크톤
변정주
리코더
EF
##崔
역마
등자
계승
##셔서
흐르
Ltd
김효주
──
이크
Keck
##뽕
한받
안형준
피스타치오
체위
643
부암
이석민
무투
고셔병
북진
도경
구양
##0260
##정빈
##박장
##t
##데이트
##李
석관동
광양읍
세현
창희
언뜻
##저드
에스틸
천하통일
lawmakers
##data
창원공
발육
의
구호소
xDrive
아이카
수비벽
##고지혈증
위암
##착공
몬드
성인식
라이프
기여금
이창수
전봉
HLG
해거티
##수서
비밀문서
익현
재수사
룽커우
사운더스
관용음
남천동
끝판
눌려
##문화방송
##600
무스
왕과
비에니아프스키
염색약
김순례
##자켓
##木
Dalai
MQS
##천시
PHR
team
##철
주문모
무크타르
JTAC
##효충
개고기
##미스티
줄
에도바시
##바보
##해양
서점
수탈
##Œe
Newton
하트퍼드
펼칠
걸리셔스
놉
동거인
소시지
뱅크시
거쳐
호세
전현주
이진화
박민지
플럭서스
##시부
##라무
아센
공룡능선
에스코바르
청아
##상분
##페터
##라베라
비행금지구역
##舞
무창포
직원
붕가
노희영
보병대
그룹
한식
취직
무뢰한
한석현
자지
프니엘
서역
샌더스
##드래곤
라호르
진실
양념치킨
피해망상
문단
최은영
만스키
한비자
구의
일궈
##무간도
8400
발매소
Bodhisattavas
##케톤
최정
재로
##미래도
티센크루프
외신
이바라키
AAS
박인호
##슬로
##²­
논의
입법화
내세워
면도
시르
##HOLD
신학
NIA
콜터
신상문
##아자방
옴부즈만
팩토리
이진상
니코
세마포어
외나무다리
##케이드
플로베르
시디
##헤븐
##Britney
##대장
빠진
경향
김진명
##광양
잠실
HKD
##동항
라인
##토니아
스탠디시
왕평
다미
Spotter
무음
김상중
플래너리
##반아
Dreamer
▲"
##㎍/㎥)
유리체
비축
노섬벌랜드
##커팅
린시컴
오트밀
키토산
##72
박준모
물금읍
베인스
적혀
수화물
상품
##특이
##학장
마리옹
메블루트
입체감
심금
투르네
동체
리버모어
파블로
최할리
신협
보쉬
임하
현채
부여잡
아차산
조유영
RPC
아믈랭
펠프스
호엔하임
##착오
##이지의
##봄의
DL
##대사전
##원교
캘리포니아주
##뗏목
##FD
##포로스
킹스턴
유대감
유박
##리보
서영은
고려개발
염리동
클롭
도의
염창
##Time
추납
훔쳐
기준치
상추쌈
케인즈
시스
너무너무
냉방기
##cent
##풀림
##발리
궬프
김민재
##카텔
김천시
뉴트럴
##하피
##주립
##플릭
편액
추첨식
##증분
김상진
블라스트
##지라고
씽
박준석
르코르뷔지에
끓이
이필상
휘어짐
데블린
취업
속내
유고
##무를
김종호
데메테르
아키에
##레미
##리거
##어버이
트랜스폰더
카자마
##전형
##동행
##4200
그래비티
한정수
##부호
##미온
##TV
스와
AJ
앰풀
궐기
##화마
등급
완안부
IST
##432
김지우
박용진
완전체
젖히
한국정
감청
##아버지
신병교육대
스크루
##으므로
KAM
인문
동산
충격파
##오미
이뤄지기
김기삼
죄책감
부작용
##로니
브루어
콘셉트
왕종명
차치
뭉치
사피
1857
MAF
위더스
복권
작용제
##상체
해리슨포드
황은
빠져나가
바이트
ul
##김태동
현진권
베요
##적반하장
file
##독소
욕심
고림
##퍼터
실험장
온난
##195
##관로
조미령
머글
장수하늘소
천양
정태의
훼손
##안풍
##粹
갯돌
잔업
변호인
3800
놀라울
##원카드
급등세
돈암
리수
##공생
들려오
##청
TFTP
시한부
그라우스
모진
##학살
Leica
안정사
통근
㎏
WMDK
청록색
마츠
##7197
고밀도
ds
##통관
전슬기
박진솔
세드릭
나바호어
툼바
##병원
완료
엘스
신성모독
##장터
파고
체리쉬
##열쇠
##NCS
흥남
궂
BIO
counsel
갸리
쌍암
당진
쿤스
드려야
산아
리명국
##〉·〈
우기
##어촌계
Mine
##이카
전민수
##농림
룩소르
흄
루미스
위급
고영신
모덴
##바투르
##黄
##ACC
##무덥
볏짚
##국인
JDAM
강규
하뉴
대감
사로잡
Beauty
ASK
소성리
김창완
이봉수
함소원
프링글스
박인규
임원회
박철주
##菊
##예선전
아이네스
##바이아
##탐탐
다이달로스
랜싱
살상
멱급수
광재
KOF
##헤런
송범근
##브라이튼
##스마일게이트
드나드
##땔
##노코
동침
장쉰
##동연
긴축
아랫사람
##CNTN
##551
##내신
##果
배수구
얀부
팔라시오스
##물걸레
날숨
과육
야상곡
약세
비올족
염소
모야
##미드
회사법
장하준
##예술사
복도
빅스
ICO
마쳤으며
구리
평강
##349
심유경
폴리프로필렌
##건달
##GT
##결식
고일
##역필
중절
후리소데
아서스
이희권
돌돔
##마저
마무리지
GDB
놓친
##크리스마스
오언스
자위
세이난
게데스
고성소
칠러
holiday
원에
##영혼
마스토돈사우루스
최원영
질량분석기
이상언
직판장
허억
##둑
##바라지
송백경
시마바라
홍철
래미
##사각지대
자단목
자양
무수
약해
공제조합
발머
극구
포방
##포차
근심
싸돌아다니
전성인
무히카
김시우
DYRK
##헬멧
미니맥스
##몸짱
퍼노
진도아리랑
매출액
##1985
화명
적법
아달
윤상림
大韓
부하린
DMP
임윤선
BHT
오레
정사영
##김정률
##부연
연이
twenties
보탠
연승
준비서면
헝거
유우코
##몰아주
##만곡증
MUSIC
혈흔
다머
##참빗
##언
##ㄴ
장맛
김경하
무니
오버플로
친근
##거짓
방모
지명자
이승준
서울보증보험
##전원
##구인
##삼의
##콘트라
Vinson
경우
##앙기
##리아킴
켄드라
은영
볼멘소리
이루리
##화신
유별난
코시
블란쳇
이범윤
##아이스링크
무원
이상수
비행단
광해
##알루미나
재형저축
##이경은
Convention
##료의
포그바
##의정부
온다는
##농기계
오키드
플라비아
창바이
줘서
래프팅
증상
슬라브
QA
눈망울
##세출
둥지
##야인
형질전환
##가치설
김학봉
교우
陽
프로타고라스
김창호
연구실
##getElementsByTagName
이성숙
헤켈
바이닐
스캐너
다이카
렌
##Х
크리티컬
벌인
창던지기
##남선
스쿠비
정성
이다혜
휩싸여
##유해진
이무기
배정화
##園
##캡슐
㏊
Bside
코막
레아
도요코
GR
이탈
핏물
안근
신태진
전원책
석현
##가슴
##발해고
쉐어링
왕궁
나미카타
루스티카나
##고분군
##준일
267
동구권
간접
##지총
303
조기
자동
Huawei
대문호
녹음테이프
PCI
##운환
황사영
##NLL
허무
정과리
차량한계
헌신
정찬성
드롭박스
양도인
프란시스
##찬열
PEET
record
음소
##이매
고름
##간대
STS
##트리스
일렉트로
BIM
扮
차명
직동
황택
오소
베인
마애
김종영
##일반
##달성
송명수
논변
삼발
지명
defense
BGB
이사쿠
플로라
수주
스몰
상고사
수선화
ON
올바른
쿠티뉴
측정치
금물
아로마
물렸
다윗
##하늬
주류업
감악산
공보관
잡곡밥
커질
밀크셰이크
최민화
두유
엄연히
그림책
노지훈
태남
##라냐
부란
서수민
멀린스
공
벡터
안병택
중대
민관
가재
##마산
제임스
묘비
##프로야구
##프리스
커넬
##팡파레
반월동
##음란죄
교육
순절
유기물
공드리
Package
앨라배마
장기채
##추미
노리쇠
조바꿈
연혁
##비례제
저작권자
State
대파
차분
역도
벌개미취
창세기
##정기
스타제국
치엔
돋보였
군남
카디프
##안문
칼렌
물으면
이관희
김준영
##미자
박홍
빛난
##설제
이어진
황우슬혜
원양
##넓
호동
목차
임병철
말라카
셸러
유영석
남원시
매킨리
이승철
쿠비차
##피버
##산출
##춤
월산
캐시
줌인터넷
다우
##1522
어번
플라미니
이송정
##범망
##c
보사노바
분메이
비일비재
ministry
신경질
박한이
##세금
지방
공감
##터리
기영노
京都
##스톤
혈청
##6300
희천
레이양
##BSE
갑동
자유형
##원식
##우코프
야맹증
비둘기
한샘
##야간
후춧가루
커밍
정류장
##라스카
##향의
##비키
킬리안
진녀
##판국
낙마
카네기홀
하피냐
People
무림
유보트
허동수
황정산
국기봉
##앤스
##모타운
##전염병
##페르디난드
레너
누운
감잣국
장례식장
이진성
##정말
##떡국
데뷔
##클린업
징크
보리고래
Tiffany
이미자
##솔리드
커졌
##테크윈
뗀
##CSIS
병맥주
강태용
가우크
부부
양해각서
햅
윷놀이
맛없
오픈타입
##할인점
니힐리스트
강동면
##플린
이혜선
올버먼
실추
ㅎ
##-)
##2900
벨리댄스
##레지
##89
루메
KRPIA
##상고
##BPG
##국책
윤석금
프랄
아산화질소
예관
쇠공
성과급
캐롤
아마테라스
##기업지배구조
##정운
##보류
윤미진
로지스
명작
브로카
남경읍
김경중
오카리나
##피츠
로시야
최성기
현물환
용병대
장휴
구치소
조충현
##석대
지정석
이강두
논할
AOA
##몽키
반일
상징
AMS
아이스커피
겐트
쾨헬
##근저당
중재자
반대쪽
##NWRO
홍주연
서산
권선구
김학렬
공작위
단위
울트라
나영석
##난
우드워드
얼라인먼트
지유가오카
##장끼전
홀인원
젤라틴
지수연
기용
PzH
사해행위
##전원주택
스태킹
##說
귀환
##임상
저리
##황림
코딩
appropriate
정인
놋쇠
프레넬
##㎽
무극
편수회
바인
쌍반점
##투지
##군요
##계통
권순호
사베드라
백수장
목동
IBK
끌어안
조엄
크레시미르
##인출
##넘
윌헬름
AFA
Edge
##경지
티아나
김사모
환온
손창식
최익수
EI
엘람어
부역자
##로그인
##수층
아이모
정성공
##타이틀
에이시아
수란
##반출
##준다고
잼버리
한재희
초나라
석경
스트레치
##％(
스트로트만
이정미
정문홍
##리니어
##수입금
##아유
잠원동
##댄디
라싱
테림
##竪穴
##슬리
##애신
고현
에미
담겼
##증권
첨성대
수발
편도선
타사키
##퇴근
플러드
Van
##지예
나우아틀어
정맥
클릭
장수진
약국
요산
##솔로몬
기드온
김유철
##멀티
마사하루
RSV
미들웨어
##북촌
##수원시
##점성술
##정선희
##구레
고용희
##귀농
적진
에이브럼스
후잉
##丘
##명도
##냠
##2000
##소금
장하
##308
범증
불가닌
TQ
데메
##자동화
기울인
모터스포츠
로키츠
##선규
루이
래그타임
##참의원
##DLS
은봉
묶여
힌츠
##프런트
수수
장국현
루벤스
부대항소
마이트
헤르바르트
한우물
초주
막시밀리안
##지하철
게이샤
굳어지
파나
슬래그
##이센
암석
요주의
##동북
대내외
도위
펍
성이성
연도
창구
##제임스
파라마르타
강원일
헤슬러
로시나
##원주
총소리
섹터
라티건
앞세운
하혈
FIVB
머플러
BANG
구했
결론지
##통찜
아슬란
항체
챙
쭉
장천
최홍재
목판화
여행객
당명
거행
##哲
사빅
행장
만덕
후진국
아비투어
코모리
위산
김동우
37
구몬
보도블록
헌혈
계대
규칙
##시코쿠
##이시아
코르데
##와이번스
##용역
##컨디션
##영배
##지신
숙명
글라스
1801
놀라운
##Da
김수임
주희정
헤라트
메누
푸른콩
아세안
김현호
벨라스케스
##”―
이광필
##해상풍력발전
감찰
때로
흑색선전
크루프
황화수소
상당수
정사원
이토록
##체육부
##적한
의복
##요식
손질
##코페
-(
##씨드
##초촌
##계역
공로
##햄버거
쇠기러기
티르
##고생
이수완
당항포
로테르담
말레이곰
##금감원
도키코
대구부
쌈지
페럼
TNPI
필력
##냉면
전역식
##까지
판찰라
##Macy
##이노수
어긋난
관직
GCM
매홍손
완이
서경
된다면서
버거킹
소년공화국
정지연
##육상연맹
##소나무
함경도
여사원
##자충
##공국
##외국
소우자
##171
666
##쿨
하루빨리
이영한
##유경
성교
정규
##로마켓
야마구치
##절제
주광덕
##시니컬
##광어
##포아
다물
화문
시험
##시럽
##원명
군량미
표류
포프
651
펑키
됐으며
코제트
NEXT
##CH
경춘선
리창
어진
캐롤라이나
사르곤
메틸화
##하연수
##이월
##부여
천마산
김재성
차금
어쩌면
##인산
관습법
##재계약
이범
이피
우들리
국내
루프트한자
##470
바이아
카스페르
##골란
헐버트
근친혼
구금소
산세이
와실라
걸까
##시스템즈
##주현
묵시록
특식
나카니시
아낙사고라스
##교자
김은향
플레이
##어쨌든
갈비탕
>△
김준원
##강남구
한화이글스
##마카
관구장
채리티
김병훈
사축
##유서
##청문회
##원선
인국
카터
노점상
아파르트헤이트
what
##코칭
금성산
민지
##특강
전인권
블레이클리
##鎭
PIN
##Im
##포켓몬스터
WRX
돌아다녔
KEDO
승현
##호쿠
호실
창사
##텐스
울창
저우
부주석
대상지
##박물관
##라스크
오어지
칼라바르
통전
불황
##라크
추풍령
김상겸
##지본
다나오스
LIVE
테트라포드
항소인
그랑죠
##필동
박호근
외질
##매트릭스
접하
이성산
버마족
워너
##통행
증빙
##㎐
##이태
유종일
##播
라포스
엘레나
##테이터
표선면
클리커
펠리
FXX
국진
거인
장원
모창민
##군계
암울
강세정
에이트
이스타항공
세연
장어구이
예투
##구읍
##빗
##대동맥류
김민상
김현장
이용
김병로
##생애
예년
##유승옥
광현
와이크
최민지
이용의
MIDI
에야와디
##마슈
있
지경
샹파뉴
왕징웨이
파프
강정원
##포일
##yoy
뇌전증
프라이드
##무형
방앗간
##공작
빌릴
만프레드
몬족
대퇴골
##한숨
조원진
##막말
테트라
매트리
##Neverwinter
##PPAP
##티엠
영포
강준
강우
euro
시후
김마리아
잠항
범바위
빼어난
모리토모
몰린
황교안
##주요
바라쿠다
천만
901
##났
낚시
모티뉴
##꽃놀이패
레임덕
##파파스
##kV
저우즈
##들깨
집무실
155
토벌
마당
통금
애치슨
선덕제
##토비
531
##비비안
정용진
##鴨
스펀지케이크
비살상무기
##許
##joongdo
금정구
역마차
황영철
##석보
##유시민
남보
주세죽
##폰테
센서스
란제리
샤흐트
최현복
##부장
비글호
접했
필리파
##사주
점박이
##쉬람
준오
페르난두
거래소
##드레
사린
##황칠
##치는
CABEI
##알밤
거구
##ʾ
어흘리
가산동
쿠투조프
류승수
##신라면
이종락
심수경
김준홍
플레어
##다낭
日
##월
##설탕
##호동
에섹스
김재민
##테일즈런너
유도등
어린이집
쌍비
땡처리
NW
HMD
LiveLink
##도피
함형
탄소세
Cells
촌민
오사코
김은혜
지피
##레포츠
코논
##더러운
하창
성은정
숙창
화살표
황령산
DST
##세트
##숙박
점용
##地黃
박보영
문지윤
CIBNK
안트
돋보이
스멘트
Y
배유나
나카다
게이지
##내선
세렘반
##이근
헌츠빌
##영양소
##성원
##思想
프로그레시브
장첸
혼났
선식
오토봇
피레
이영렬
HPC
오수전
챙긴
박아
무슈
##클립
가마쿠라
몽실
##습니다
##치요다
전체
##감청
포트리
아랍연맹
경회루
##셔
면세
둬야
김현규
##보톡스
볼빅
의생
직할시
돌아보
##까치구멍
##티마이오스
야스퍼스
최양업
모딜리아니
소주잔
전광인
##백억
##거꾸로
노복궁
##통근
펠리체
사무소
##차예련
양희승
이순우
',
##패션
##석
##료
카바디
건축물대장
구찌
불필
척이
##151
##SUPER
##공상
왕후닝
리톨라
강석창
참지
첼리
산카
소자
주지
멘델스존
공분산
##방서
유병수
수묵
##산파
상투스
##SO
##아람
통배
틀림없이
le
극장
견마
SQL
페르난도
높
물망
요비아누스
엄장
류정한
조손
##기리
김민천
위탁자
솟대
##석차
격
##comMiaa
은폐
이정훈
와시
긁
토레이
##최종
##어썸
롭
최효종
조천읍
##썬더
##기존
##사슴뿔
##헤더
##소국
자초
##지원서
넥스젠
지노빌리
뭘까
다신교
빌리스
장갑함
류
PO
선모
알고리듬
장공
리다오
장로회
힌두교
경비함
##피니언
NCA
낯선
##total
김알지
알리오스
##아주라
라볶이
##거왕
##차일드
자씨
##대의원
북상
사회봉
초승달
세레나
직
FARC
최재훈
조깅
올케
정극
##군축
메디안
이시효
##티업
##가결
박중원
최희선
사총
수유
셔
코엘료
신경과
병동
도요카와
쿨러
##찢
함태호
##373
너클볼
행여
워런
밝힌
##ilyo
구월산
이중고
소리
관다발
박성호
그로스
##천과
1
서강준
용오름
##토요
##찰소
이끌어냈
오정택
박노석
설제
서서히
##당봉
중계
스탁턴
지하철역
##변국
오다리
##중공
PPI
굴산사
루미놀
마우저
헤어드라이어
0720
##옥시
윤이상
Trespass
memristor
##객
##임시수도
민병두
##송재림
##툴
##수용체
니시쿠조
##林
총파업
도덕
##방화복
##장혁
GOODTV
##산식
could
강낭콩
태용
##활약
##쿠두
최진철
##프리티
홍순
SW
##듯이
##노니
휘발
페커리
숄
전투단
에반스
##강사
##소프라노스
네기
각연사
소주방
여걸
오락
해오
제각각
##치유
##블룸버그
물고문
잉카
취임
##홍원
밥알
먼데일
부어
조양은
굳기
리얼
르베그
마장마술
memristive
##종영
##산청
리카
##영단
한미정상회담
붕소
금강령
진백림
조선
콜렉
##민주주의자
김승민
신학생
맨해튼
##트란
재산세
Like
##머러
##™)’
가이델
연다
SDK
형가
금산사
PEP
##이지은
홍종현
##영세
라운트리
해면
팀뷰어
##학급
##료법
이형준
##까페
부평역
사고력
불량품
관리기
게슈탈트
카렌스
CTIA
숙종
원구단
몰아넣
##없
우지원
이이첨
평안북도
다이아몬드
##재미
갈로
콜비
지방선
곽거병
서지영
##백준
톡소
204
##기제
온타케산
형석
##퓨전
Why
PNA
구배
살뜰히
크룩스
##OEM
노대래
캐피
위상공간
이선재
주제곡
조교수
강인
##PrismUserInteraction
##놀
##해병대
##팬더
최범호
##깝권
##ESM
김광희
최호성
이스트소프트
##max
개혁자
##낙교
배꼽
이경우
JCB
보야르
##주식회사
##衣
보만다
판매처
속셈
지니
FSWS
남동기
울타리
노렸
##예루살렘
관능
상가
부러워
##沫
거가대교
##109
적대감
DANCE
##=//
수자원
아모르파티
황봉알
##너구리
유료
다람쥐원숭이
##♪’
스피드웨이
working
김대식
2035
정현수
##수막
이근택
슈바르츠실트
디즈니
용저
김장한
##렌트카
비례
서지훈
친문
##삭도
결핵
현대인
스타스크림
##메기탕
낸드
하늘길
##될지
수청
최순우
##삼정
순번
유성
##BIS
박헌도
플로어
박환성
탁지일
동맹체
해야지
스즈
##조원
조영삼
##VAR
##無明
한동우
##우루
경피
겨울옷
Modi
손정은
포츠머스
##빼앗
시벨
##러스티
칼론
이혜원
우공
최승재
좌심방
마에하라
증기압
탄방동
Ⅳ
##잔류
이웃
달라질
정준택
##****,
새턴
##형대
##ly
드립니다
##왕세자
상론
롤러스케이트
templates
홧김
진양호
담장이
필리핀
종직
##ORIGIN
##동무
음독
맞댔
솥뚜껑
견딜
얀선
##치매센터
룸
최재석
최흥식
콩콩
##선용품
rasa
##음악원
##%)’
정재욱
비트코인
영윤
오카야마
신용
##용호놀이
##실에
제네커
##설훈
##샤산
탄광촌
##지내
##머지
##로민
샌버너디노
플랑타르
YRT
고비
플럭스
「
##대파
##리먼
군주론
##font
김윤아
미흡
슬롯
ADIA
노영학
칙스
##야탑
디비시온
매춘부
멘셰비키
힐데리히
김준
##울산
로간
##草
네크로
하디드
RIST
FLX
공양주
끌어올렸
필터링
피카이아
돈
조드푸르
퍼뜨린
##요교
타살
오지현
박지수
피에스
베푸
황성수
임원수
##광식
탈레반
##레슬링
콘리
당분
##보장신
마이즈루
연락소
##군무원
갈현
명배우
맥기니스
##소통
##분이
세이코
##탐지견
검역
삼자
##호스
##PV
##代數
FFXIII
콜드게임
비어스
푸폰
랩터스
##프레스트
##메콩
##멘토링
효부
##교부세
앞장설
##수립
싸할
이동준
비판
bhc
칼납자루
FSX
암호
편평
##라도
##조은희
BEMS
산동네
##구지
유노윤호
돌려주
##악장
단역
이하이
라이플
##의뢰서
Education
매월
닥터드레
##피델
이루
문선재
택스
의견서
입장료
이창효
독일
돔
중고제
##성체
스위처
럼즈펠드
타우포
우성용
묘비명
성남아트센터
연탁
계급장
##나와
연합뉴스
뇌중풍
##주사제
아델만
##Gerhard
이주영
선적
계셔서
연료봉
청부
우렁이
##공급
고지현
병맛
##장섬유
져지
블랙웰
스타타워
하절기
최하
플라이투더스카이
##Prime
소란
매선
오준혁
##675
##키시
##주류
관권
대학생
##격기
이유린
조식
오레스테스
글
갈루
##우안
연일
나타나
고소인
탈이
##켈리
중환자실
##생명표
##사령부
##서론
번
##모종
여상원
##탁현민
백화점
터다
이근호
괴롭힘
단칸방
은언군
Angio
아기씨
모과
세일러
313
달빛조각사
##넘버원
BLACK
제주시
##값
주포
스타일리시
결장암
Nibelungen
왕찬
촙
이른다
극빈층
라운
소희정
오리지널
##안타
좌절
##도약
친오빠
병자호란
##잉여
박성제
##회비
##성합
평화주의
동정녀
산터우
##복합체
##서킷
##스플릿
도브
일조
##광복회
관건
영묘향
봉중근
에바디
##漢人
##취득시효
##로타리
니켈
##관리관
##끄시
##크리스털
키지
IgG
국외
이만종
##앰프
##허브
행진
NMT
사효
##기숙
##왔다
외국법
올바르
반대파
전천후
머그
##장성
레늄
끄리
온유
구황
827
이덕훈
오응정
치와와
##유격
예니
##해링턴
원래
안위
##오프닝
루시드
144
##사수
김사율
임민혁
부동점
drama
##명수
맞춘다
xinetd
지롱댕
백상아리
##party
이승모
일방향함수
##폴더
여경총
##201612
##겜
동반성
##네스트
##사르
폴워커
피기
정부기
##빈주
장합
야코브
##조망
##폰
마담
블룸
종두
이온
미시즈
##터치
##증식증
레드카
##종대
연락도
와라
나르바에스
이예린
조그
대가리
##무르
사회공포증
이정수
평수
주해
엔디
이용석
##竹島
은별
카니사레스
동화사
준이치
이광리
끓여
NCCK
브렌트
남무현
##산전
##광훈
김경진
최승옥
봉창
성숙
여운홍
열설
근거지
남서
김동엽
김상균
히코네
성만찬
보험증권
ELO
독배
맥추
레너드
철제
##아비달마구사론
##쿠퍼스
##그럼에도
봉덕
##도어
S
리어리
격노
정우람
쳐도
##박기
성원건설
투
##독일어
DNCE
##공식
아르셀
필더
물회
NIFTP
첵
##짤
엘베
티빙
송호창
쌍봉
##비스
VTR
연번
한창수
안양세계
이한빛
활판
##薄明
##마리아
##天
플라망
용궁
SOFC
디스트릭트
창만
##미노
주교회의
프레데릭스버그
참의원
FNR
홍동
##엠피
소방서
##쿠우
세이셸
##총기
엽연초
반감기
##저당
아다치
유달리
사이토크롬
로즈몽
포열
##SRT
가수요
김용은
맥버니
즉석밥
니시무라
##Nahuatl
미칠지
궁륭
콘래드
언덕
레베카
281
반세
서형
광섬유
FCS
##발행
프리우스
##채신
싱크대
MOT
##식기
구연산
의금부
소주
##달장
오용준
코섹
입암산
색소폰
윤태호
김윤진
정운찬
문보라
먹일
조촌동
발췌
##어떠
포화
혜문왕
##등산
에이디
뜯
##랭킹
북괴
홍성용
아나스타시오
치른
애국가
배쪽
문식
업
##포스트
##MMORPG
85
##○○│
##덕
곤장
카르멘
혜진
케어
마세
DOHC
##발부
기럭지
마틴
내통
공과금
##선교
우파록
이학봉
##템즈
##박헌영
id
랄라스윗
키운다
dollars
##배자
귤나무
선집
햄블린
이해력
샤키라
##막이
##이석준
윌셔
콜밴
허정숙
호락호락
학예
##태백
##급자
##특허청
석사장교
다다이즘
##곤여
섭외
가명
시전지
조타
디오클레티아누스
교섭단체
박윤정
조종
에렉투스
방수제
말문
서울
암스테르담
##‚
수은
##송전
##명암
마스코
김성국
장신
고질라
비신스키
베르두
원샷
이무영
##민서
반딧불이
겐
닥나무
지제
right
부고장
이영식
##크리티
금융업
##관리국
PPT
입대
##힘
##로서
잇키
##져서
흐라발
김승회
흐른다
높이뛰기
##철원
약화
GCMS
##%(▲
RCI
쫓아다니
페세와
책망
원청
마르키시오
야만
아도
세균
LHD
밧세바
신디
##입출
화천읍
천연석
특훈
미산
항성풍
##레브
나카가와
스크리닝
셔벗
##져도
##제고
카작무스
##쟁
유선영
한때
##클라이너
주차
김서라
##은데
서미
정거장
노혜경
귀이개
동급
##웃음
금원
참모총장
두둔
캐스케이드
##수천
최성욱
라임병
펄펄
AIP
스미스
김승섭
##'()·'
##첼로
##전선희
##위어
구자홍
##공사
가락
##嚴
분위
닛산
윤자
아가리
크나큰
users
trial
푸에블로
운문
허형식
##동그라미
콩밥
대토
나르시시즘
DOC
물엿
조태
프린터
듀크
임윤아
긴급조치
강성호
##홍치
##실청
반출량
에곤
인사이트
##점역
코만치
틈타
##임동현
##환경
PSK
##기분
트랩
##연지
##부리
##줍
자
붙잡힌
침식
세수
김지양
뉴튼
안전장치
강백호
식각
체크카드
폐막
##주지훈
코바시치
삼단
하이즈
함영주
甲
##점주
##지의
하태
주리첸
쿠팩스
교통부
##482
유미
##혜린
소학교
거쳐서
hikes
신재평
카눈
와전
광안리
##엘리베이터
원정대
filibuster
##원표
현존
홑소리
섭렵
##두근두근
hours
변격
좌심실
류승주
##차기
사량
중군
악양루
커넥션
스터
##사벌
심우
地震
은행주의
##Su
완성
##수출국
이런
축구단
공갈죄
우서
##패럿
그릴
##제프리
방호벽
##키움증권
화암사
소브착
교토부
트랜스포머
##Title
플랫아이언
참숯
이쁜
미야다
찌질
##제이티
##밤빛
##다세
뒤발리에
##와치
##"||
끌어올린다
양양군
헤스터
강원도지사
##매천야록
주저항선
좌중간
받아들인
##드메
##명찬
##반면
##우편
조원희
##문턱
모다
LED
##}
이월
빗발쳤
four
코스로
밖
최병모
김치전
안검
파라다이스
중단
054
쥬디
이현일
##문학상
드름
레네
##재계
맞힌
류승범
##중이염
일단락
진뉴
##유기죄
신세계백화점
담화
방정환
중산국
position
탁송
대덕동
##어진
해곡
한상규
국제수로
##이용섭
이어져야
APR
임찬규
풍도
차인표
진나
임대
야치
김승훈
신년사
bigint
##24507
대포
방연
##수역
그란데
그리피스
##이지훈
##위임장
연포
월명
4300
WTO
박혜련
장동
호나우지뉴
아이보
##네이마르
비토리노
멘토르
강원영
##섶다리
##대외
바오다이
##누의
##전설
구호
김경원
삐
horridus
식전
약주
방류수
하디슨
몽모랑시
협의회
다우닝가
앞줄
깔끔
매출
헬베티
▶▶
바뀌
영일
##變
박준혁
격화
플레
##안형환
프런티어
무릎
체인지업
##특별상
접한
Lp
182
##카페인
토미나가
커브
이바르
##作品
##토실
한노
MRAP
아쟁쿠르
중안
안승민
흙탕물
전반기
##윤회
목포시
수우미양가
아르준
Bright
www
146
켈리
DDE
군무총장
##변호사
메디치
조범현
IGO
일궜
폐기
김도우
##크낙새
##엄현경
이대은
LOVE
보약
야시마
알렉산데르
##쌀
##도뇨
##능변
이해리
이다해
모비
IRP
가문비나무
##화영
##아서
칸톤
##岳
##천제
트레일
한센인
고드
##퀼
##저널
##모상
전투원
칭기즈칸
사람인
##내수
퀼런
엄태화
유다인
샤라위
고정남
##택지
명일
편재
##PL
TOW
빌라
한국노총
##ZUIKO
누수
##휴처
##루쉰
공진
송송
메르크
영세
윤진희
##털
연안
제임슨
##리사이클링
오바마
우스터
필라
이시연
독일군
이기영
미식
티코
종착지
Paloalto
##퍼시먼
데파르
사학자
##문동
##심린
시즌
정순민
동예루살렘
##초코
##MDL
송하예
##백제
고초
지쿠호
##녹지
속음
##경제특구
억척
탈회
날인
호앙
##랜디스
##취급
##분명
##건국
최제우
박건호
매원
줄넘기
원진레이온
이우근
수린
##라이온스
##法人
보르그
WinMX
겨울연가
##이중근
친아버지
금관가야
##(-
장묘
달릴
##岩
##지키
노란색
최성희
##욜
데이아네이라
##기장
##추적
이니스
사랑니
을지훈련
줄리
HPET
카즈미
크레모나
##맛과
##키드
숙청
##제관
원시별
구덕운동장
##진실
프랑크
코뼈
##마톨라
펼쳐진다
우린
본보
내려간다
##Le
##145
##동서
오우삼
덕정역
##포테
풍토
박창균
##因
볼리바르
잃
##이모티콘
진주역
##경남
분전
컴포트
2001
취역
묵향
가헌
##이영
기득
행신
##유교
∙
과학기술정책
##광업소
헤타페
대서양
티오피
인사동
구래
골드슈미트
끼쳐드려
##셉
##학생회
허주
김기용
##스타일링
경영학
양공
##와고
##인방
이이다
주필
TLS
박재호
##행의
##좀
숨겨진
##렙
##활어
이희경
##플랩
흰꼬리수리
##콘셉트
손톱
##한인
부제학
##는데
백송
황급히
상평통보
이길수
하길종
솔지
사운
VAR
점멸
양약
GYBM
삼지
김혜민
연약권
##진어
지킨
가연
##제프
의사회
##출근
##집안
##보조제
##리피트
전성시대
DOM
이인제
##장시
##만희
forced
에테
글로부
##정당인
##럴
화태
모인
이은석
정명화
##950
번져
how
##PI
가빌란
주불
풋백옵션
구연동화
바클레이스
양근
부수
여단
진포
노바크
김을동
옥
##복경
##魏
데려왔
##정은
뷰러
부도
탐닉
이상재
Cd
PVCP
제천
##피플스
응고
나선영
##잠재력
쌤
Album
양심
격투
면방
##케이티
유비
##≫、≪
KBR
##검찰청
불연속점
헤이그
래퍼
팔자
TEC
파스퇴르
국민운동
##펜션
닥
통해서라도
520
##국헌
워링턴
TEN
##부근
##기흥
##6700
신아영
만욱
폭식증
주세페
베가
에폭시
미성숙
Vol
BIH
아르민
##곡천
세척제
김미화
안현
순차
북아일랜드
iOS
키리토
다산
##ISA
아랑전설
##염인
##梵
OBC
토플
##표고버섯
##황소
블루버드
##러시아워
김나나
최북
완도군
경화공주
거느렸
Me
FHV
국조오례의
말뼈
손재수
박유환
우배
얼굴
머무르
이달용
신동진
##英
필코리
SNAM
체키
에스파르자
공짜
삭도
##애진
##내가
스콜스
의족
EPC
##장학사
##임성일
브이
오대
##앤
김문태
##래닉
민하
882
##NAFTA
##아라리
다용도실
HALL
##빙자
##손익
동남쪽
새끼
어드밴티지
하드웨어
XJR
라이어
##1967
헌법
중성자별
서애
준전시
김석동
정찰기
빗줄기
##깜
오염원
##잔수
바클리
##수아레즈
조의원
뒷심
셰르파
학명
응축
할망
##'.
카피바라
##진세
##aimes
김상열
변인
##초과
권성동
노위
위락
헤르무스
##茶禮
답가
##내시경
프루
아이쿠
OT
##§€
교오
##Dumb
광활
##오하
하영
공통분모
WTCC
푸아그라
##style
도형
설산
야오
블라맹크
아파했
크라이슬러
리카르
밀랍
규산
프록터
호국경
##견우
진백종
##부수
##댐
파벨리치
온다고
라이코
펼쳐진
고지마
##침투
##SOC
##비준
##끈
프리기아
##월비
말고기
옥호
##궁근
선호도
세이브
슈워제네거
교세라
##마식
##시료
##제기
정덕구
##章
신동재
##아역
##샨
매드맨
##TRACK
다신
허슬
##딜리온
직격탄
##면조
러플
이지성
풍구
회원국
행해진
##생발
석이
염주
병합
넘어오
지동원
형기
이한위
실천
##탐험대
Delicate
메르시에
조우
##幸
International
##브런치
##복사
renewable
##눠
##배당금
휘호
울루
레이샤
창제
움막
이경석
##기지촌
보린
마긴다나오
첨가물
##해했
##규합총서
마피
Mix
##대학살
프놈펜
##스퍼
인플루엔자
항생
dramas
전봉준
##해냈
##벤느
박형준
양문
방사성
카이오
##유원지
자동기계
가린
##북소리
뚜렷이
달아오르
도울
##좌수사
핵폭발
주문자
##안티
이동필
불어난
##제니
탱탱
안국현
향배
##뒷담화
쾌적
궁재
##양회관
##峯
스코틀랜드
김세린
감수
stores
다메섹
바이럴
감독
기말
장화
##궤
##크래커
와이엇
불어넣
정다연
현영민
##이우석
##전가
##퓰릿
경강선
장기용
##제일기획
진출권
금전
팩맨
눈싸움
##WE
임호프
##콰시
베이스볼
##나마
눈여겨보
##大學
##변리
##박과
크세노폰
##지원금
##라아
전북
##박보검
김대중
##반드시
제이원
##현대
금이
##이럴
중등학교
가수부
물려
중립주의
협성
실리콘
##슬링
##세난
##윤아
정근섭
손태호
김우현
천연두
배슬기
##토익
다락방
##따오
##예우
##시에
염흥열
집약
느릅나무
하린
##개발청
##應
샤를로망
풋살
여압
구할
##도트
##合水
##액젓
의처증
인민혁명당
운반선
마릴린
외달도
광고비
한무
##태사
시신
bones
##아구찜
##나이트클럽
##나치
따돌리
뿔테
평성
##Healthcare
밑돌
##동초
망덕
아내
기특
김정선
법계
##뇨
##다각화
신종령
라나이
학생증
##KTX
##윤서
줘야
교육감
한상
무릉도원
박신혜
개인택시
##아인
흔한
달째
회계
지웅
애써
##원자로
하우서
알영
##무약
##내려
##햅틱
Cdk
계획표
##"),
가네샤
무업
걸포
##펙
살려냈
호르몬제
에리스
스탠딩
동영상
##감사관
열쇠고리
FMS
##여행객
황정혜
식물
우분투
미세
##번수
한국프로축구연맹
##"]
외다리
국회의원
김동은
모멘트
##소등
조선문전
성진우
유덕열
갬블
천구
이끌
유치
##의도
##섬홀
빌게이츠
아프가니
##애자
JSOW
##크리켓
묘자리
이맘때
##n
##반가사유상
신랑
PaX
##플러드
조교사
##cmd
낙제점
잡아당기
Miaa
포럼
점원
##모개
서정우
마천동
아비스
##재배치
벨몬트
##contents
##보완
익선동
꺽지
목격
홍업
종단
##신경염
판공비
Constitutional
UBI
김아영
됐
프랭크
##넬
연구사
##귀신
표준어
마요르카
황동
Choo
도광
##급격
receptor
아보
이용대
이혜경
##심판
유영미
연희동
##컨퍼런스
만테냐
오용
생포
arXiv
##알루미늄
토론토
노고단
트리뷴
회령
놓여
자멸
이케
새천년민주당
##니로
붕장어
영빈관
닷넷
크레파스
합동행위
뚫려
따른
이종명
박혜란
##컷오프
JDBC
최재림
남중
김성은
##퍼브
##폴라리스
결
##범퇴
공제사업
호저
천리장성
금융조합
연방
우제
수율
직각
허씨
문준영
별꽃
경심
##윤병국
##창이
잡혔
신은수
황화
청도군
동천
꼽등이
##건축가
포전
가파도
정다래
##결혼식
##다이쇼
##弊
안팎
##拳
##지투
##청류
##단시간
송지효
마스코트
원재료
##염증
##뚜기
가자지구
영남일보
##트와일라잇
##연료전지
##%▷
메리어
낙서
##이민우
##노비
부디카
이재백
##스웨덴
333
반월
##부친
세설신어
##top
라이언에어
삶
조건문
플러싱
하이네만
##clean
민영삼
레닌그라드
서재응
##PMC
가문
##제청
##역자
오다테
##버든
근교
실바니
850
오오츠키
판시
불후
경남대
출판문화
예민
가리비
마을
리마크
임형
##8625
김승유
##903
youre
##으셨
아마스
챔픽스의
임창욱
로이즈
##담화
##길차
##대륙
달려갈
민보
메트라이프
별과
XJ
##납세
##밸런스
세바스토폴
박인
칼데라
##폐합
하원
양현미
##친환경
##공소장
잡스
하로
141
##501
##네이트
御製
황조롱이
##ⓒ
##인류
김광진
단체복
##레이즈
##에이트
##IMC
단일
생산지
쌍
시먼
LOLO
##무자
배민
건선
아우스터리츠
##프랭크
보색
후손
활선
묻어났
맴도
스팀
such
개인용
숙군
근초고왕
대희
애마
안전
노육
##곽도원
Normal
가져다주
이트
포말하우트
유도
기댄
목화
##천안시
별장
성추행
##도경
##○)
보장구
척주
저작물
스트론튬
독고
조용필
gun
플레이보이
##부대
조남주
겐지로
유금필
중장비
독백
냉이
운곡
##줄거리
피들러
타운센트
흥수
이예라
##SCV
지난번
##아보
UBR
호걸
##154
##트지
성헌
환호
##낙하
김시영
라이트급
##원내
록티
##5300
갖가지
송시열
War
메이퀸
태양권
##ray
교화
유당
##새
현대제철
소지장
never
Please
윤산
##과실
이준한
거침없이
##지는
스톨텐베르그
LNG
##둥지
498
고제
아쟁
##원부
##시트
쓰임새
성보
##했다
이기욱
비췄
##토니
배방읍
EPOXI
폴리에틸렌
위대
##네기
헤게
유라
강예빈
함맘
터진
스탑
예포
폐강
건축주
균등화
아약스
권영민
##도라에몽
친
RK
##NEXT
##굴비
스프로킷
음
김아미
양준모
스탕달
신림면
##한과
헌혈증
산불
##폭력
김정래
백승현
임명옥
원어
약보합세
한국바둑리그
##협찬
삼촌
Xpoint
안티파스
##조아라
AFN
노폐물
##거든
장제스
##탈루
##서식지
여대
상원사
##별한
##순찰사
UCP
게티
##크루
##이수연
##믈
화옹
this
주판
rights
##환경영향평가
뢰프
##할리우드
##벤타
##만발
##prismADP
균형
민
무굴
쿠릴
IEC
888
##양갑
뛰어내리
##초소형
찜질
직업훈련
왜소
관절면
##런던
##이함
##경쟁
오복탕
수렁
그네
넵투늄
휨
조양
김태원
##자몽
이동석
BIOS
##SPOTV
비카
##채식
폭력배
칸트
장료
형지
분무
임은빈
서지
해내
쿠라
CODEX
반완
이선녀
궁내
##출구
##물고기
Charge
##피임
다가서
젠하이저
마운트
우어
소송
##준석
태안군
소사이어티
사포
##영재
가보르
페를
나갈지
꼭대기
분석법
sunt
자정
군림
이착륙
초전자
스토어
맛본
##LA
촬영장
언어폭력
무네
입원실
월출
##세정제
김형진
##좌평
##김훈
SLBMs
홍홍
##스틱스
LMP
웨
최충연
##려고요
전기뱀장어
랩
나옵니다
##브라운
##범죄자
##壽
Industrial
여길
##국민대
김재영
안일한
이대원
##KO
증발기
RSI
승봉
Won
체로키
비틀즈
북풍
모모코
포터
spent
##우징
전병
콴타스
김진구
##장치장
##서청원
고재근
아웅
KHMER
임수
골드미스
##ITC
갑자사화
객리
##Care
덕선
##STD
##달째
통해서
##파주
오한나
비즈
김동주
최민희
물총
구미코
##협정
KLPGA
댄스스포츠
비컨
##국선도
갈대
박봄
박경철
기상청
브레이
시문
레깅스
월향
난립
트라피스트
토지
2013
할로겐
현수선
김제남
나주
탔
ITF
##루미
최윤소
코렌
파파도풀로스
겨룬다
하상
장생
숙사
파카
정유경
정영식
반등
오병종
클라인
아르네센
보리차
붕어
폐구간
홍기준
##앱스
##죽순
노각
김연아
##sichong
천문조
ETA
셀
조합장
##안정호
선정릉
도룡
흥화문
업그레이드
워크숍
헤시오네
##±
게국지
pointer
뇌경색
##size
윤증
중턱
알리시아
관심사
인증
##호파
차안
##국주
유스리
출토품
지진계
보온
고지방
##꿍
울마니스
콘티넨털
고노
민혜
##해저드
◀
변혜영
송정호
농어
##진단서
##담비
그로시
##참여
전남편
에이
앙카
꽃수
히지노
##연예인
이즈미
활수
낭패
머리카락
애국자
##헬기
##구리시
이마즈
##오불
혜공왕
합천
추부
에이사
##장봉
이현승
양초
NAIRU
home
##김사랑
적산온도
##이스탄불
자만심
##함안
몬테
체니
두미
지윤호
공손찬
주기도문
share
어윤수
봉건제
뎀
융자금
##타머
##압탕
##***
귀중품
송유근
한동화
퇴촌
##토신
바움
운치
옥란
북방
ni
##만시
티엘
음혈
##왓킨스
김재홍
역삼동
고속화
클라로
장수명
##보언
광원
출력물
##오식
원경희
수출
마인드
메탈리카
ZL
##수반
##정원제
조창
모가
해리엇
레나강
호르스트
남해
바이얼릿
악한
RNC
interest
리베로
돈바스
##얜
##洞
공분
##Jong
김승우
저격총
##럼
wiz
NAVER
서커스단
세묜
이은수
##보세
호구
##도요타
##정답
교다
당한
이영표
##레이크
클레오파트라
홍은기
##절임
반반
##스트리트
소극
커빈
BICF
넘
국공
키르시
민요
날벼락
genus
##산잔
주례
동내
페니스
도킨스
신의진
FA
황기영
대지진
에드윈
household
오르시니
##591
##브리
##석동
밍키
돌려준
ZWNJ
##저금통
1903
국인
토미타
심히
사용
##생제르맹
1600
토
당제
항원결정기
##기량
##연구원
##감시원
조영남
＇
##볕
구용
귀결
라니에리
계면조
##타역
장정석
공효
김성애
안승현
##출선
럼버
##코메
관악구
##주대
페랄라다
들리
예문
기부금
속씨식물
오버레이
다미아니
##보증서
UNIST
남영호
포로암
안토니우스
##청라
마루
춘신군
추미애
EAS
사르후
과점
##국관
프라인
소멸
##기업공개
손바닥
이석현
프랭스
OK
데프레
LSV
저항
티아라
연방수사국
내라
세이프코
CAE
사혈
마시키
심규상
새댁
윈앰프
##김이수
김재환
선형화
1187
엘렉트라
놀음
심박수
##조기
대전일보
##더하기
책임
양근환
##경계
##미수
##외선
광고
TOKYO
황진영
뇨
접수
연마재
WIM
퀴라소
최동주
조재윤
가두리
tvNgo
##개막
world
##미들기
한불
네바다주
##닐
##운덕
닭볶음탕
이욱정
##데몰
루카
회차
이윤재
둥지냉면
안겨
##원영섭
##가르테
임창
##삼달
##유가사지론
오디션
##루키즈
##근정
아닐지
##늘리
전범
냥
##데이지
부딪쳤
##토디
귀촌
주거
##그건
삽살개
고료
뢰머
Up
한은
신항철
홍건적
##연안
##지청
신풍리
    
##김치말이
정면
제휴
##게임기
##국통
김국
학칙
전교생
문간채
간파쿠
끝낸
회전
YDT
미치바타
##사립
현정릉
중국
농해
##2080
##어든
빙산
##렌
잊
알프
##강동
봉합
##기본소득
파추카
담자기
DSM
라멘
Secretariat
브라운관
이재훈
##식식
1831
신재훈
교래
Buddha
갑골
터전
트뤼도
용담
게르마늄
##권인
##이상훈
##淨土
전용구
후방역
##송호수
##코자
##개판
##안암
젖당
끈기
크롬바커
촛대
Audio
##공설
홍사익
##아리사
##수다
##평화통일
이슬아
급경사지
겹치기
달
한국독립당
피핀
실로스
감퇴
Bytom
깃대
##보족
##화장
##북촌방향
##랑케
원방
보직
국화빵
펠로시
유봉
미디어넷
아리야
올란드
##카니발
광범위
신고자
나빠
엄포
##던전
##백이
##어지
조인영
##게재
##체전
##광자
코프
##종회
##고르
데즈카
##기아차
형용사
##스케어
소품
김예지
무관세
>><<
애동지
TFS
법신
##가섭
심리
##선인
Wnt
Lord
인간
레드아이
##오온
PJAK
전진학
##티치
##PGA
##건륭
총재
수진
##체자
##SPC
시그네
울만
치주
##판매사
에셔
올라오
덴쇼
an
##서한
##명불허전
##탁오
##배출
베아
기도서
수다
왕빈
요하
미야코
##적극
전담반
현성
##호당
설화
칠레
##능선
소매상
삼각형
##곰
양로
##자이
##아라비
역행
볼펜
혓바늘
##양왕
통제영
라디오헤드
##회사
캇
157
남동구
수
전영자
덕분
ICDH
베오울프
개펄
라피아
RGB
도급
##송정
동삭
레오파르트
터져
김창룡
김도진
##답사
감가
##생활사
함양
##25
London
##암살
##생활
크레이
안드레
##옵소서
consumer
암모니아
팽대
아미리
왁스
독립선언
찬기
금곡사
##경배
FLN
잭블랙
##한데요
##라나
서한
니에토
##지에
나윤
파울루스
빈프리트
소송비
겁나
##자상
##부담금
머구리
강해진
##빅
##드래그
한성
차돌박이
스킨케어
지급금
##방법
##매김
##메이지
카세인
클라이머
##천호
기태
##당한
삐끼
말린
##에이드
남병길
청근
야하
구산
자연인
##수공업
##엔진
도미니크
도플러
##후배
근방
##루나
나타난다
카멜레온
레쓰비
꽃사슴
박인배
##문화사
##먼지
번리
장용
군형법
녹양동
##커패시터
##운반업
교우회
##테이
물류비용
여리
서터
혜민서
정부대전청사
##Ko
베어너클
##미디어
##번가
##엘사이
단둥
체당금
##반란
##크리에이티브
1001
갸우뚱
더듬이
##츠카
의성군
동결
인장
강재현
VVER
파워
##덕재
임팔라
자각
전국노래자랑
몬티
bribes
##키타니
베헤모스
콩
수입원
아끼
콜드퓨전
TEE
발치
기밀유지
##미남
##라야
##뜨
##770
매해
HDC
연운
약충
수니파
##리바
승구
이페
##연노
본인
요시
##구역
이채은
소왕국
##catch
##파이터
##순애보
수원역
##밀리
잉글랜드
고해성사
전기료
##mk
침묵
해인
개코
마츠코
736
한택
##||
샌
##N
악마
슈지
코지
하승리
##투수
##김세훈
배호원
우두머리
레저
본고사
오이디푸스
_#
SFR
##트레이스
##프로세스
XF
차령
젠트
오프셋
큐반
##시그나
매코이
모멸감
야구팬
##지방세
솝
##체아
거북바위
##GRE
##액티브
데코
비오케이
채점
창밖
##모발
반홍
빨
근친
차경수
##행전
AVK
체사레
빌스
177
##PER
순체
##요청안
STV
자본주의
prosecutor
##용목
방태
##니우
황양
대부도
XP
골라인
둥창
Change
하이퐁
공시가
국전
클라우스
작업복
올리버
닭새우
후앙
##공제액
선지자
암세포
4110
내측
법조
일찌감치
부토
못내
샌델
1218
##천향
개집
##후지쓰
##두뇌
가우디
강대현
희유금속
브리지스톤
대피
아라
##Nm
##태재
##획득
스퀘어
박은정
천부
후카세
베켈레
##이두근
Western
##부두
가영
OE
##촉수
##전실
##일고
체험자
##오원
경성
어프렌티스
곰솔
장칭
석사
mom
청백리
꾸며질
뜸
칠현산
ICT
레이펑
보다노프
##deg
##전체주의
미분기
##bhc
맞춤
기수
삼장법사
암바토
불도장
##사무라이
##제철
##렉
리카이푸
노고산동
##시킨
학교
이쿠타
알라야
##통역
마드리갈
##선수촌
슈워젤
##차크라
라부레
반포동
재검증
수피
없애
게놈
ABB
##inRead
##해서라도
은주
##프리덤
##學校
##소래
together
축만
장쩌민
봉안당
초경
평공
열처리
엉클
허리뼈
무사시
트렐로
통령
##부산물
임동락
완주군
타카야
스타워즈
닮
나스티시즘
##Eurostoxx
태양열
##송단
김호창
##결지
##류탄
##삼겹살
뮤직
##실인
경쟁금지
##신경외과
##파울
복불복
단청
앙금
씨수소
해울
세도막
##홍석조
교대협
승자
선미
##샘
구인회
전문대
남남
언놈
프리크
포탈건
프로슈토
요네자와
민달팽이
##트린
사정
입증
에센스
콧물
##소혜
지엽
##센타
조풍
얀손
잰스키
CCC
벽파
##【
김제니
알렉시스
##우담
##티네
데보라
김규
트리스탄
##오야마
##위원단
맞춘
##₂
DNP
켜
무어
##심심
Pacific
제주지사
##복합
히바리
##SSL
##정확도
석등
##현석
##상원
오르반
영양소
이바노비치
비난
101
##현대증권
TMMR
창군
이진복
게슈타포
쇳물
서양
페트로브
린우드
입방정
고황후
원티드
마사지
소방장
BOBBY
착화
##수정
기관지
임병욱
장원석
웨이퍼
벤조
##맥락
올스타
##게이트
식신
##코리아
##푸딩
이스쿠두
마스터
인디언
노베오카
그간
파손
##신사동
키프
아르항가이
rates
##VIP
MXM
발간
하이틴
판정
옥길
김영
대다수
리그닌
리디체
사기장
##고등
##공영
김선욱
김성연
예고
위관
자갈치
사고기
헬리콥터
수폭
동탑
##지정
##케미
김명연
##정서
이중창
##통계청
카트먼
김용준
네스퀵
##진하
살린
##공열
형국
날아가
##추미애
##피치
최예근
시사
##유이
할아버지
페굴리
##융
##석류
##유시
##청정기
플레이스
##역이
##휴
둥충
##새로운
윤환
리슈
민호
PiFan
성빈
##임실
양행밀
브루셀라증
아누
동천왕
양마
최일화
에도
이수일
볼란테
##승낙
르귄
광한루
선보인다고
석상
제논
애틋
조전혁
윤후덕
##트레인
##리스토
우디네세
##웨이즈
##개수
터치패드
이진규
##이등
운평
마쳐
뒤카스
rpm
구체제
emergence
나합
##레미콘
amendments
몰랐다
라포르
최창익
타티아나
##장류
##박지영
##발견
백재이
##이원근
##유원
##레아
죽인
APRA
##넥센
한모
##유전자원
##희언
프로세싱
##조국
엑스페리아
##징거
##소성장
스팟
조정민
##계동
##부타디엔
KinKi
크로마
주변기기
김덕룡
##맥도날드
##前
##조류
##한혜진
송재용
성대
쇼세이
육류
안드로겐
궐위
##窮民
밀림
쇄빙선
##집사부
리보솜
초항
아나스타시야
##록의
##균류
##하리수
의구심
##공동체
CRPS
ESS
안라
시킴
몽골
오신환
은닉
파로
매니저
해시
##동왕
넷플릭스
에덜리
가메다
##내받
영랑호
몰아친
이종형
전월
##베헤모스
##기소
맞춰져
레발
모시리
##스톨
오작
ODS
자유분방
##디딤
청소기
##nm
글쓰기
IDC
##낭자
전국연합
스가랴
##엘케이
온천욕
윤성
태장
질문
이정식
ISC
DJIA
위평량
##妻
옆머리
물관부
하칸
##트렌드
##홈스
알파벳
지평
마욘
노르망디
장이
파스텔
##논
소세
유세차
원각사
##해충
##GiGA
LST
부산역
PIR
팽이버섯
##┤
나타났으며
European
##최태민
한석주
장호
장성구
케인
급강하
##유혜정
다레스
##레전드
슈트레제만
카야
##항차
카약
③
줄이
국제방송
##주보
두브로브니크
눈곱
주어진다
##아속
구본현
임면
##개밥
이오
정찬헌
멘탈
아인스
샌타페이
##김진곤
린스타트업
뻔히
제니스
인출
한솔케미칼
기봉
압류
코미
##동국정운
투그릭
##클레
##추산
수호전
kbo
##진두
에테르
극좌
1935
아사이
강신하
##해
##파킹
서라운드
##성옥
협의
허시
금정산성
##나선
##이브
대화
우럭
대독
GSPOINT
바이어슈트라스
호노카
집필
##살해
진성
보복
잠금
천연
보강천
##부지
관평
관상용
버려진
윔
남존여비
##이동휘
호쿠에쓰
SQS
이소을
##기념탑
##｜
##볼트
뒷공
##憲法
원사
나체상
근처
박종권
##점거
스텡걸
이수진
스카치
##항재
##최순
법정형
과기부
샤라포바
토월
##5
##순환선
미츠
Dio
##강도
##이작
양말
왕골
유족
칼레드
##격심
블라소프
對
##변화
블러
젠자
전문기
##계열사
함량
##↑)·
행촌
모수
##주먹밥
##검수
이징
번만
브라이트
한정식
KDK
이재진
레인보우
지방비
김영지
이주지
##인접
##자산
##편입생
아렌츠
연접
##전지현
번트
빠삐코
도박
하동진
독소
##염료
##절린
이영복
상소문
정설빈
##페스트
릴레사
##증가
꿇
##원씨
들어줄
김기식
명분론
뒷머리
##선글라스
##ㆍ제
박응상
##이익치
##귀약
개코원숭이
공기
묘지
##동보
민디
요리왕
5015
울려
##려지
바슐라르
의기투합
##Yo
##기술진
##녹용
##제국주의
우윤근
뉴잉글랜드
##정안
##명당
##해의
건너편
##디오
류경
##REC
Brand
운현궁
내각총리대신
##총회의
##성급
나타남
##DIR
맥락
용인시
격투기
이연화
페미니스트
부크
##*(-
##다레
##진언
네버
##핵탄두
##농법
##뚝심
EWE
##마이니치
슈가맨
##이건희
DBCP
임종국
네덜란드어
오고토
전제덕
이대현
##성미
##PB
스위밍
다이너
총
사반
##소방청
##소재지
김계휘
최현일
##위플
##교사
##TNFTHE
포즈
웨이하이
연상녀
##더글러스
진예솔
초트
##들
##블랙박스
##ESPN
##≫(
##정동
288
이해도
##도요토미
번역
##하지원
평내
사보텐
김다예
에브
프립
강남석
##팝콘
헬리
이뤄진다면
이태환
##물법
타이거스
무지
##낙인
사역
김숙자
홈경기
정통론
##영하
황의조
농근
흔들림
##만주
##수석
사직단
##좋
##기념일
##수주
명승부
##청송
##챌린저
길들이
##요셉
##한경희
푸이
##대명사
녹각
이양원
##터미널
목장
간자키
준서
율리우스력
행방불명
테러
리피
##오기리
티지
김우수
상대편
콘토
일반외과
##홀딩스
청순
물병
정희준
우호
사라왁
##레버
물어뜯
##강파
##발병
##노회
##말뚝
교집합
알집
목자
사상계
훌륭
엄다혜
명명백백
콘돔
친구
##컴포지트
보조정리
전업
일식집
##왠
후지사
##원공
##쎌
상어
##타키
병실
저마늄
##오류
분성산
관람
훔친
마쓰라
애보트
390
연회비
##카미
에고
##남호
흔들린
로프트
고레에다
아베니
LGT
사만다
국방력
아우렐리아누스
##브릴
속였
##양용
건수
장호리
언론계
눈살
이수
글로리아
서큐버스
그친
##기자단
동부그룹
##화국
알바니아인
##법학
블로힌
##매장
심슨
힌튼
오거리
##계장
사단장
신학용
구룡
##네이버
재심사
김동헌
Today
GNC
천시
##이브스
구충곤
½
영양가
shot
모발
##디펜더
##삼성전기
Punjab
##디스패치
부지기수
고구려
화자
##장도연
##축구
알라바
##表色
equipment
엘리제
린드
문지영
급속
체급
전력망
MPA
백련사
김종민
##양료
##세도
류시원
맥크리
##감수
##화순
스플래시
이익공
공력
금요일
스노든
##랜즈
##4
박보검
월스트리트
변호사법
##Δ
여혐
멋쟁이
##버즈
##풍
타액
아이스너
원인자
내의
앵글로색슨
백봉
바위
쿼터
CRE
노발리스
OSEN
1300
##페가
유신진화론
가져야
엘란트라
말씨름
표선
Yangsan
총격
최민준
배잠
##邊
재혁
박제가
공중부양
##신인도
##실책
교총
호스로
부추겼
Times
##세여
따라올
분출구
387
정현덕
##법과
철질
건축학개론
눈여겨
고춧가루
의순
미나미가
나타샤
##HIGHLIGHT
입후보자
부착물
정선희
산정호수
##임스
##아웃도어
석태
##말벌
##밋츠
허준호
브리태니커
친부
세르베트
태웠
##정액
헤르베르트
보내
운송장
노붐
이윤석
액면
서포트
북녘땅
TRAC
온기
##추정
사치코
타바
##  
##이스터
의정연
##장착
##404
인앤아웃
##효민
강
##라틴
연송
안태훈
릭맨
옌스
포티우스
##교육연대
송시우
이옥선
입하
사이키델릭
분할복소수
바그다드
몸값
죗값
드러내
##국회법
##니코니코
송나라
허기
##레슨
후방
날리
CD
##孝
오푸스
##이끼
이민화
기쿠가와
##종균
예열
##수유
##귀작
##로점
##나자
클리너
노파
MRTG
조민수
싸운
##L
혼재
하반신
골든글러브
상공부
자책골
메타세쿼이아
다섯
여섯째
##수사반장
##거트
위시본
탄자니아
후반전
##데이콤
나카토미
##권역
독립당
박순옥
394
##메모
권수연
유의미
##SSD
##원단
은평
마지노선
빙붕
##재미난
느려
##RELOAD
매끄러움
와레즈
pyroprocessing
##평론가
##당하
소비대차
##CKD
고별전
오봉
##총학
에리옵스
야시시
##西
진저우
##트론
코카인
##치열
발발
무더위
삼성물산
찾기
##형편
자경
앙헬레스
멜로드라마
소용돌이
바나헤임
##伯
##뉴스룸
자회
드론
김권
강태호
##파가
타이산
셜리
Sim
GTEP
##보그
말벌
팻
TWICE
지부장
레드애플
##지대지
김옥빈
##멍
빈랑
##양가
라임스톤
##머슬
간수
손혜자
국화전
##장외
##의외
##20171227
##리원
##체로
소동
단점
##메디컬
풀리지
##박기범
논쟁
다원
##ь
루게릭
모욕죄
부방위
##고와
그래미
##이기범
##이샤
삼론
다이노
심수봉
아카이시
권선동
사제총
##오지오
EMB
EPS
맥거번
1446
키넌
알칸타라
##내외
620
##샤먼
귤
움켜쥐
유로존
BOD
##카론
다얀
자은
김용건
##종언
순암
윈스톰
##워커힐
##용인
오르가슴
##부학장
##죽사
푹
##뜨락
슬픈
전술
##0531
시버족
탄두리
당악
총각김치
지바현
대한의사협회
##업체
주호민
환각
공설
조가
OZ
체화
LG
##고발자
##용장
##싸인
##영음
소렐
머시
밀입국
안내판
IPP
라자드
TF
히즈라
##이날
이해조
タ
##138
해주
유물관
◆
회전율
밧줄
##띠잇기
트롬쇠
로쿠조
##원정
##스팅어
횡계리
##집병
대설주의보
왕춘
속속
데이턴
양다리
지침서
속전속결
감탄
룀
리플레이
##고영태
카리용
체인지맨
##김선아
천진난만
##아스
IOMMU
steel
계수관
개모성
1943
매경
수험
sleep
목감기
##고택
##명목
관광호텔
망원
인코더
문가영
스토리지
##수혜
행상
웃손
허의
##사업자
SKC
강의료
분별
이정표
다코
껀터
호빵
삼익
고압
엇비슷
##꼬치
이상종
##개선
比丘
달린
##체크
##청산
영풍
##향인
열기
##과다
원수현
pagan
설치미술
탈북자
특례시
대동
홍시
리기
PAE
장수왕
아키히토
넥서스
##변론
Clouds
공해
##진선
##본토
리아디
KEYNOTE
밀교
-$
휴교
##지노위
잡아내
##잠영
##굴기
안수
황금향
이르쿠츠크
해골
유전율
세자르
##울릉도
122
##청학
발본
대구시
##외관
비음
박창희
에밀리
장동선
오자
천문학자
엔드레
코모로
##김태용
##큐비트
성수대교
월든
##위방
호아킨
##편
입신
##운반선
리소스
윈터스
박물
베르디
묘법연화경
빚쟁이
고했
이어진다고
잘못
Pokémon
미칠
걷어차
##입체
##싱어
투생
하라리
엘프
가라쓰
##위대
초파일
##캐
대물변제
트래커
##아이파크몰
풍장
공자
연정훈
##무예
태경
##탱
GLK
박문
##다트
옐로스톤
맛사
##인육
##접점
턱걸이
주암
##카가
영화상
헌의
다독이
IRBM
안코
인레이
##세라믹
##리스크
##61
퍼블리셔
서슴없이
골대
임진왜란
등록
시부타니
연날리기
##怡
초은하단
##스크롤
비뇨기과
##풍물
편의점
속고
##타임즈
집터
##구금
시화호
실수요
말총
메
##토탈
AOL
##시키
리치
전환사채
수정체
##노태우
JBS
척신
##똑똑
##귄
푸줏간
가해자
필선
물골
##녀석
지름길
영장
함평
##지드
##병력
하겐
##씨받이
송도동
##나투스
##%…
산킨코타이
##㎎)
클라우디오
가격제
니로
##태현
1814
##官
다제
##술
에투
정성민
퀴즈쇼
##간병
##杉
비갑
똑같
##냈으며
이지하
##남점
##카트리지
Development
##○.
대담
합의점
##브라스
고소장
요충지
민화협
##원전
소장본
권면
##정재
##컨트리클럽
##백성
##올기
WSL
TOMOYO
뛰어올랐
KSRS
여중
신승환
프랜차이즈
##김진경
박철상
서체
오인혜
발포주
경허
베이
구본
장재성
나감
독해
습성
##모션
세션
카자흐
##로지텍
물살이
보스턴
##을지
##석산
프레데터
##심이
프레이밍
##마이카
이창환
##공방
교세
HWPL
흥해읍
강세황
##노미
따스
##교육
##돌솥
##보호
광무대
왈왈왈
중왕
소반
마이크
##해선
모든
##舌
손연재
마사히코
##노름
##설토
누네즈
카프리
헬퍼
달라서
알베르투스
돌무지무덤
쿠쟁
피파
상장지수
도표
멘진
유리잔
into
공한증
삼성제약
##CVN
발미
##조종사
갑오징어
번데기
##라고
접할
지켜낸
선교관
자객
신문팔이
광속
##응단
마츠시게
판테온
표방
매킨
레벤
도성
의창
##동호회
##교과서
하마사키
국간
차노아
##삼진
양성자
프로코피예프
일란
##잔액
CGS
웬델
##처장
##매니페스토
##者
어란
허구연
##회사채
##예보
##졸자
코발렙스카야
##0403
##화증
판영진
XX
페렉
##관이
##中華
##경심
서정민
기름종이
트란스발
##외식
자금줄
상적동
##스웰
아포
최용수
도로망
문대성
##열사
보드레
중기
##슈타
팩스턴
문득
##㎍/㎥,
##서귀포
카리우
스파이
불세출
시급
카르다노
귀두
##어미
사도신경
조한선
린데만
신문왕
##이신
위창
헤비메탈
승아
김민지
분열성
##브레드
묵과
야조
이비
##모험
ERM
쌍봉낙타
EQ
브루드
##윅의
##캡터
배재정
유한책임회사
비아
각료
면허
미니스톱
##에선
조슈아
##전채
BBJ
점유
콰이
##스퀘어
트릴로
박찬홍
비커
agreement
형용
행오버
나카무라
BT
남북협력기금
##난청
기술원
##당초
메디온
서청
어록
이정신
##재개발
박스터
계도
삼둥이
##중가
##바시
스반
##절친
움베르토
류중일
장안사
##쉽
모성애
노브레인
266
먹인
##반복
소매점
##국감
카르마
TREIN
학생복
카르도소
##紫
XV
미동
##교단
##단지
도전
##業
미그
불이문
변광성
##자바
조림
##얍
##Total
김성대
민족주의자
푸트
로브
전현
##알코올
##우방
이애란
탈출
황혜영
##에이티
우종
##멜로
에쎄
어웨이
솜
##한림
##성점
LVMH
##오아미
데포르티보
출판계
##살인마
모젤
죽
한지은
##푸어
수리공
고지혈증
니브흐
파티마
피폭자
##슬
AIA
왜왕
##순경
##기준일
재패
##편광
##달비
사제품
김상헌
도나카란
해악
게실
라는
##울금
발해
거물
##번이
보나파르트
여행기
오은수
##space
강관
박기영
##블레
측면
리더스
PMQ
백상
아카이브
박신애
멜로디데이
배상문
##활사
부렸
##용액
##착륙
평범
강릉역
계
##소유주
다진
##코스닥
##해져
대장암
진랑
모놀리식
건즈
약학
대한볼링협회
##마당
##교류
더블유
##버섯전골
강천사
카라지치
나임
김덕수
동물원
##이븐
기사회생
##충동
옥택연
지글러
OOCL
##로미
##침범
##건위
##住
##路
대도
##대청
팬택
##海
무하마드
기울여
##절대
##엘리
숨길
블롱
##루시드
추리력
김한
아이젠버그
##소불고기
##오끼
##구급차
송홍섭
##된다
위독
공교육
옌지
효성
하인즈
모리토
##석부
##작당
##명화
류지혜
김가진
안인
##성파
淸
제법
충청북도
정일권
##합
210
##틂
일어나
무모한
그려낸다
윤수
류트
피서지
위축
예카테리나
정기준
##불테리어
Take
뒤쪽
##코트
산뜻
##표현
부활제
나성린
##시절
연예대상
##했으면
귀뚜라미
한수진
매씨
보철물
벡
##무진
적위
##학의
응오딘지엠
이청준
탕감
Nmap
##선충
사샤
이수자
##떼
이희범
##노무
장예진
루자
써라
이누나키
##틸다
##스테이크
패덕
한홍구
##─────────────────────────
##UV
베다
용어
인계동
덫
영자
新
##CHEERS
쿠리타
도제
커리지
##찰
##비락
공공시설
FIS
Sh
인공위성
god
가요
레그
무사히
##체험학습
웬록
##김천택
에쿠
##대경
##실력
##주은
##廣
##지대론
##노츠
커밍아웃
DYK
검법
##구급대
##데몰리션
급변
박금철
한학자
##임코
##백발백중
임팩트
##내역
언드라시
참나무통
##누가
구디슨
조기흥
##교식
안키
##원텍
파이터
장운
##야대
작센
전량
나리아키
##발표문
RMS
맹꽁이
MIRECO
##했어요
North
스카웃
다이아
##하차
876
##youtube
##수습
손주인
은방울꽃
컨디션
비좁
김응선
증발
능
##Plus
##驪
맴돌
##완연
##全州
빗
강충
each
##관객
아울
스키타이
애니프리드
excerpts
나탈리아
##윔블던
hts
##表業
##미네소타
올레핀
정지현
좌판
셰퍼
SPR
김창종
which
뉴에이지
PCR
##이겸
고진철
##라우스
플류트
구직자
그릇
도와
편대
디렉
##길씨
##여아
황금
달군
처먹
칩스
디즈레일리
가품
##마시스
##브
편전
##망명
김정권
동승
##신발
##0327
구세
##피하
##끌어갈
##봇
설악산
##조인영
구골플렉스
aircraft
##정유진
##Ger
만기일
##상식
##세제
폼페이
소그드인
##북부
채운다
임종석
서정원
다이나
이재석
개딸
indicated
##밭
페인트
맞불
관음봉
강일구
##다니
빠울리
WIPO
##일진
마토
구당
##이맥스
추모제
현정화
##메돈
밥그릇
임창용
원술
정성옥
이백천
상계
블랭크
##지레
##어제
##배출권
리지웨이
##건축비
##장점
고프
최진리
엘리슨
붕어빵
북악산
##Let
웬수
FC
키리
원사웅
토니안
내리막길
딜런
##>)
##마스터스
덕주
smart
양인
픽업
##노련
베야르
##浅
##보상비
안기영
문세영
영안
나가타초
##별다례
김인영
##㎓
차갑
##장주식
벌판
쫓아가
꾸지
미혼모
정강
언더우드
##노심
체육회
팀푸
##칭제
앰배서더
맞은편
##스노든
##온간
##산물
##MA
2019
이충호
베르베르
정박
괴로움
##EQ
##사자기
파면
지누션
몽상
영표
진혁
서부간선도로
코멘
얽혀
이진곤
박제천
흘러
검문소
##답지
데카론
청산도
개렛
##주선
다양
##Pinus
삼락
##사모
##특전
##291
페리에
허릿단
상감
보컬
##가주거
여명현
##강령
바티칸
##상복
석륵
##공급자
앙상블
관의
병탄
위빈
성시연
##오라클
##넬리
##매독
##조림
정대세
성호
전병우
전신료
##쇼크
잔자위드
진언종
박성은
김세의
모스크빈
트로이아
떡
마이바흐
니호
체다
##끼치
강용주
##조보아
난무
기사단
##↑
셀프
대주자
스칸디나비아
흑점
전보
JPO
##엑스포
판문
##천억
달기
##논의
라원
순치
후지와라
심장병
##점퍼
이지언
유요
##보이
##지도층
장곡사
##async
슬래시
포
##금회
신창재
장난치
한장희
말끔히
볼커
미트라에움
패배
요시오키
가마우지
서편
##+’
설악
UFJ
간통
친수
구경각
FFFF
통일국민당
##하나님
대전시
지주막
김정섭
박용수
##전제
스킬
##침대
##권자
##인민군
##포럼
이가라시
##믿음
위아래
##캐시
홍파
##합의체
김희라
임미정
줍
sales
자인
졸라
힘겹
##光
안철
##이나마
강병현
크로이던
##교육령
홍준오
##마두희
하차
가공품
집중력
찾아볼
이연희
기초자치단체
해리빅버튼
아유미
정절
##진일
구글
##스투디
##KST
##와트
##심리사
##박유천
##오션시티
누룩
불로초
비나
캐롤라인
오동나무
재활용품
##멘스
JK
드루
로체
영구
##dL
힙합
조산
SCFA
조도
장민
##다운사이징
##타바코
##두통
전갈
에스포
윤태원
지총
外
한나라당
최시중
##보고회
조선호텔
승안
마조레
소손
##백록
##철종
택일
게코
##본관
공공성
이홍기
가설
마사토끼
##졸속
##초자
알락
임우재
##다이브
##5050
##연합
##고노
##시아노
##음식
Hanok
이격
##투어
신드롬
다마스
금복
##제주일보
이드리시
박정은
구릿빛
쾌락
올려놓
신다운
##존기
진정
서늘
허세욱
까닭
##단백질
835
##치핵
신상훈
하늘
양극
단증
거룩
스크르텔
김영희
스테미
##세외
합의금
방광
체첸
누군가
쓴다는
알두스
타키
칼리스토
##APT
##일화
소프트크림
##호흡기
항재
억
IPA
곽준
##루더
##어쿠스틱
##갈치조림
발행
##부광
임익준
영미법
장동우
##켈로우
담보부
통일성
마당놀이
##이우성
공범자
수음
호치민
면했
키멜
##중량
##대점
인상착의
다마고치
로마냐
윤휴
##국고
필로티
##망이
##변종
뜯어먹
##공사관
꼬리표
##어반
임일규
##신기전
집집
착취
향교
##힌치
강재헌
카발
뒷돈
##금천
데물랭
##이납
##苦諦
##전장
도미니언
히로모토
##므파탈
쿠다
카를로만
조인트
김지선
아동복
에번
통지
이탈자
전웅
기피제
홍영후
비하인드
일면식
팅커벨
jQuery
취나물
사사가와
##이한열
벌리
라모스
마준
##오스
테하다
##루센티
##전용
포투
RDF
명리
정미홍
간격
소버린
왜
윤주
착장
##nd
##머루
##구례
##영순
예고편
옻나무
유토
프라이어
##是
김로만
##강물
오무라
스위치
KOO
앞부분
##持
파이스
풍등
핀잔
##옵니다
핵탄두
상좌
가나가와
가정복
##주변
##미즈
##BCI
소토
##Amundi
아르카디아
보스니아인
투척
촉룡
김흥
캐리어
게레로
금융인
자이디
##기후
##타졸
즉각
##의자왕
##안신애
은위
김혜윤
Wee
테제
여연
정상수
##KIBS
볼키아
##내려가
##申
##정연
고궁
아예
Alter
봉축
초성
모리타니
토함산
증강현실
레이시
##택함
유웨이
쇼핑백
서민경
##술통
##뒨
꾹
시나트라
수표
##청호
##돌침대
마디
연성
문명순
##하이테크
박슬기
파리스
이재문
숱한
파문
이호철
김한규
만연
비홍
##의용
윤두준
챔스
##clamp
경보
미국인
##기지
덧신
CGL
유천
BCS
보증
방과
dspace
각화산
피사
##정옥
밤바다
'.
그리피
나누
앤지오텐신
네스프레소
아자리아
432
##변이
왕단
케프
유암
선석
들떠
##호환
종이비행기
##심신
##루드
1859
##난이도
유기성
군필
##직구
##낙찰
크릭
##보살도
아이디어
##득표
진채
북간도
골라서
쾌속선
서호동
##JYJ
놨
이일규
1791
아메리
##민혁
##&▷
약해진
##강철
호겐
발기
호세프
##스킷
##후부
그로브
김종찬
유순희
##혈증
##동쪽
동척
##FBC
##기념물
##유소년
쇼걸
승부사
스텔
상주
##○○,
임부
바노스
전리
요시미츠
황과
험악
후설
##까칠
지자기
##군포
조재연
혐오감
##대회장
##덮
쿱
##감호
##음역
홍세
윤락가
##학습
##꼬
민덕
피부염
야노시
李
Ng
WTI
메르텐스
TEW
플라자호텔
##ㆍ관
bike
##원계
목뼈
나진
켈젠
이케아
하품
시아버지
국민행동본부
성약
##호의
##be
##Trunk
여양
KIMBO
##배상
장링
##외의
##홈페이지
쟈오
박덕흠
제단
어머
반나절
##정태
##Grand
##％,
##리우
고암
뒤덮인
무위사
##디스커버리
청각
나오
EAN
저택
할례
강혜승
##PA
정육면체
##It
견뎌야
앞세우
루타
캔자스
##타군
##****‘
어퍼
리자청
앙그라
이용원
라이언즈
##로변
후두염
마루오카
##능인
##뉴스
우빈
박기범
당기
솜사탕
##부적
어겼
##기프트
##세한도
##고전
백제
혼례
##서인국
증착
##REN
박현우
업체
문빈
지평선
##입력
남십자성
만두전골
슈퍼주니어
##영감
##사소
산헤드린
숙면
##업종
##올림
강심
이흔암
비어드
알맹이
바카
##철폐
이세영
포퓰리즘
##너머
당과
엄씨
현정은
근적외선
심온
하달
핫라인
망우동
보겔송
하염없이
##알런
해양경찰
문방구점
##곡물
석쇠
본문
구혜
내수
##강신
난장이
흠집
네모프
##ON
PLNG
차유람
연기자
익명
대축제
##햇살
##우에
임란
보이니치
남정석
비상시국
명량
구인장
承
POP
전합
외곽
턱
손혁
##슬픔
서유구
##32
##제이든
20161230
박훈
산주
최재성
##빌보드
달라란
배좀벌레조개
Cargo
복심
##ㆍ외
Los
고형
박인희
##배두나
비책
화강석
##스포츠토토
김완식
##8900
비상장주
##전차남
##M
과급기
위원회
BoJ
##금계
짚신
걸친
자위기구
이운룡
김항곤
흩어지
##비차
상원
각자
데몬
##양교
주하
##진심
제쳐
스이타
외인
##기체
깃든
##차진
편강렬
voter
##똘
경상남도
##주택
##설빙
##사본
라스트
##=<
윤정현
##미연
##아파크
김관영
하주석
박원재
##담당
이세돌
한라
김동원
관찰사
북벌
취지
옥대
##브로드밴드
비의
수력
##8100
##중경
America
##프로세서
양친자
청남
##정권
솔티
신지훈
1980
청담
앳
##경각
남
##한스타
리아
코리보
경문
면제
##안보
날릴
##이라이
##대표자
적절히
라익스
뒤꽂이
토냐
사열
사경제
김원형
역이
홍사덕
청동
위트니스
효문
##소탕
##芳
뷰런
OpenDOAR
샘프라스
##디슬
여배우
박혜진
다각화
덩크
위변
##0415
공작원
건륭제
62
동대구
토토
매각
##호랑이
##회인
권성열
황인용
장현주
하성
박민식
Acid
##천변
학병
##사람
연맹
##비안
ROAD
조승구
##판지
아타나시우스
사워도
야규
노래자랑
##현황
특전
고레스
도개공
##영창
롤스로이스
##삼영
##적격
에스트로겐
논문
##ㆍ비호감
102
에스테
고창
천박
MPV
##전후
엘리사
범어사
휴대품
로키스
열전
니콘
갈릴레이
국제축구연맹
시모쓰케
무궁화동산
폐단
매봉산
아키호
##속성
##외상
여류
모듈러
##타니아
choi
##설계사
비상시
미지수
비트매니아
VOS
조영출
베타
##PJ
폭약
무효화
고양
앤젤
분광기
바버
##표차
삼포
조망권
정동행성
목천
항온
랩스
충민
학세
##妃
##사업
##냐
김철규
은행장
##§¤
쫓겨났
단호히
##발령
이싱
발할라
125
호령
홍지원
##산가
디메트로돈
1947
직종
##엿
##소장품
고가도
##특정인
초석
부패
개미집
북면
##베타
책문
약초
하든
플렉
##IBM
김원빈
랑에
투루판
한승우
##사형
##선관
소중화사상
GTF
서예가
백원철
블라바츠키
아메리칸
윅
희빈
764
QVT
여행자
컴플라이언스
베니스
##트랜스포터
여우원숭이
의롭
크레인
Schofield
사생
##괴산
##㎥)
수사망
힌덴부르크
수유실
블로킹
고고학자
이동기
##여옥
선보이
바이어스
##여단전투단
July
##쭈옌
##익세
프린지
399
##언제나
##다빈치
2937
땅꼬마
송인
성명학
청미
KBS
낮춰
5050
김용의
조각상
정혜선
대본영
##低
##초립
##버디
디오네
현대증권
돌려야
양준욱
딤미
일제히
수업료
우루
##보옥
뚱뚱
##용수
##연가
##렸으나
강문수
파행
겸재
##들러
DMAT
생어
척자
조
희열
카르틀리
이용경
##노희영
무루지
##노출
콘체르트
복원사업
△“
##명안
바실리스크
끄덕이
##튜버
##연합뉴스
한종길
항변
##에탄올
리건
영덕군
윤세아
정동욱
장돌뱅이
##솜씨
##타의
인트라넷
에어로졸
시대
##깜짝
##수집상
빔포밍
##교예
JKL
물동량
빈
##유생
##이롄
선편
팔로알토
풀꽃
반동
단독
##이하선염
정두홍
명확히
광영
요트
##아임
전임자
##사쿠라
##등교
웬만
유디
communication
마그노
CMRR
오프스프링
##색전증
데렉
FNC
##카오
Shake
아드리아
초읽기
충전재
콜라로
They
##투막
홍라희
##소개
##우사인
풍식
최호정
조회
소전
볼링장
조선철
스콧
쿨
스가와라
이정심
##대타
한현희
엽
바다뱀자리
애프터눈
식탐
이바노프
록맨
김경은
##불장난
##마녀
한프
클래시
석양
네트
TAC
제로베이스
강석주
알비노
순위제
대우건설
루센티
##로터
악부
##KHz
나인뮤지스
개찰구
적선
시루봉
정림
보간법
##FOOD
##영광
##여서는
금력
사톈
위투
##적정
##증진
성유진
아름다움을
##신혼
공업용수
들린
##잖아
죽굴도
사자자리
##양구
조나단
존스
##아시아
##267
이동윤
추념식
몰입
특검
##斯
황충
이곳저곳
##응원
##러너
##해독
우성호
##SLBM
HPA
노미정
양식장
킬리지
##은계
커스틴
##중증
공진화
구둣방
가끔
차가워
쎄라토
##변의
프레지던트
등나무
쾨벤하운
임고
##동그랑땡
간송
##연금
덕흥대원군
미립
##선가
콩깍지
박혜자
##유아
그건
퍼져라
##경련
##울프
항암
##미코토
##연접
발사믹
랜든
의정
우수지
허머
##프랑켄슈타인
##실즈
패트롤
어정쩡
판매사
선로전환기
주진모
도씨
##라서
##아리
expectations
비질리오
타트라
이정준
edm
어포
막혔
##전과
공론
##제주도
##최영일
백세
요인
4889
저어
입자
나리마사
소조
##if
라이브도어
인명진
반절
##상계
##서초
##팔러
##해제
확정
래커
Top
유하나
##중소기업
##방지법
억제
이미경
448
이기태
통안
김철
본부
커민
##천추
온돌
foundation
목도리
##도리
##내시
##유착
뜨베
갑부
비야레알
덴데라
맥어보이
윤가
##기본법
인그램
##양수
우문호
NLL
##웬디
##면사무소
트래시
수은주
##린지
헛소리
귀띔
##오거스틴
##⇒
고음질
##왜
유다이
길현
##+++)’
##트럭
##대금
##이정현
##병원장
데레사
##던스
##광야
달의
아덴하트
로사
신입생
BOM
제
에조
##無智
부용찬
퓰리처
비기
지겹
##빙글
신동방
조플린
WWDC
서오릉
정운갑
용화사
쿠션
평온
방점
##메시지
##혁명당
뷰티르산
우화
가져간
TRUE
디알로
빗댄
##골재
　□
이시바
##감각
고이어
민방
##NC
##ㆍ윤길현
##MD
신조선
##굴
##크라운
레일바이크
##양산
여운광
부락
론진
##홍덕
IV
##윤지영
##두정역
초벌
이적
흥륭
효경
레이미
##그린피
##段
볼리
AVR
##디자인
무학산
삼중성
고전극
##분쇄기
##교연
비관성계
경수
##연석회의
##요일
터닝
##천황
손해
주이
정하늘
목소리
☆-
OGLE
보탰
황치훈
##갤런
쇄빙
##진현
철저
건너간
김택형
빼빼로
시뮬레이터
무더기
귀지
매섭
노섭
시시각각
perfectoid
치료사
원유
고무보트
가위
발라도
마일로
오연총
하치노헤
기안
스커미온
풀어놓
##케니
귀차
메탄가스
변수
프루스트
정훈
물린
함익병
제조장
##-　
엘리엇
이광영
##현충일
##pub
삼도
인지질
변양균
TH
벤트너
차출
##숙식
클레오
공국
현미경자리
한자어
VRS
##화식
##윈도우
투정
메오
##구상
햄릿
##쿠이
김상혁
유한굉
##인건비
##브링
##분리대
원두커피
홍어
유상무
##브루니
미소시루
류한수
명산
일등
신부전
커미션
가이던스
##예대
강영희
디디디
##노컷뉴스
티타임
노구치
야곱
부른
마산
Bull
##고로케
중감
간자
Ogg
##보위
##정경호
볼넷
스키마
데니안
물어본
##FI
∠"
##배구
아밀라아제
##트라이앵글
DY
연행
근태
수용
dica
임동진
해란
함박꽃
노드
감회가
교회사
보신탕
은하단
험한
해만
발레
노런
인치
##테토
가려진
유색인
봄이
##문학
##ft
노상래
##코미디언
오정복
Vice
##양증
굳은살
방아
사은
##의증
아시아트
문민
앨머
비디
배용준
나위
다이어리
##참한
마복자
안창호
식후
박주신
트라반트
훠
철강
블랙리스트
##검토
##서플라이
성문
주근깨
##사업체
덩크슛
아늑
포스젠
일렬
오뚜기
장서표
탈수증
##티모테오
사계축
세계관
PV
최수진
해전
##이소룡
여실히
사다함
##NYMEX
바란다는
업데이트
오륜
몸
타깃
##오노
염장
교포
##인척
진혼곡
불도
토필
필란
시로스카이
##스탐
탈레랑
##▦
나섰으며
BNK
라쉬
샤잠
소제동
##시스템스
칭했
최재원
광시
공군사관학교
발레리나
하기우다
김경란
##ODA
의치
스타인웨이
##유차
따라했
##어렵
##포렐
칼자루
##인터뷰
참극
김남춘
피터센
교표
이래
##용도
Engineering
Reuters
조수원
우라칸
김종수
나티
건가요
겉잎
모아
축농증
직전
마저
##바이오스
밝혀라
##동의서
NCUK
마이클스
데자르그
##태계
복학생
##乃
##피리
다르
애매
떨
루커스아츠
명명법
WQHD
단기간
되짚
영불
바다열차
챔버스
Expect
남옥
라트라비아타
우석
##진달래
봉성리
##존박
##Pink
##끼
여우비
야식
지도
코빈
OIDD
오퍼튜니티
살코
동자동
구단주
이용은
다나베
##시국
비이
돌아볼
송승헌
유덕화
카친스키
전적
##그래픽
##용사
##정촌
이봉규
배변
양성
##례문
CMC
YWCA
표명
##인유
KGA
##으로선
##저소득층
재입찰
##^
IDX
메가데스
##퍼
인구학
임상옥
안평대군
##Home
디바이스
구루와
##엔젤
보노
##ajunews
##그린
아비정전
##팬덤
파이로
##공헌
##행낭
끓일
산속
오스
딜리버리
##`
배병우
유민호
##양방향
박용지
급급
##진린
개정
##9393
사상자
##윤태
기본요금
성규
토픽
허파
PTA
동삼
타이지
이집트
구렁이
잠수교
##단봉
이육
##드롱
슬라이더
##惡見
##클로저
HJIT
샘
##출세
망가짐
##금의
고군
론돈
Aerial
최서원
공업화
##불황
##트리
MAR
카이텔
##니스트
찔린
공리
##단면
향신료
마쓰
민족
무테
케냐타
허린
부주
IMO
##변협
라카
외규장각
##전날
시타르
부안군
무상
VGA
임당
##대한
강소
고기영
##서열
##경시대회
셀빅
##상규
서도호
브링
도이칠란트
누전
왁
##8919
동아백화점
##더라며
##설단
이동수
##상국
PEA
저스틴
일룸
나글파르
##타점
뽐내
중태
엄마야
물금역
모감주나무
필획
박영희
호탕
건너가
##아토스
놀자
허들
피고
아시리아인
도마뱀붙이
사닌
마안
DTG
생각났
중뇌
조정석
##노걸대
김준혁
히즈
송도역
그렇
##제조사
##惡
##티폰
##환난
MV
##식권
CCP
Yun
##월드
투자가
ATR
##브롬
케이윌
코다코
##++++
안내상
최재웅
자아내
조명래
##사쿠야
자이스
##대오
종순
와일더
##허씨
질그릇
##베링
로이킴
mtDNA
장민석
Investment
Bank
일구
스코세이지
돌려줬
##그저
갈까
##반사
##신고자
순국
구심점
두루두루
에이바
Fe
인류세
##매트
TATP
비행
##식음료
류진
##스캔들
와이퍼
하이커우
여행
협공
##Blackwater
김상협
생필품
상무
지류
##인맥
코레아
##제자
분자운
시도
백지
##켐
테르시오
춤사위
철권중
##전의
##봉담
더그
투하
요절
압밀
레기아
성우
시코쿠
알레시
튀코
##북경
CPEC
최용신
대놓
올라타
사이클
##어야지
로드
##나르샤
휩싸인
“
박영아
##운동가
헤리티지
Sierra
##고소
심플렉틱
AGL
매표소
성황리
논외
Conatus
양정
과학학
풍겼
##취영루
김학래
슈스터
##CBO
트위드
전극
집짓기
원미경
니더
올드
태평로
##법명
격변
꾸릴
17
쪽
목사
##만화
양푼
##무실
##폐회식
NIOC
##몰탈
마테
미력
드래건
베델
강압
쿠오모
최태웅
##ref
##둘레길
셰티
##측지
##교구장
167
즈시
최애
중명전
내려갔
산둥
##Ⅰ
솔터
사령관
##낭인
괴체
조유진
##타지
##셰이크
김한솔
##노벨
##잭스
##장색
트롯
당삼채
##송윤아
감단
##검사관
지배했
황도
시카고
##FOMC
##DCDCDC
미혼자
##판빙빙
심판원
춘천
듀이
##하평
##호법
##↑)
무가베
##수인
##672
김수미
지나
백상원
DCRE
##럼버
김가은
신뢰
##단성사
복벽
가우
기묘사화
지정
##바이오센서
COFIX
##가곡
민주공화당
##시재
제대
##이메일
탄산가스
##ㆍ정차
##방망이
이뤄진다는
사방
##'→'
##珍
보관함
백남신
##승점
경사로
타이탄
왜색
아가씨
소꼬리
꾸며진다
##위적
##1257
무니치
나마
입히
닛폰
이기현
번뇌장
난
민물가마우지
연면적
##재외
##단말기
트랜스젠더
##적기
밉맵
김민수
알콘
##종양
##주덕
##나가시마
아물
##상임위
잡음
##Mb
리은혜
##△'
크림치즈
자리스키
손잡이
##南倉
싸워
미마스
재임
서클
블루베리
신호탄
전리수소영역
총학
니카이
지스코
감돌
##테츠
KHU
키퍼
겉옷
##추우
스키드러쉬
##정진우
황기철
MCP
아름드리
염치
법천사
초호
미쇼
##난이
명가
라칸
태석
##효력
##앱
이원론
개런티
장택
치운
서도소리
최명길
김정훈
생면
다크서클
##챔플레인
백과전서
닫히
행태
공작
BBM
콘스탄티누
시조
포난
New
미러
##아수라
##대출
##감속기
수우도
##남불
김현민
라우에
##지방대
법망
##승도
체득
##칼리
구매력
##저항성
##조현
명단
##김영란
여전
##반통
콩나물국
완하제
의붓딸
김새론
임나
##황우석
권희
##는다면서
기화
노선버스
##별궁
INF
최미진
가고
AAC
##치우
위민
오광
##퍼블
조홍
오병
따라와
안혜진
##자담
태솔
열무김치
대패
이목구비
맥라렌
##윤상현
올드보이
##혜서
낙조
루치아니
르마
김승
김준헌
어필
Kim
##전임
시유지
##아비
문수원
뇌섹남
남부선
BOC
야고보
SCI
쿠베르탱
FXOpen
##템페스트
화보
Paradise
##　□
전셋값
나바리노
##여혐
희금속
잡종
서상일
UMNO
이혼녀
김호중
박계용
뼈저리
반기성
퓨어킴
박성철
지회
케빈
베넨슨
##원시
##혜선
##초원
볶은고추장
김용화
##소년
첨사
PLCC
쾌속
티나
Society
##이유
베버스
##도널드
##어때
신다은
정선민
JACKET
타이어
송종국
빗맞
채움
##실기
봉의
HBSI
##JC
##분장
누님
##정해창
계통수
반포레
학회지
DJMAX
약이
늘렸
##차스
본루
특허청
루트라
##숄
##모철민
아데나
##CLiP
권종현
고전파
사보이
권순기
##FnC
##국판
위명
##대항전
가환환
PCT
##박주미
##한마음
##CNN
##춘당
박혁권
##어음
엿장수
##*(+
우엉
살아온
##카펠라
사마휘
신성군
ALPS
##국의
갑판원
WCT
므누신
518
##소형석
노니
부끄러움
친동생
##벽장
빌렸
김일제
필치
선택법
MOST
트리스
##파이버
애리얼리
마르셀루
원자력
시라크
##charset
음악중심
##버루
신영균
골든듀
승정원
##49804
##노스페이스
##킬로
두근거리
프리스비
현원
##강렬
송강
다카노
선거인
놓칠
HTTPS
##예술계
대금
##품목
자렛
카론
프림
안규현
소냐
총본산
주총
진루
##당원
성공률
젬
의비
삼중곱
임영신
포켓볼
엽서
아이스크림
##다라니
판넬
##포항
##표트르
노스
사마양저
터보팬
다향
##지재
이성욱
전자쌍
님의
임종기
##철탑
##㎚
오토다케
타마요
제이슨
##글램
##경사
##월급
Rinpoche
치솟
Again
LH
강석호
농노
수직항력
니발도
정수라
주배
임동원
히노
임지규
##어마어마
부속물
민상호
어브
##&□
슈스케
##송액
tissue
##샴
원더스
절점
철암역
##월연
##일요
용도
##루돌프
문선명
플라워
CMP
MFBTY
##박정웅
GMP
하이페리온
변정
브론슨
경영
송암
##식스틴
모용초
##엣지
안현수
올챙이
비수기
도리안
이탈리아인
러닝메이트
##PNC
##음식물
##전위
김용원
데모노이드
##정세
정수장
청와
인슐린
PKU
민세
시버
원흥
신예원
힝켈
이연수
##PS
全
##계급
box
김대엽
OpenSSL
흐를
흥부전
플리트우드
아틀란티스
통곡
##ː
##화원
김기방
구드욘센
인력난
막걸리
교부금
해방함
서낙동강
열등감
틀리
악극
말름
금난새
대사산물
여가
서아프리카
박경서
연
##한승연
휜
벨로드롬
##헤이즈
김종규
관민
차체
탄탄히
커프스
조택원
##박원순
메디케이드
이성열
좌측
대문예
구본능
역습
모친상
##전동
위비
##박성광
founding
엄숙
이광종
당락
무자본
노유
해장
##신하균
이래서
최석
Su
##투니스
모권제
##‘)
강미선
청조
##"('
데살보
최종
남친
소신
액세서리
HIT
##종별
상강
라오우
1999
##머릭
스트레이트
##각목
후비
고집
게시판
왕정
스트라우스
입점
공공장소
윤지민
발레리노
IATA
이현상
##고조
이성보
재무회계
로모
NSO
음비아
##마약
사헬
인구수
서스펜션
##법어
##포티
민주사회주의
##소음
##지명
국회법
틸먼
일릭
자음
온수기
##이노시톨
##쉐이크
song
반죽
레오나르도
##행검
즈리
##어다
##비석
모츠
##송파구
인명구조
##파업
곳곳
##베르타
재판소
진영수
에레스
1565
지지율
안드라카
##지주회사
대충
Steel
심하
고도일
자장면
잉걸스
이주열
해우소
오원
안홀트
"#
발연기
문샤인
애제
윤두수
내보내
##럿
##한강
중랑천
##mph
재커리
토스트
타이트
이래저래
뗄
EPrints
지담
김준성
##RPG
윤석근
팬츠
##공여
##양
##탄생
##적금
이와사와
무리
KEI
##캐리
독극물
터틀맨
개천설
보인다
##끄
정정용
암화
총사퇴
양제
##대신
히말리아
힐라리오
정년퇴직
##챔스
다뉴브강
시계탑
##시작
##라비올라
화식
앙트
인술
하승진
본서
쩍쩍
드렉슬러
##모티브
##얼리
아성
Farm
녹십자
##사상의
ZHENYING
기능직
최율
##타석
##모니터링
스포일러
##만든
쾌유
##출국
김동욱
벨라스케즈
GUI
국선
에가
안나푸르나
대산문화재단
독식
윈프레드
연애담
석류
홈스
김민성
##샤인
##수질
컷
배런
##눈꽃
대영
노약자
낯가림
기울이
슈퍼컴퓨터
다시
주우
##체이싱
노비
가키자키
농업용
사당동
자술서
커리어
단종
휴가지
##피르
총집결
##광우
##칙어
플랜
전옥
글루텐
##솨
##육
세션스
마우어
one
해미
훅
##시민운동
수년
쿠와바라
이병주
석신
존안
##리토
허심탄회
##봬
##기쁨
리틀록
##정동영
##亡
티에스테스
CECO
##목형
트로피컬
감연수
가라바니
##연수원
##황금
##中文
수출세
파열음
방배
계엄
네이처
제일저축은행
루소
헤더링턴
ASIC
파로스
운항
김대훈
김성준
May
니제르
아레사
공청회
##Beat
고카트
무업자
기술료
도경완
삼양
장재호
##underline
local
이호석
##버
당분간
##>△
버뮤다
디엠
카운슬러
이재록
##합계
절로
##↓),
홍익표
펩타이드
##패밀리
극대
술자리
박지현
비벌리
보코더
지도력
행사장
Naval
##상생
##Train
코팅
올레드
##SYS
Class
상회
아로나
##끔
사법
OCF
장혜영
연거푸
온천
UTF
구엔
송영한
##더니
베라크루즈
FAANG
김명제
##창문
##서부터
##양념치킨
##처분
##냄
해안
글램
밤사이
읍
철권
목욕
외투
##류수영
현판
##보문
마레
뒤따랐
민언련
##ZERO
##펭귄
권역
##김밥
American
헤카
##모리노
드랑
와니
##찬가
미야비
베이비부
박정범
벨린
청산가리
##탈러
##keyword
크라우치
여생
##제물
##하이닉스
##치매
##임대차
힙스터
강기윤
근린공원
tvN
##주한
명료
##비데
화병
##황금연휴
UIP
##케이프
공동체주의
강우석
비막
##59
멸종
##YS
히고
알서포트
최건
쿠보
BRT
그린카드
AVOD
외환
중요도
2010
승원
부메랑
박상구
HEVC
##사계
영혼결혼식
정윤기
상간자
CNO
윤찬희
부정기편
부건
아만시오
가산
마자라
빅톤
##안네
엑스트라
나아지
##챔피언십
##TR
##기견
초복
광암
이지형
바티
작아지
아랍
결번
마성영
조용수
##Hoot
OMEN
##후견인
조윤준
LTE
KC
##학부모
이중환
박미선
맥매너먼
김광서
축령산
오승아
프로디지
션트
갑옷
주옥
##통장
누아르
알베르토
##동법
케이투
독보
김태희
##프로듀서
도진명
공략
김현섭
##장흥군
##멀
할리퀸
##란초
이스마엘
용적
##HMR
LiB
지난주
TCB
사절단
상충
아델레이드
##크리스토
정인숙
허름
피데스
ICC
##433
알기에바
스패로우
수형자
허윤경
##입찰
흰개미
##국순당
가르
##auto
혜미
이필근
카사트
##위니
조피볼락
퐁티
##코지마
##시폰
탁월
##프리
##우즈
사쿠라
##방망
헤르페스
윤수민
##애인
강세라
몰렌
극도
장진영
백파
이덕환
##무브먼트
미하이
##호남
김밥천국
##생체
##연준
##이공
김부남
##플레어
컴피즈
##비티
##ㆍ여
변선환
해경
##임안
##최장
PRO
곶감
타율
압구정동
Ac
금상
댈
연회장
##네일
위터스
##베베
김선호
리프킨
슬리퍼
퍼퓸
강상철
##알약
우간
로젤리나
##산리
가믈란
##첩
이와키
산사
##선형
백악관
라키티치
김생기
##껴
Are
족장
김영한
동대구역
김조
##릴링
임상수
돌연
degree
페르세폴리스
##쥬얼
세이타리디스
충남고속
네티즌
채은성
다문화교육
국민주택기금
훈구
##parse
답전
##스탠리
##up
실존
보여진다
칙칙
이택광
횡행
증조부
among
슈트라이히
번역자
신읍
물산
리쇼
활성탄
상근이
##블레어
샤리
캔뮤직
우솝
##발톱
코셔
뒤센
기울었
지망생
맘루크
##pixabay
처가살이
칼뱅주의
##게나
세균성
##단층대
코로
##문화재
근우회
차주
##축사
재청구
계측기
##일직
##시박
어때
##페론
통영군
##도마뱀
##신문
고성국
##분할
개복동
오진희
##키우
##사성
투츠
핑크베리
NSV
포지
##팻말
골망
문정동
플레쳐
제어기
입소자
사륜
데려오
교재
박서현
김창영
괴롭히
정호원
##하인즈
show
알카미스
윤희성
##대합
##찬송
뒤베르제
최한기
돋보인
화하
앗딘
김이삭
추일승
만식
무렵
WCF
##몰지
커쳐
r
아르기닌
현승희
토베
뮐러
---
패닌
전원주택
송은이
정신력
NPB
송골매
이해창
에페소
빽
경영인
백민호
폴리펩타이드
##한데다
맥북
기약
아이스티
메소포타미아
##기림
사리엘
지앤
일산대교
##벳
잔치국수
Real
유입
당규
##냄비
청광
헨레
출범
성작
191
포스코
전군
Olympics
박원호
고건
##난민
##문교
온천천
음극
1949
애니박스
무디스
##이내
최우성
##캅
##마돈나
##병합
##展
##°)
정원오
삼태
출제
올리브
라이너
##재유
들림
,
##박하나
##청구영언
##김정근
난폭운전
SenseAware
털
향단
AAM
조애
##TIPS
어니언
##이틀
금산
백동수
맛볼
타쿠
자의식
놓였
태생
##사레
모면
식음
규현
##국학진흥원
로코
##수감
7
쿠로이와
##장대
지우개
가혹
##안철
작의
항간
원자량
越南
##밸브
인의
인창
##231
지킨다
황인춘
래나
장필순
배금주의
길이
##신호등
##동학
##전화
ICMS
아시아코끼리
##民
##제지
진선규
##개그맨
##그걸
다치
프로그래머
제청
##자형
##발송
아틱
##대출금
관고
바친
메모장
콜타르
우회로
태학
YNK
김선민
자유심증주의
##큐브
플랙
Mobile
##발간
##미녀
##隨
두드러기
박연
버고인
과즙
ETS
수긍
남로
망종
##원림
IAG
병
말라야
사돈
기저귀
풀뿌리
##벤허
ALK
##결핵
##조성
청년유니온
##알코올성
정무
개그콘서트
빈발
학훈단
뿔
GIPS
치어
송정웅
어마어마
엔젤스
##조병옥
식권
회칙
우선권
바야
김용기
##안대
하루미
흔들릴
평창동
##마운트
차익
히로사키
일손
발데스
요거
##음반
올스턴
청실배
##cs
베른하르트
로마네스크
사거리
##키부츠
이순재
룬
나진구
습식
산마늘
NIRP
커즌스
##방어
##로비스
최정환
경국
##급식
프리티
유틀란디아
##San
제헌절
∇
라마
##쳇
노랑부리백로
요나가
향우회
염분농도
##수온
통찰력
##이준
핫세
Sinclair
바덴바덴
임주호
##동
짙
타이미
CAR
음수대
귀순
##바늘
스포티파이
783
임꺽정
뉴욕한인회
페이턴
##집게
##새터민
##포제
브레겐츠
##°),
강지운
##냉동식품
##코끼리
##요기
##2400
##제세
계파
플레로마
##석회
무비
코르시카
##정통파
사진술
김재준
멜빈
교정
박형대
남영
##페리스
자치행정
김순옥
은하수
1909
##스탈
침구사
백악기
##야채가게
생물
LUMINEUX
모용
가향
패치
발포제
##별
##확보
534
알콜
DSD
안원구
##유니클로
켈러
차화연
꾸이
영성
노룡
궁술
애벌레
little
유채
하이구
NBA
##펜데
##우물
##다운
San
##김동훈
##830
김민태
루시안
국교
써
##사옥
피망
##전문직
##□
인혁
크리스트
##1600
소위
위력
오모
##궁주
닮음
몬테비데오
따라야
영부인
##박의
콩나물
Center
석주
##유용
##배열
보어인
본기
##與
##AB
굴리엘모
##손
스톨티디스
자치회
사물
마오타이주
휘플
진홍
씨네타운
##론리
충무공
밥통
바보회
패물
##は
##히데
지도층
##취득세
##였으니
스폴레토
성북
표음
염교
정인화
##금강
국명
노송동
켈빈
##홉킨스
야리저우
NHN
##시아파
파워레인저
박유나
산전
##제천고
불씨
##모듈러
##의미
HWP
역동
##워시
##갈라
송주희
##재보험
##더블
김광국
##디즈
##강성훈
Jeju
이사강
호계
민경훈
##설진
몸집
진아름
dont
IETF
기포
Pt
##%↑◆
미쓰라진
##차민호
캐리스
후루다오
##성폭행
스텔비오
춘향
악업
시리낏
전서구
가르보
조경순
채린
##보정
이어링
본적
FATF
고위층
##식형
##알선
르노
사료
화장대
최철
데본기
Yi
char
대의
##즈푸
수락
유성룡
명보
가솔린
상지
##신생아
##분담금
427
단편
##현대제철
Wrestling
beams
##더월
숭어
슈나이더
다퉈
春
페노
페르티니
부진
젠틀맨
##서야
공증
전문의
뼈다귀
이상태
안행
진공
재래식
양림
이인좌
패럴림픽
인천공항공사
맡
손괴
레드메인
##베시
검무
에비타
관
##椒
넘겨야
##机
강철이
룡천군
##부터
금할
IMS
##슬라이드
##예산안
안태욱
배해동
안진
서신면
오쿠마
##83
잠녀
서드
참고서
이승구
##위도
Specialist
무녀도
##증언
##이세환
말미암
##군락
##코우
Xi
##우사
##클리닉
before
바다사자
김세정
##異
근참
페예노르트
매이
한과
아라온
##공기업
##%·
##と
한계효용
전해진다
박창근
숙향
중국건설은행
심상렬
신파극
테이크아웃
##야채
말렌코프
JMS
시게타
외
Republic
유니레버
##우체국
산본
사르마티아
지충
##식계
보상비
자전축
손수건
알테라
떨치
화소
자숙
박혁기
문벌
이여상
의미심장
##門
##네임
##572
##세녹스
퀴비에
디오르
봉헌
##사용
위드
농후
##청사기
세력
야외무대
변성암
정치사
55
옹심이
##량장
##기토
오규호
##분석
z
검사역
메데이아
해치
김연주
루벤
승낙
피곤
정역
##박찬규
삼화사
쾨
대한배구협회
어
높인다
##④
DAT
쥬니
금송아지
전해져
위험인물
##거리의
쁘레베베
계전기
HBC
##안철수
##의지
농작업
몬레알
UC
의령
수용률
화술
햇
코미코
청가
무사
##을로
노량진
꿋꿋
##비결
사란
##는가
후영
pre
주요
##계면
팰릿
ECM
콘라트
풍동
함보
라요
단군
교내
준회원
샤아라
##곡판
최대진
박정태
##카노
에나쓰
황궁
베푼
CARP
리안
올려서
시호
근육
레이
페도렌코
##통령
적통
석주명
순순히
브로니
77
ANCA
온조
##니니
강문석
##HX
진수완
##으면
##중립성
##분기
##오염
##와요
CR
김혜은
##서평
유혁
윤유선
홍계남
##금토
판타지
##벨트
단추
임정수
아이유브
##box
##원리금
결정론
액체수소
요강
이완기
▲=
그제야
##시설
##제거
이동찬
월남
서공철
##제보자
라스페
복사꽃
고우키
이연복
서퍼
코스코
##黨
마늘
오음
물으며
투표장
바이든
##암문
##ITU
즉석
아덴만
##™
포데스타
어딜
발루치스탄
직비
##서리
체전
방세
착실
서출
##씩
오류동
소울메이트
강인철
##전용도로
쇼기
가나자와
##산촌
외손녀
음정희
##복천
##이상순
갑을
##mso
##뮐러
접대비
관방제
EDR
타카키
성황
열쇠
마취
긴장도
민주사회당
##렌트
피임약
도법
상현달
AACC
##McDermott
피츠버그
##플로어
##가시나
제시카
CMIM
##뉴스타파
전사한
##배아
##Morgan
오상진
##워십
점액낭
가습기
마가트
모히칸
획기
김성환
민현
악화
남당
다쿠아즈
##현과
바랬
권총
탄탄대로
송곡
노상민
##귀국
길앞잡이
##교학사
부근
적자
프랑스군
드라큘라
전순옥
##에펠
루도비코
##울러
해지권
##표면
김부선
##트랩
강호
##나비
##★★★
##三
신문용지
야미
##핏
엣지
##듀란
군소
이큐
어려워
렌즈
중화요리
##면허증
완승
플린스
##프리즌
##전입
##콜링
프라이팬
바틀
어둠
천복사
메주
의상자
외떡잎식물
1658
결구
김중린
임은지
##강조
와타라
추재
백귀야행
그믐
##백제기
##이사의
내화
구
왕령
성역
프라이데이
##치료사
TNL
##산책
태환이식
준형
강구
##본즈
권미혁
켄고
##algebra
##암장
나비어
ITT
블랫
##이빨
이상호
중문
볼레
풀려난
플릭
GPL
김석원
미더덕
이장우
구조
CNH
끝냈
백비
소령
장악
##습자
cGMP
Yes
카리모프
엘라스토머
차일만
##시리얼
철군
겹침
숫
카펠라
해빈
원맥
전방
아아
##데드
##탈옥
적출
수양딸
##부청
##는다고
##켜
##요통
박영수
##선환
수크레
최명
종철
##노총
##메소드
##'!
##세모
큰딸
뱅킹
##미생물
만하임
##옷의
방방곡곡
백준
이우진
MYM
6400
##kWh
##니비
조무근
짜르
브로마이드
ASKA
노린다
## 
심의회
맛보기
치도
680
맛깔
##Magic
##메다
누네스
원물
끌어올려야
미누키
마쓰자카
먹을거리
코이케
키리바시
정동기
SketchUp
낫
드레이퍼
스라소니
##납부
황경준
709
동묘
형준
##푸르지오
임지현
스기하라
굿바이
요마
아황산가스
메탄
##드린다고
라스베이거스
##자부담
##mom
##목선
##낸드
##진료비
##둥펑
조선왕릉
##고의
삼진
온라인
##공개
##비즈니스
저기
##화강암
코레일유통
다쓰노
##풀리
데먄스크
월간
종가
국내산
오렌지
얼룩말
스스로
포체티노
윤승아
##작용
노
탄신
에트
현역
##전방
데드
물난리
대법
김학용
알선료
코리
디미트리
계좌
키자니아
##허스
##아오야마
##정비
판빙빙
##축구공
↔
goo
떠빈슈웨티
착안
주십시오
##울릉
넥센타이어
저버린
OKTA
할멈
우다드
정부과천청사
273
루르
##AG
페스카마호
남종삼
##통계학
Retrieved
##도료
##방제
##계상
나바리
역제
##관개
카나코
떠안
##EAEU
김상훈
##언젠가
조병옥
큰언니
그렇게
진양현
대우
워단
에일
##트라우마
문헌
아카시아
##미시아
정동영
##세탁
샹
MLE
코크런
도룡동
스테디셀러
KA
부레쓰
혈우병
이센
후부키
밀려
##설
점프
##MWC
트레이드
##첨삭
주차료
이종철
##어떻
임성남
공재
속하
망리
오젠
댑싸리
혼양
아마리
카르부가
신라도
##소속
민어
##메종
브로커
렉싱턴
Volume
크리스티앙
녹색
납속
샤라프
브롱크스
대형
유은
뷔퐁
대너
##충북
##행정과
김주완
진에어
##도청
##肥料
다고스티노
##시즌스
청년
##앤더
##나우
##cgi
장막
##장시호
직사
채충
담벼락
우토로
##로비치
뒷거래
윌렛
##아시스
yoy
본토
예찰
##단식
강원감영
스카이라인
마니커
연선
유비퀴틴
내구
등장
하이젠베르크
쳐다봤
##목란
루슈디
##규원
신부
##서해
##누아
##KAI
과자
허조
아동극
감사패
오징어순대
난파
OTP
##class
##오리온
직경
##유산지
블로러
―
정현식
투모
비탄
홍기용
type
레카
2500
상층부
이석재
거더
유대력
VOR
alone
산채
닫
정점
내성천
##皇帝
최필
서약서
Panathinaïké
##지교
화곡동
##테드
늘어선
구치
PFC
잡초
대흥
TWR
풍성
보브캣
흙
인타
자치현
양씨
가뿐히
카우리
##온돌
##나이키
절개
돌아다니
불문율
##929
골킥
##지도자
리셴룽
실렸
피아니스트
##양은
감사제
##FF
비등방
남송
마츠이
구상권
넌센스
수홍
##작국
심혁
##황재균
서민층
극기
이규완
##손해
교육비
올페
등속
투우사
터치위즈
라이언
눌러
FPCB
##원더풀
뉴턴
##지스
오점
MCM
메커니즘
##불자
##페이퍼리스
자긴
소망
그려진다
ISM
김해수
후불
##에디슨
MICE
화각
커버
독회
##라틴어
##차촌
##솔루션
강원의
비닐봉투
감계
##전문점
신우철
위격
##정파
##송승헌
탑승수속
##폴리오
스트렐
번쩍
십상시
여유
##휴식
##유두종
쏘가리
피자
하동군
오다이바
폭소
광주광역시장
범한
##56
재거
##포천
시보레
타이양
박찬열
해돋이
스티렌
지역상
세디
##단편
원화
박은석
헤
주다스
##크림치즈
녜
##홀더
SDB
국력
축인
과하
##준비물
##데어
노부요리
깨우
##상륙작전
스트로먼
##簡
성소
블라우스
전해철
빈딘
그리미
막스플랑크
##플
손힐
화이트홀
##檜
정승연
황수경
##뫼비우스
##시카고
소유격
##9876
PLUG
아랍어
대명
오스람
울프
이영유
##달자
##헌책방
죄인
##앨버트
에르메스
문영남
블랙박스
XOR
깨소금
일사부재리
폭로
DVI
##문
##州
영부
바쿠닌
##IT
POTN
해발고도
온실
중풍
##종단
영세자
승차
조선혁명당
박현종
##산차
취리히
전수진
정태양
##은데도
역전패
어지간
##민트
쉴즈
스타일스
이월액
패트리샤
티몰
배워야
##苦受
분열
사바스
김선영
가구
극적
정보석
도서국
Neuroon
##리의
##928
##%★
##소청
##정동식
기다렸
일군
명예규율
##엘리어트
촐라
이용섭
연남생
폴리스
##강식
##현판
나
회고록
르망
류이페이
강수일
권인숙
해장국
##필라델피아
고모라
교질
CBI
아사노
꿰차
능격
##=;==
엉망진창
##강우
음나무
사
##오웬
손미희
상차림
나비드
창조성
휴전
쏟아질
##킴스
새삼
뚝배기
식부
##돌비
##바이브
관리비
##구교환
##테크놀러지
##정아
홈런왕
자이드
##포스코건설
diplomacy
판사
##관세
따듯
SLP
협상력
이명희
모술
##뉴시스
메타언어
달러화
##내달
들어왔
들여온
쏘아붙였
하지
주의력
##해서
실용신안
죽령
계산대
애벌빨래
##니시
히파르코스
뜬
승부차기
임상시험
이승환
##위원장
##퍼즐
다빈치
##케키
##강점
##대수
빗속
아기
##닐슨
줘도
##코호트
성공
말싸움
##旦
빗대
##실은
타르탈리아
포르피린
##톰스
협심증
하제
견적
간접점유
어수선
##데이터
마리오
토러스
박동수
태어난
##석순
송전탑
##황교안
EC
쇠고기
서계동
##내손
빌레몬
멘토링
비행가
가규
아비브
정중채
마틴싯봉
서서
비단잉어
로토루아
봉림사
모겐스턴
수구
후쿠다
근왕
카멘
PGE
회복
##드림스
오제세
주민규
형이상학
취득세
전시
##캠핑
##overflow
할로윈
Gd
손익계산서
재규어
##주사보
글라소
BWM
안타까운
##스팀
벤딩
엘리사벳
요기
잇
카운터
##아이나비
##정병
서북산
플로지스톤설
울루그
본체
##비노슈
조몬
##마디
##정보
편도선염
만호
토론
에블린
종단속도
##수위
Google
탑상
계약직
##ㆍ달러
##찬마루
건강보험공단
윤정은
구동력
합쳤
##프라퍼
오거스타
##촬영소
##고민정
##주지
Nord
비범
다져
신주인수권
펜
성당
폭락
레포트
신중히
김재수
##잔량
다치바나
오대산
마이키
톰
##CAS
##코티
퇴소
BPA
앤드
##횔더
네쿠남
40
수뢰
최종호
331
##화전
##203
김상덕
YMC
##겉절이
스토
##보은
만져
SIYFF
##출원
정글짐
정의부
거침
##버시
##드립니다
여서
늠름
Madrid
악마의
예약
DD
##수향
빈축
앙트레
##수송함
과전법
밴더그래프
상보
기계식
##파먹
##성차
유지현
##수화
오수
테마
##하
크레디트
중심가
##JTBC
박성수
불단
##카마
남중국해
매축지
##리딩
후킹
침구류
##김태환
소의
##㎍/㎥),
WGHF
크리스토
##β
파비안
서광석
##박지성
낸시
선고
멈췄
고화질
##고정
##能
##예림
지퍼
레이셀
##iQue
##격투
신선놀음
격추
속기
스테파노
##복과
천등
금관
4700
쓰쓰이
변사자
연장전
갯벌
훔쳤
동남구
페텔
포도나무
관입암
##군단
##한서
성원
표창원
##정윤
공신
최이삭
##;#
##코카
이정담
김희범
반납
코코린
강감찬
창건일
##베르트
투게더
밀리지
부반송파
wide
##노르웨이
검찰청
화타
올리펀트
##廳
##흘리
⇒
##농단
임치빈
##유구
##룽기
박혀
##헬레나
##쎄
현기증
평년
영동고속도로
유월절
##틀니
크리퍼
김창훈
훔치
친서
SMT
시진의
이인규
도호
임레
앙고
체룬돌로
##요오드
임했
ⓒ
##Tempodrom
데상트
직파
만희
##촬영장
콜베어
아스팔트
Axis
떠맡
합반
됩니다
김선기
완행
##송어
백선
눈부신
염색체
대장경
##정치인
맥도
NGMN
리보니아
식초
잡동사니
도처
##능국
아소카
최다빈
뒤트임
파티시에
##이해찬
정욕
문선민
##봐요
바소프레신
AWAY
박새
참관
한류
지작
엣추
러브홀릭
간납
Sounds
일신
드리프트
레브
승유
화씨
색각
Domine
심우연
들여왔
밀포드
##316
KSY
##재능기부
##치를
PHM
태현
시초가
Fever
##학과
지엔
사무원
##이사
원한다
박기천
멈추
##코믹스
후지나미
##건조물
해상도
##color
레인
씨발
보디빌딩
물망초
2580
●“
Tech
160
올랐으나
낭만
##지장
강호순
##삽살개
AIRS
##제국
현안
##언의
##달의
##공작소
김한석
무덤
##clubs
샤키
농기
전능
송성각
문주란
이천희
발주자
##1950
부녀자
##LABA
##따또
초록물고기
힐
뒤흔들
##tvcast
엔스
결론
염문
##코펜하겐
사토코
##보도
둡니다
갈지
취업자
강보합세
공교
##하중
HTML
부끄럽
WE
나무젓가락
Riesling
앨비스
눕
TDI
김희
##김선영
갈루아
##성난
상륙
young
에피그램
##제이슨
은태
노정
##gsst
집수
이종범
앙큼
메웠
##Cdk
##명란
이지선
''
##兪
입출력
##천해
보였
특목고
시스터
##}.
죠셉
토목
XBRL
아니
RPM
허미영
섬망
벵
포도당
신돌
맥나마라
양여
드러커
권우성
절대
곧바로
가리키
로이블
1926
칼라일
Hynix
아리크
불도그
아드리안
매튜
브리기
NCD
##모치
괴혈병
##이콜
슝다이린
##교환
섭동
PostgreSQL
추도문
##MBN
모니카
##제주
유통점
독기
##고바
백도어
##이동욱
김아랑
비봉면
##살
##클렌징
줄리오
인조
선혜청
service
##낙태죄
알토
알바레스
##약세
발라드
줌
혁신안
로
##필립스
LAT
발족
쿤데라
##토란
연극인
##검체
테토
오대일
복간
여고
##석촌
##연품
야마가
##해리포터
로직스
정연
누야
잔해
##힘내
누유
맥시
##취도
##티센
메사
##전환가
##호스팅
##엑소
하이드
현지인
타블로이드
##노역
##부본
고박
근간
김빛나
프레시
마는
##노가
숭례문
##열매
금번
한느
체외
##평택
올인원
이용수
술래
미백
엄기준
##통풍
##콰르텟
천생
##민수
콩데
신용극
총대
바베이도스
염상섭
아라카와
요리토모
아람어
부산물
##20256
쌍대
반힐
새기
##043
티
ATG
눈길
아노
근관
진영호
옳다
군번
DLC
식의
쥐약
쿠이
마정길
낙찰자
##연구자
##일제
테오도로
루손
상표법
##전점
진경지
통신기
빌트
##텐프로
초록빛
사일로
##표단
알스
SIGNAL
버네사
빨래
##랍
송현
인차기
##지언
UR
브루클린
투모로우
메이트
홍윤성
민법전
땟골
##판로
정중히
##어시
연곡사
##명칭
경건
무빙
거트루드
##트루스
##경화
㈜
문도
한산
공장장
해당
##¼
신보라
은메달
동기
##단속
어셔
##리요
백진주
##북쪽
##쉬운
토종닭
안시성
경주
과실상계
##Toxic
도트리슈
INBP
HC
##김치찌개
김동관
몬시뇰
○○○>
장현
번창
진종오
Gil
던전
모카
##주단
미란다
352
고체
로렐
한국전력기술
송수현
사교춤
##스호
여성복
TNG
젠틸
##歌
탁발규
조정은
적색경보
##불빛
Valuation
배누리
##옐로
##축적
신언식
##Trump
동축
▽
역효과
종댕이
인덱스
##이철우
미발표
##%←
사이언
##줄풀
떠오른다
MAU
김개남
마곡나루역
이필립
##최소
저승
##제법
##바이옴
공소
로트
NHT
##다만
조한혜정
패자
분산
평상시
##수원지
범려
양아버지
이형석
##신분당선
##건의
위홍
전반사
장풍
##지화
왕보
##회사부
##아귀
##414
사대부
##여서
CHAMP
알아주
휴재
##캔
##타르트
알반
신민부
##협과
크라스
조향사
송준평
재개
양동이
##음표
리포트
산정
##{};(
ELR
##원금
##시너지
##통보
##강소라
##바나나
소우
##서하준
뒤따라
범키
##KOREA
카일라
서시
순찰사
천향
꽐
진위
##㎏)
##일모
기금
##워낙
엑상프로방스
권영식
메르켈
강주성
##사급
문형
세콤
벤치마크
오투
그린웨이
청양군
커드
GS
크레스토
##문화엑스포
정말
취득시효
##라히
빙판
부산관
##yna
우테나
소매업
정교회
조아제약
커닝엄
목청
Verbal
한하운
소정방
##어니언
리춘희
세레노
##특과
수에토니우스
플로티노스
##쥐가오리
체어
전영택
리옹
통독
##야성
humidifier
휴
##웜
##나이스
##펄프
오가이
##라메
일본군
노웅래
볍씨
안건형
나도현
야다브
험프리
##우울
##박병호
드러낼
##초점
코브라
산타클로스
트래픽
217
온타리오
재환
조성빈
몹
##㎞
##수폭
##+++)
화나
SIRT
성공회
주성영
래들리
기득권
등대섬
김경석
박민숙
오죽헌
관영
##어차
##효상
RSHA
킹스
##은단
달리아
최우식
산마을
##섹슈얼
##금지령
관자
##종묘
장진
럭비공
말포이
아버님
SKF
초안산
프렌치
JetBrains
박피
권태신
##프렌즈
케이프타운
이바녜스
건민
박은혜
##thumb
##라이더즈
중마
##간격
리워드
##감차
##발기인
총회장
송경아
##능률협회
명현
대역폭
이재상
목인
UNOSOM
중혼
초막절
##참가자
ICAN
통영시
##메디슨
##소바
상위
병결
히스테릭
##사노
김진민
검지
인원수
고포
클렌
대륙
니키타
조재일
성업
양성소
Blanca
##그랑프리
솔로몬
라이드
고덕주
##고추
레이든
##겉질
신수원
남정옥
##승수
베네타
0094
세정제
유라톰
러브플러스
종보
먹먹
감행
건희
##중주
금화
쉬츠
QDEF
인생
배인준
버리
감격
어지러움
붙
제작비
백합
##▲(
철도원
자동화기
##디렉션
바이두
이독성
격의
식민
진도읍
##베어링
응찰
요조
프랭클
후텐마
부곡동
코업
한보배
서해
유머
김진호
특수강
시적
오창석
##기남
광운
웰링턴
합친
natural
##평점
##계좌
장용준
봄바람
리진
윤승원
##144
##체납
가시연꽃
재형
송유
##나린
MSR
김덕
APEX
Koh
##암스테르담
##머드
민무늬
훈련기
재오개
지큐
군체
##메일
유토리
＄
##㎏,
LLC
##MJ
오유진
player
김혜옥
낌
##외래
창조주
##두목
밀지
시상식
##마이크로일렉트로닉스
안현모
민회빈
##만정
이광기
1914
주기도
문준호
##명동
미술품
숙원
급선무
##준이
##FAN
신탁청
남의철
아오이모리
몽마르트르
끈
사적
쟈스민
오카포
시토크롬
##미군
##김홍래
2008
파혼
견제사
브런디지
고속철
시그나
현대엠코
프로젝트
투치족
TOPCIT
마술
마라
대할
##Mithras
투스텝
##한지민
프린스턴
신영철
피웠
그린데
-‘
허일
##지만은
수임인
##란스
##교신
조연준
##안천
행동주의
이슈트반
대타
좌기
##이생
괴화나무
고라니
넓적부리
비욤보
스패니시
##시양
##마기
대검
전재용
어두운
최형진
##골격계
스테노
질질
천막
오토캐드
##함박
박수근
유세포
태만
##계주자
모리셔스
##동민
##몰의
소피아
메이오
홀덴
조효현
##양연
##해인
회덕
고퍼
정수경
판매소
도마뱀
이대명
크로포드
##레몬
삼장사
블레이드
##나화
서독
와일러
세풍
##기물
##단축
정다각형
깍지
샬롬
셀던
모바일미
의혹
산만
##기국
연막
SBI
라니냐
필동
짜오프라야
언리쉬드
조로아스터
발권력
볼트
챙겨야
은성
장롱
##일출봉
베르세르크
##토마
여양리
도노반
##찬의
체
http
##취항
##파사드
퍼부
##체스니
##오가
제외
##뮤지션
트라
라오콘
한재덕
##383
올리보
배서스트
윤두환
기회균등
수준의
##선
부칭
##빅뱅
굵기
석현준
##커튼
양위
노이즈
클로이
빵가루
소프라노
자만
ICEV
##갈비찜
풍요
반세기
PEG
##백석
##ヘタリア
##정형
속한
##성산
너희
버드나무
메브
가톨릭
팔순
내부자
##대백
1954
##스토케
WJ
불갑사
가리켰
러쉬
##멧
기분
태조
정수정
##공제조합
황은성
아드보카트
##유령
측량
원자로
##넣
다카하시
##차로
##술집
스피처
이명화
히팅
##청소부
방화수류정
김득황
승복
친화
##804
안성탕면
허태열
workers
##돈화문
##구동
##평설
유영
현생
코마로프
##향안
##리투
##트리뷴
김현중
예방의
클레멘테
마라톤
접촉
아요비
시무식
##KCC
TDF
덩케르크
남유럽
양미경
##의총
##이준서
EMW
아우렐
불이행
활공장
에이핑크
우양숙
##쿠도
Yang
세마동
대홍기획
주현우
정원호
##────────────
##모든
브리츠
자기부상열차
##라탄
산시성
비로자나불
탐나
##섬유
유적
맥신
스파다
거니
오디세우스
나온
##슈테
민속놀이
천황
더부
##워해머
휴머니즘
심동섭
에모지
문경경찰서
동장군
이명호
##비소
##티비츠
엘리자베타
##살리
성별
던포드
CDM
필즈
꼬마잠자리
바실
핥
흥보
##9800
##RZ
권혁철
##봅니다
스피킹
메티스
##선도
##반증
##조식
##바야
장문
lawmaker
윷
스칼렛
##루다
이각형
암사동
##건국대
스강
이단아
카메라
시청
여러분
##일류
##제네시스
천일염
의존
유역비
이듬해
복직
옥암
##김혜은
선서식
김의
##버스커
RASSI
전통문화
삼성전기
에스콰이어
입꼬리
취객
세자
세바스티앙
홍현석
배힘찬
전현무
나연
스테판
##바이에른
엔도르핀
##보스톡
BIFC
한화투자증권
오징어짬뽕
아킬레
##외소
포르투
##안길
이상운
##머프
추이
파올리
꽃새우
딱딱
계상정거도
호에이
선용품
붕어섬
##아민
##영업시간
1870
##양행
코리아
##구스트
성질
야왕
역할극
아자젤
정성훈
세라
##오로
이세민
상극한
##시술
505
장준
##다이나
거래선
일등병
ICE
주팅
신동미
외환보유고
초등학생
장송
떨쳐
메건
이미도
##브랜즈
자력갱생
##마스
꿀타래
임수혁
리보스
on
머랭
##佛氏
바르다르
댐피어
##LCK
##무고무
으뜸
##볼프
중유
천엽
테오브로민
##노포
김민섭
김민형
순서도
싱글턴
관제탑
퇴회
혼돈
##신학
핵폭탄
지하드
CSS
국민회의
외제니아
펼쳐질
수가
엄마
이제석
BCA
영어
##메테
척준경
포도
키웠
서교
##등의
최호
##기안
##후지와라노
##관광협회
찰기
목단
중구
##기술력
Mission
##부르스
스피노자
국군
우두
그리워
이주호
일본제
##노면
배구자
##용의자
##도룡
##지훈련
소이장
Stig
##분권
##FILA
##첼시
세준
##메세
##守
중앙아프리카
##곰팡이
앞장선
원료
동양화
##필레
##김태희
이해순
모노크롬
##송파
배정훈
이르민
강희제
##베투
마그네슘
조정식
줘
##코인
##동대
회네포스
##바우드
북조선
##디플레이터
독립기념일
베트남인
##텔레
헥토르
ASCII
심청
공손
평이
세령
##구당
기수법
설미
하세가와
##해왔으나
##채운
기쁜
렉사
161
##다이빙
##도씨
##비엽
선덕왕
##이수
임준
##化
리고티
손승락
##커머스
CHS
##재무제표
천주
소콜로바
데브레
참전국
나으리
##명곡
교령
MU
해로운
이윤일
군사력
LSM
vCJD
언동
##금융
스커드
폐엽
우수연
철거
##CJ
왼발
야전군
유메
##개월
##서울시
대한레슬링협회
##이징
##1250
##선섭
주노
##정위
필사
플렛처
##공중
##소뇌
##利
열릴
##어기
이지연
##짊
UAL
포트로
에제비트
특약
켄타로
퇴보
##포상금
##마이딘
서예
쏟아졌
엥겔스
숨죽이
##금과
launchers
한관
금호지구
##힙합
이신범
웃음거리
##특화
윤지
드뷔시
OIT
RD
주기
##효원
조로아스터교
##량기
후스트
찔러
빔
희경
knows
##엘프
지인진
##맘
##계약법
미스터
아뢰
our
커피나무
##만족
코랏
비스콘티
조이
작년
##국재
가까워졌
하후연
##협녀
보청기
##타시스
통밀
구미호
노란
##마천
김예원
델
SHPRH
파자
##과정
망가
언사
게임큐브
지젝
요시아키
이한수
레전드
##왕뚜껑
텔
선실
브리프
##시티
##薩
##삼거리
##천배
초과근무
바냐
SGI
al
태어날
##우크라
하종욱
비탈리아노
동작동
##이용대
충주
##Move
##대중교통
드쿠플레
철가면
부담중량
##所生
알루드라
HO
심대
##PPL
지름
반목
동류
스피라
판유리
##835
재일
지켜야
넘어선
쏘다
공동묘지
##면세점
버전
유즈
병역특례제도
##HM
##재설
교통카드
##심도
만을
이영탁
희박
체온계
정우현
몰링
예종
##산노미야
사이아노젠
마지막
장만채
풍호
엔진오일
mc
##각산
##菅
천추
##118
변진섭
##지지대
농축
##괴사
손준호
SIFC
잡가
셀러리
군통
최영걸
서정미
start
가져가
핑
성병
Type
AOSP
양현
관허사업
사상누각
##면
##광
복종
##선서
변계량
아이러브
##스펜더
##나리
카사노바
329
촌수
스쿠터
##News
##포주
엽리
052
##박테리아
##프레임
각운동량
##탈출
어산지
세중
그린우드
황평
MNLF
##일명
부채새우
존재감
시판
##체계
남휘종
조은
결탁
링구아
이유애린
뒤집히
단령
마슈
기독
##싫
아르바이트
건면
슬펐
쿠리하라
그리스도
##GK
이대근
실직
강옥
김우진
독불장군
##그거
##천연가스
##모먼트
##㏊
링고스타
어창
##컬투
##99
치우
일차
토너먼트
##니카
박태균
##사로프
손
##디펜스
핑야오
##코란
Securities
씩
헬륨
##component
곤살레스
##리얼리즘
박민하
##티지
##밀리그램
치이
권영수
##재규어
528
경학
암행어사
최재욱
창작
클리쉬
크레
이찬희
##마다
앞세워
주나라
콜스
버시바우
선잠
##아완
##포화도
보호구역
##메이즈
##이웍스
2001000000
Cloudflare
윈덤
시오카리
예그린
청이
미두
송민호
국시유세단
홍영표
SDHC
##조선소
이마이
피드
MOM
농지
디젤차
브론즈
이희
극히
##간다
덴표
정례화
프레보스트
하동균
무단결석
오로지
시오
##SB
최윤영
슈이치
텐징
##156
##교원
층고
##갈라짐
천이궁
노빌리
슈스이
체온
ASRock
값
흐른
김원기
추탕
##비로
Show
왕기춘
선원
##오토캠핑
##미마
##환경운동연합
평북
챈슬러
FGM
돈나
성진
##공지
ARPU
지붕
찬미
교보
##줄이
피톤치드
남승우
스치
이미영
서유견문
야영장
##루카스
국민악파
카보베르데
복
##군남
수크로스
솔페리노
망태
핸즈
##상근
서재창
오파츠
IP
spending
##라리아
##평지
쿼드
Officejet
##신촌
대치
##魚
타도
진짜
김경훈
지형
엔투스
##불타
홍록기
후속
입헌
28
이튿날
##~`
뒷면
조성하
구로베
도망치
##김영철
##누보
하토야마
백일홍
##예프스키
수백만
혼외자
제과
SGX
임찬
##누명
address
골도
강순
하우메
가로채
##bnt
##파립
##238
스텀프
##착륙장
알샤바브
##통신비
음핵
##동반성
무종
투팍
ISIL
쏘
와송
방현
##크릴
##다라고
단타
집사부
김성룡
경쟁력
##형수
성근
최송현
트라우마
##새끼
책임진
##교실
ACOIN
UEFI
##엘
##이정재
탄알
혜나
투스크
적과
##면탈
신분
##레이어
위미항
##식수
보타포구
##수미
BICEP
마드라사
자꾸
쑈
류철균
가니에
##한도
펴
떠서
제섭
택연
##발할라
비상근무
##복조리
조경
YOURSELF
넓
810
해류병
##유량
##호지
최적지
유지연
트로이
작정
##"("
뱀장어
모릴
이어집니다
비틀
식품명인
판매전
적증
##일렉트로닉스
##비긴
칸시온
시스루
령
##초교
남예
조용조
몽정
탐험가
윤석민
홍무제
##해결
##대토
얼룩
##댓글
중상주의자
##부영
찜통더위
성수동
대리석
라며
##보궐
노르마
말려
##폭정
헤이리
##瞋
열대성
부르군트
유턴
김상룡
붙여졌
윤박
공부방
사이토
MM
윤갑근
GSC
소환권
아와드
한무숙
강해운
판재
OLED
##마블
##2016
토레
맥주잔
복제품
빈센트
강모
마리우스
이중섭
홍가권
산봉우리
채무불이행
박동주
리산드로스
##프레시안
##3700
백복인
##사비
##도라지
테드
사이버네틱스
EMC
콸리아렐라
크뤼
시튼
##노령
식자재
바르뎀
간조
김형순
장쉐량
이무송
알려준다
##ㆍ사드
##시정
식과
다항
김혜자
스낵
홍현익
카톡
손정완
##빠데
김포공항역
마다
정명훈
민홍
상민
입
남부
분말
OIS
##루까
삭소
이승묵
PICK
김성찬
XTS
##도희
##－
매도
KIDA
##맘마
성겸
무적
이재경
##호날두
드가
증
##호두나무
##곤란
에르미트
BBU
강희
몬로
##배속
박효준
##강대
##』
On
##케이블
화통
##추모
카렐리야
##보낸
관할
블랑코
이신형
템포
분만
##음식점
15
대청도
고발자
##광양항
리버
대우그룹
버티
광풍
##만의
화차
석탄기
##패배
스페인
복주머니
공납
명소
##아로마
이뤄지게
##및
##통학
##B
정건조
만두피
##그때
장석구
마중물
메운
##특기생
AMAs
##HIV
##靜
세이프
AUG
스프링필드
항해
213
황승언
코뮈니케
애후
핵반응
##이즈루
파자마
장무식
##BNP
신뢰감
나뭇가지
환상향
«
합주
법의
##보양
계합
##접합
징표
##런드
결혼정보회사
##민진
잠깐
##절염
호수
##진출
튈지
TNR
##게리온
사감
정재파
약손
매관매직
쿠즈
##허리케인
##하수
##基
낙
체조
자료실
898
윤길현
레스코
##교동
CCIM
대웅전
선한
##건데
##공터
FCV
학부형
정전기
불로
겁니까
왔다
도담
웰백
실타래
##봉기
예수
고야마
판데르발스
##매유
##레르
##녹실
헝양
KRI
문종원
##펄스
원융
##팬서
피벗
##화랑
스카니아
##성규
##칩스
##될수록
키레나이카
TPG
창가
독서회
##Big
신참
정성현
##벨혼
doom
공연장
페크다
##발전위
허위사실유포
##orlando
포목
##동양
손태겸
카리사
돼서
특단
추수
바트슈투버
##방콕
해의
풀어낼
##황진명
##국가
최아라
고촌
##일양
##=-
플래티넘
김일곤
동자석
①
sovereign
신범철
윤용호
##딴딴
##스카우트
페페
호가가
##GOFAR
하타
호소문
그래머
##밀착
방어진
관광열차
해리먼
설탕
여태껏
##원안
IMC
박사
##이스트
이형종
조세핀
귀신고래
타입
##080
볼츠
##도대체
트레이닝
이식술
초토
허담
전공
##저런
##배수로
치료비
잔루이지
리플레
장력
새라
윤주희
보스
##세이
캄브리아
족의
재필
중청봉
고문서
##룩스
유희열
일촌
이브라힘
김명민
사루
##감영
##쾀
불합격자
##옻
문제아
##서정희
겸허
요시자와
권혁빈
##뉴스데스크
구마모토현
Taiwan
##대당
##새만금
펌프스
당내
##총궐기
##amour
##준법
##청취율
페티스
##向
풀살롱
ABA
##면접
막춤
##CBS
외력
송승준
##전일
캐벌
##612
##EIA
관공서
수수께끼
##웹툰
작성자
##새타령
라카유
욕정
케노비
##타나베
보르자
애사심
진로그룹
인컴
##박명
비해서
알퀸
배열
가벼움
이완신
SIA
알아채
지망
불난
28185
응급
라완
##램
메스꺼움
##망인
##친권
##井
저스티스
지팡이
##새우
아우어
수송비
##부천
##정한
매상
베냐민
재정학
##틸로
탄체
과욕
##매연
세방
##孝經
기다려온
##김용남
##샬
차칵
※
구좌
최문식
화쇄류
햇빛
취보
##캐디
##수험
스퍼터링
##아목
대기전력
##CRS
##김무성
##원문
##전망대
라츠
must
주체사상
물빛
샤기
미취
##〃
##판촉
신라면
##책
##선암
현아
소설
version
##요상한
##ℓ
텔리아
Asia
##FE
절정기
##ㄷ
##궁의
##송출
살펴봤
두려워
##덩
641
선암
##스테이지
신인균
과학사
RASK
워홀
이철호
##어라
아게노르
##tvreport
∈
##른
파나피
역적
루원시티
스포르차
액츄얼리
서프라이즈
인터넷
##파인애플
맞대결
고라
자매
쿠르드인
##GC
장백지
장수군
##소독
##min
최웅
짓누르
격침
엑슨
전소
미즈타
앤티텀
베니
한화갑
##’▲
생략
김정렬
##였으므로
에미리
김형태
월대
총수
##주몽
##미쓰
핸드카
빵집
근황
아카시야
하이엔
##코웨이
##베네수엘라
박두용
밀약
배로
김평
##캐롤라이나
행선지
##친애
석보
어드밴스
나홍진
박우정
이은지
신동원
##297
스톡옵션
봉수
연극제
탕헤르
##현직
차기
서갑숙
##캘
##위안
완공
링깃
먹이
강래연
##울리
로열티
바니스
행성상
삿
앞설
모세
박재현
투레
헤스티아
김정길
동떨어진
##신가
나팔수
왕흥사
##대광
##연상호
봉사
빼돌렸
조선문
멩스
##약식
김성재
##관측
EXID
김태호
CPM
김선우
의식
##사거리
지멘스
스토크스
김치
꼬망
히로타
돌려받
##호매실
이대훈
MP
##양복점
행방
후주
##송주
송당리
김윤하
JTBC
연세대
어디
헤리
규산염
척척
##push
##연계증
survey
##진왕
##**
대승불교
뤄
##했어야
팜플로나
반야월
왕징
기장역
TRW
솔라나스
김신의
##AccorHotels
말레이
종언
##인세
BHS
플로우식
SNL
2014
클래스
재회
##관서
##바이오팜
##열풍
삥
Hz
안정준
권동진
LiDAR
등려군
방콕
김해영
##융희
##불능증
알란
후세
인공생명
위탁
구시
진딧물
##갤러리
##증성
수로부인
##채원
##분지
안승환
##수레
김인곤
하퍼
##송증
벤트리스
김채은
헌공
死
봉래산
자예드
신맛
아트멜
##女
황패
전악
무턱대
쏜
ELS
WAN
음편
수산
쩨
라가시
사호
진린
끊겨
##약국
단기
후박
##전시
목동자리
##키트
Live
##렌토
제보
대도시권
보우먼
##学
고무줄
상금
RTU
아밀로이드
바게트
평했
시오리
한성희
##마이신
이인철
골고루
##알
##In
김태진
고정원
NBK
물꼬
쉬
안산시장
하구
##%)·‘
고양이
배정
박기
그제서야
차주혁
생계비
윤손하
##균형발전
##3600
튀니스
□
##행정학
##우동
할인권
몰리터
한국개발연구원
원통형
견제구
사파타
바오딩
노정연
##846
담당자
##작성
From
NAFTA
##내딛
##원동
박람회
클레
광자
##녀상
make
쫄쫄이
##%!
봉평
사진부
헨
뤼첸
##컬럭
버틸
##쿠팡
##코디
핸더슨
다희
나카야마
왕족
북엔드
남학생
고등학교
STM
##뿔
##정사원
that
폰트랴긴
##파트너
##광산구
탈렌트
##최화
섶다리
리리
최진영
세계수
밥
##펄리
어쨌든
뿌리
조선소
이종우
이종환
쿠리치바
모모타로
##양영
##보드게임
심희섭
로만손
한유이
DHC
덴노지
지목
멜라니아
추돌
##메시
水
NEW
1892
##35
씨족
쪼개
레이더
##줄다리기
박인용
164
##사업가
박석구
무크
상핵
##흥분제
##api
이효경
실러
역전층
##대료
동거차도
창러
문턱
클라크
엡스타인
열수
327
##노디
다질
졸음운전
스트라투스
악티늄
거북이
##5600
NSOK
스마일스
최철기
장유정
체인
##건국기념일
##세경
청백전
포레스트
배지현
##잠룡
g
##달리
디모
##화성시
자폐성
전병욱
##루푸
##유니버스
키쿠치
베네치안
##물리
##소성
시네마테크
##종진
수락산
한태숙
##샌드위치
plagiarism
기시노사토
개수
##오케이
##HBA
##국희
##둔저
항법
##Ice
동족
##정시
##남도
##$/
##감사장
셰필드
고상지
##캄브리아
##도래지
미나토
롯데캐피탈
##벌금
##아동복
맨드리바
매리스
진전
아데나워
방진
##표실
##문과
참나무
기초자산
검독수리
지은
기자재
플라세
TSR
##넷
보헴
허셸
##하이브리드
##출시
하이포
##징거미새우
취중
##길동
산악
##석축
##체포
카플란
웬디
램제트
Dirk
남서쪽
EA
케미
티라노사우루스
시퍼스
개량
정홍석
카인드
램시
##입
별품
개악
메니에르병
매저
##부사관
2007
깜짝
##꽃동산
검정콩
정호근
밧찬
CSOs
할애
##ㆍ안산
Code
카란
바하
강좌
토폴로지
감사관
per
##마테이
##테라스
페데
라인하르트
##길
양화대교
##GIS
음허
사칭
김민규
Face
발권
회담장
NSX
##관염
플래시포워드
정세영
##산량
번역가
선발전
슬로프
##참정권
신평
중앙
김행자
##=“
월나라
##엄기준
나프타
##고우
법궤
auto
조셉
콜키스
##사다하루
등용문
아야
##아만도
나이로비
신윤복
한이
광주
산맥
풍랑
스완스
##재
에스파냐
최무배
이원빈
선발
도널드
##공무원
용감
ARM
소말릴란드
높여
엣
전라선
##천일
.#
성종
초인
##루킨
주정차
산출량
머물
##라이어
한얼교
##모코
코너링
##주소
##고아
##그래픽스
●
한센병
##단장
##중산
VIEW
박재민
##출장소
에미네스쿠
불사르
세동맥
##껄
다다쓰네
하물며
##연보
%,
정글
마셔도
서용선
꾸
협력자
##서복
##동방신기
기니피그
유키치
Best
##코럴
사소
##마는
김현준
박해근
충남
멸치
밀크티
105
중심주의
에딘
##본원
자산관리
visit
Is
초장
유혹
##말리
이해선
당은
##동네
##맑음
엄격
star
변창립
산단
##루소스
다니엘레
비름
본
보소
카테콜아민
갓길
박지혜
##액상
##기생충
보루
POLED
잠겼
석봉
소방차
가브
##%)>
감회
대근
어설프
##양치기
기전력
##훗
박왕규
보리수
##유인
##보타
##佐
황우여
##룡종
##3331
##경유
보증료
##사무실
보호수
말뭉치
부다페스트
페트로그라드
청둥오리
활약상
특유재산
양화진
##동근
농축산물
신상진
##십
##당론
들레
##융기
기승
##儿
##ADAS
거제시
카메룬
로케트
덴버
##염성
쉐인
추로
##갱신
서양민들레
##퇴폐
금시장
임경완
##방차
##갑상선
##제이엠
검거
나이스
남오세티야
##사다리차
organizations
페타
##바이저
감군
김진홍
##민영화
##system
옥수수수염
stops
오재원
정봉
윤동철
트레이싱
뮈소
##심지어
Stix
##피아트
##봉사자
무효표
구보
당금
크렌
현영희
##jpg
받침
픽쳐스
##했어도
피해자
박철언
과반
SDP
장창원
재스퍼
트라카이
감추
##姓
부대
AVC
수브라
상미분
##세연
##제이비
##구와
도미니카
누린
기할
코소보
##생물학자
##화상
칭송
블락
prostitution
김영배
헤인즈
##수라
ORC
피터스
타이기록
민노당
WMD
레시먼
황쏘가리
카시오
조준웅
장도연
##검정
시바
베셀
##중역
복색
생김
샤카
이서진
단서
##치국
건대
그리고리
자양동
포퍼
##槐
기동
큐브
NE
child
유키나가
정일
##경왕
##노제
삼남
##임업
유승호
김완선
마하셔
제기차기
##NASA
640
말뫼
영희
##컨
##My
모체
##모멘트
##장재
중범죄
##피스트
아지즈
제일주의
##토비스
FSA
지중
불식
##’·‘
##폐쇄
질병관리본부
##포르투갈
이호정
진본
진안읍
최지우
Xfce
##약간
경고문
##1989
##박재정
김장철
##동지
PRR
간다고
코리안
##트
##계약
##입원율
당좌
##사태
신여
ACS
영매
법원장
극악무도
신태권
##오네긴
페이스트
842
##옮김
SETI
Namyang
에이치
확률변수
장사도
다임
빼앗
##휘선
인은
바랑가이
망가졌
군포
##여인홍
한국환경공단
드라기
탐정단
노광일
##소부
##이준익
##황
채선아
##根
젠투
벗겨진
능하
##아인슈타인
동산면
침실
기원전
애칭
팩스
윗사람
성훈
틸리히
벗어나
##퇴비
권진이
도독
##체육관
연표
일직
Bob
고려링크
여치
무링
부금
마승
수양버들
프리실라
길한
산하
통폐합
마우러
캐치볼
페로니
김성영
##館
##입시
니쓰
주목도
버그
##술년
##대표
도영
농소
득
오진
남관왕묘
점역
##vertical
군부대신
##퍼니
긴꼬리
놀러
증액
##판막
##교양
헬라스
노멘클라투라
##공화정
##시기
화룡
시끄러운
CIO
우재
사안
윤복희
건망증
흡입
웨스트엔드
##’/
최이
이숙
##상액
##산간
클레멘트
##손현주
박경두
숙련
waste
保守
소염
##제휴
농산
은화
칼만
##헤비급
물받이
##흥진
본다는
이용식
에무
고쳐야
##김민지
연금술
##★
##서지
MiG
충격
실언
##구존
##수료
반영구
##커피
##약비
##한나
보우덴
약고추장
KCMC
린허
경찰청
##GDP
1920
안젤리카
동남아
니스
##대딸방
아츠
저지른
윤소영
채제공
MSX
긍휼
##ㆍ제약
##동작
원이
버터스
IRST
퇴적
외치
운전병
자유경
추진
자동차
##그리드
오미자
OJ
고사
정책공
##정찰
기면
##시난테
##1909
##324
티저
웨스트모얼랜드
임차
키무라
센티
OVA
##성광
‘@
도구
풍화
무엇
피스토이아
감률
윈스
##종식
민원인
리오네
##퓨처
##422
권혁호
중등교육
안내도
어학원
고독
채원
레바인
AAGC
자주
##820
덕양구
오토데스크
시흥군
전치태반
##브리트니
찜질방
Fukushima
합덕
에듀케이션
Carter
노천명
요시하루
##EP
담뱃불
##약사회
김수창
기운
##바닥
좌촌
##봉시
와이디
균등
IMX
##회색인
묘엄
대학교
##해류
해동
디쉬
희방사
##당사
검은깨
시어러
##레키
##파크빌
곁들이
사코
주코프
##유해
##생보
에우도
국제선
##브로드웨이
KOBACO
대대
##인비
소대원
아드
안견
네이
동춘동
현수식
패커
RATB
츠나요시
생활한복
##㎹
백질
착함
적재적소
##열혈
마룬
무주
순치제
##미세
음성균
##289
시뮬레이션
보로부두르
요직
친환경
##오포
비주
격자
##프란시스
##란
신두리
사자춤
법제처
세이지
분리주의
급락
에이크먼
아이드
}.
##자위권
##듀크
고덕역
##티안웨이
##퀸
보른
##네리
구이도
##사집
자카리아
순빈
로멜루
역주
##주당
킨키
변성완
차예련
반석
##에프엠
##茂
다이슬러
납축전지
아킬레스건
심영순
우디
토익
김은중
무안
##장증
쏜다
더운
##케도
금강문
비라소로
온종일
살피
##세척기
대흥사
##엄마
정수근
##홍만의
레이나
##850
수렵
Mesenchymal
와이드먼
##학점제
##옹정
안세
칠
첨
세론
##세이퍼트
흐려
##엘시티
##MOU
ACG
##버레이
박용덕
##실축
곰취
연씨
##조자룡
채색화
부흥회
식수
##성문
정의윤
박상규
아이티시
##剋
몹시
이춘석
##바오밥
##프린스
##達
##제약
배포
소림사
이장원
유민상
travel
뫼
조성욱
코스타리카
홀극
아놀드
##트럼프
번화가
사기
##편람
불응기
##洙
회충
treaty
YAP
##전차
왜냐면
조아
임제
이사야
장정우
##햐
빗면
##酒
협차
중심주
UV
##里
아식스
브리사
송탄역
수리취
피콜로
남겼
메히아
정몽헌
김정근
우량아
신인령
##정맥류
유혁로
관리사
##SM
무브온
판정패
##관광단
새크라멘토
보르코
악영향
##DRX
##보회
위그선
이만희
유정
패혈증
##출발
윤치호
정준일
창평
##행방
종삼
김주연
나하르
귀책
웅진
양재진
##오버
##식민주의
에이나우디
##지갑
자긍심
##다승
괴로운
진통
개기
##빈슨
##시래기
김문호
낼지
벤쿠버
고안
##내셔
##IN
부서지
김보연
살아남
우미관
수봉
##스테인
박혜상
화산재
##링크
묵자
끌어올려
오스발도
개선
##와일러
김춘수
##TRK
테스
무량수전
엔트로피
##1900
구획
색스
2048
베이징어
영태
김한국
그루지야
##켈만
##sportsseoul
조각
리시브
LPG
김수안
나베시마
##저림
영남루
##아날로그
##시스턴
04
##라시티
정대표
"...
옹진군
##사료
파브로
쪼그라들
슈바르츠
혜관
STAR
##260
##보법
간판스타
작용
##품청
내용
맥락막
##막가
마이스키
절묘
##더불
마사무네
##참봉
##마사회
미원
##엔에스
리사이틀
안내
김창열
##트랜스
조광수
아르코
##行
이자람
보건의료노조
호콘
부정행위
주호
##전무
뾰루지
사러가
5080
##화유
양금
별자
한승원
네발
랭귀지
eTL
##인플루엔자
##희곡
한북
##동래
세멜레
야하타
##컨스
##쿨러
##성모
##서재필
남창희
이상무
##경희대병원
건조
##스님
무산
##리쌍
콩비지
##아타
##;,
젤러
복서
섬광탄
동물보호
베순
드보
##마운틴
우려내
김희겸
선보인
##둔자
프리메이슨
##술위
##하디스
에이다
래틀
베켄바워
CME
최대철
##keyN
방생
빌뇌브
##매드니스
##패스
투아렉
##다툼
잔재
학부모회
연실
쥐페
졸린
##루주
허견
버르
토크빌
조은희
부제목
##배정
미료
니겔
##힘들
몰아내
##CES
##동자
##면도기
트라비아타
##법인세
오선화
기트
전희
##육회
##학년도
살모사
랑푸르
진숙
메르가르
##偰
영봉
딱히
길은정
rural
스웨덴어
##기획
##정진운
##아낙
취항
##미탈
효도
대연정
참굴
팬톤
##브래드
마음껏
프로메테우스
앉
최유돈
##접대
국감
신빙
문민화
##달샤벳
진야
SARI
이갈이
안시현
세후
마씨
이재형
패강진
스프링스
면책
오콘
몰표
이념형
##귀인
서천군
루비노
Love
루크로이
JAPAN
##수수밭
청풍
구분
##에서
김영무
필링크
Mathematica
단련
##거부
린이
근위축증
양주동
##급추
우면산
걸
엄지
sky
분다
허혈
VAW
푸드
노스탤지어
바이마르
매그나칩
잦아지
서재형
다리우스
리차드
##개발
모독
||"
##조개
##말
재물
##애니메이션
일례
##bw
아마루베
칭
도커
따끔
KPK
SLS
고립
##물자
김정화
ETF
별관
구위
크리스탈
##90
##이벤트
스타쉽
제레드
박정환
##연산군
일산화질소
이지아
칠리소스
씨실
##히어로
이재선
인필드
##·
뻔
수기
꽂혀
이억기
##나고야
##시승
##창단
송혜교
이원복
뜬금없
##약초
에브라
뵈
봉암
집배원
해밍턴
MRA
##샤프트
지엘
콜린스
조바위
슈이
난생
옥녀
없앨
독버섯
황보인
##모터스포츠
최초
슈마허
SqlMap
룸살롱
신준섭
유진룡
도카이
##왔으나
레인저스
쿨리
##심의
퀘일
쿠마리
단봉낙타
김이태
백패
롤러코스터
##꾸미
김천
판토스
뒤흔든
김태홍
치메이
##Habits
##충돌
진짬
이다지
##약장
모노레일
일실
이목
집무
HDMI
막대
##영지
##愛
오가
하한선
불허
##퇴설
세부
독립영화
핸드백
청양
볼라드
최예은
##리플리
상륜
##라보프
그노시스
엘륄
자궁경부
팜
제조업
박지헌
서안
스퀴드
명호
미지근
카벤
탈핵
##온제
##손예진
##Devil
정진호
노로
##포구
구부정
채드
정중부
근비
래스본
주의자
포일
무명이
화살촉
오소리
잎사귀
KIAF
##이적
##다미
추천서
##세희
##문인협회
줄리메
속칭
비발디
천안
더스틴
스노
드라마틱
이규한
##번대
부화기
의학부
거수경례
한해서
AOS
##성도
##폐암
##가망
##혜미
##장량
##FINAL
이미지
##최종병기
루트렐
##가만히
소작
##중식
종방
##뽀
평행봉
천상
이타가키
##노누
디오텍
##1911
##청년회
중류층
다니엘스
##쉑
ADAM
##학생과
칼피스
커티
윗몸
상징주의
##낫
김활란
무례
렛츠
##영문
장하나
아이노드
콰이엇
박병일
그라시안
불승인
프레스
##최서원
비색
##")
##노팅힐
브란도
##강시
하르처
공가
##쥐띠
포복
구조선
수욕
호피어
##작촌
조덕제
각지
え
aradazz
그린란드
Team
아르고스
액화
LOD
박시연
금문
##비에스
케코넨
개풍
##스미토모
옥스포드
불당동
##공의
##먹거리
최성훈
바라라
##옴니
포렌식
지날
삼각주
##구음
디셈버
교정술
먼슨
##삼성물산
라디카
마스크
격쟁
가타카나
프리스틀리
##주계
석대
##사라이
수재
알리스
페름기
##○
마칸
##이탈리아
##주최
CLSA
아키토
을왕
##신고
BS
안병호
견우
##패권
달걀
찾아가
##7500
장재인
##차비
타키자와
MMX
##영객
##취약
##령도
김병오
키움증권
정글북
정든
주어질
긋
대리청정
등분배
따랐
3300
##타비아니
내려온
earthquake
##자학
오노노
폴라리스
사들이
자선
고드름
네이티브
WEP
직배
뉴스룸
threats
##산들
##충이
구울
폴리우레탄
황윤석
청량리역
지우마
이은영
에클로자이트
뭉칫돈
길거리
##안내원
엑스칼리버
VIP
익일
유즈루
시칸
웰스
UO
교육열
==
가속기
윤대관
南宋
Jeon
revision
Bb
##스코리아
볼빨간
##모습
최영훈
##劉
선종
위지위그
마크툽
##합토
디오판토스
맏
포거티
##"-
##206
##원산지
##Laugh
화염
Potter
##　
불러들이
EUROPE
##워싱
한국학
엘릭
만약
전환율
##윤이수
HERE
##폭
First
일촉즉발
원우
라이네트
가마터
바실리
애바
압두
친할머니
탑승교
할레아칼라
걸린
##물분
##모근
##포갑
오므라이스
도여
kN
궐
##철새
공의
마녀
제안서
두지
무채색
물어야
하트리
##캔터
LGB
##뇌물죄
##관은
자원
임채무
##이해력
발터
모미지
덕구
증조할머니
지브롤터
뻥튀기
원의
티베리우스
##단풍
부겐빌레아
##소갈비
클린턴
##웨이
장현식
애플웍스
##토아
수필
돛
당진시
김성조
윤계
그레이시
##피박
라인스
##양관
##드려
주니엘
##제록스
##리저브
걸출
귀금속
요스
팰컨
박길룡
광복
라로쉬
자물쇠
면도날
박옥
카데나
##새뜨기
심방
##장설
몸살
서던
홍상기
##㎢)
독립투사
##해짐
##링단
찬희
##수세
카우르
치관
LPGDI
천장
BeOS
트레몰로
앞당기
타라나키
##냐고
강사진
주유
##전당
외산
조서
석모
클라이밍
##주의보
기요모리
##PHEV
유감
첨병
##----
쌍가락지
뽑아낸
아비디
PN
XSplit
##마츠
##비닐
양동
##리카르
프랑코
도시바
##은갑
연봉제
구재희
##㎞)·
1978
아우토반
법치
##銘文
##어워드
##>#
낙점
향수
한일섭
539
뿌까
야월
제소
Mach
##문제집
첼시
월임
부군당
##코르
##일
망양
병들
자크
크로켓
가려움증
바쉬
캐머런
도심지
##롤링
안필드
시드
##MRI
NCR
부사과
##천의
285
카스틸리오네
##송희
니시노
##매우
학점제
사위의
NOR
퍼스트
NET
이찬호
영종
라빈
##VETI
##재원
##유건
비어
처장
쉬운
##사우나
고흥군
트리거
##썸녀
부석사
김혜숙
난초
청라
##으라고
라이버
##전공
공양
어떡
김대섭
##마라톤
##형진
국립
최영일
##욕의
정치판
IgE
동맹회
##610
오버롤
유장
퇴주잔
일상
함씨
도쿄
오명
클램
##인문
##김홍탁
결경
##분배
벨파스트
귀신
##세레스
스플리트
##淀
조택상
립스타트
온몸
에너지
##책방골목
##호른
특진
표시
결국
알맞
요시오
##부의
조은형
안저
하카마
##바깥
심순
1940
등짝
스테인리스
교황
잠금장치
##태사기
도락
##충당
원폭
매몰
물회오리
셀링
##즙
##아지트
리바
##CGV
한양수
1939
알패스
##캠페인
##슈트
블러드
신수정
장윤선
끌어내리
피콕
##였었
도봉구
팔촌
어리
마이에
##S
##DX
겉
옥로
블라스터
이태호
채동하
##캐비닛
강필석
임재영
##일스
##報
금원산
달러
무심
수향
##공비
춘분점
##혜능
##메이라
바르톨로메
##지유
일어설
복습
선입견
스쳤
##지숙
##만좌
시사저널
##활력
반쪽
알레르기성
##전용관
##생기
아티키
엘벡도르지
인클로저
갈마
##결막염
기나긴
##●
플로리다주
패착
쏜튼
오현
종의
정통
##역구
양성애자
##시물
비요
양은
##바디
##풍문
고려청자
음료
보더
야쿠티아
TBC
##63
가리왕산
월폴
민효
좋
목양
이현숙
아르나우
GROW
Ｍ
##연우진
##뷸라
##범과
카나트
루퍼스
효순
의인
페르손
라플라스
김진서
천관우
##황망
변속
일본식
416
##실용
코덱
인식
윤일상
불장난
밀수입
이재현
##소지섭
라틴어
흉가
해자
낙동강
책무
PIC
구자욱
##△"
철옹
##여진
도직
##유권자
군침
내정
일자리
성류굴
정대삼
김성균
하나
##뱅크
조화영
##검사제
부정수
응방
##제안서
오구리
##厚
##ELW
논거
후커
시토
##다람쥐원숭이
SIM
오경환
##자주
폭우
다카유키
##산액
SATA
렘브란트
플랩
레스보스
##징역형
내한
##동부
김태형
##기브
고미술
모터쇼
퍼즐
몰로시아
랑거
와플
##케이슨
AURA
##재평가
봉독
임브룰리아
##도라
중요시
애순
워
필로스
##IPC
##kg
무용단
색상
##梵網
미화원
결혼식장
LAF
##시군
바보스
소환
화학공업
혈중
ROG
##리란
독일제국
미즈사와
임은희
##사보험
이부키
##파기
혹시
한영애
돌팔이
윤용태
##탈레반
##선창
오리진
이뤄질지
##`(
해방령
키부츠
##독수리
파르티잔
아와
보로미니
비구름
예감
time
##앵
##도금
아고라
##서초구
브라티슬라바
##Shop
정경
IIE
137
닛타
빌리지
접안
양지열
앙드레
CGO
FADH
조쇄기
제훈
##지성
재판매
답보
누렸
##알로에
대덕구
##ㆍ박
##로테이션
WDDM
절경
어지럼증
##산악
쉬즈
항경
부사장
우뇌
##임자
섄
지질도
난제
현행범
헤이케
HPE
##은밀
##후추
예과
건달
급감
전농
콩죽
불쏘시개
넘어왔
이웃들이
모악
허안나
자부
성묘객
##걸스
소박
##연내
##니켈
턱수염
치누크
킬리
PG
뷰스타
CPRI
##송해
집대성
냉정
Crude
유형
애린
던킨도너츠
계체량
인만
현숙
고결
윤활제
충렬
서정환
탕약
##지프
##임진왜란
김남근
##애플
모바
##덩케르크
박상
박정양
기리노
사하시
개그
##노키아
아멜
만안
##멤
참두릅
##산림청
벨라로
오라데아
포도원
독과점
기의
홀러
쇼지
##정복자
창원군
자오선
반곡역
사냥터
송태준
##사유
건국동맹
셉
장자연
##아형
뜨겁
노르말
392
소득세
##959
지소울
번쾌
항심
퇴피
고무
오크라
Yosemite
고토
##포집
##Digital
소기
##작자
위쪽
퓌엘
푼
하대
##바간
리니
##훈련생
납부
최재덕
주관
검인
##친한
잭슨빌
모사데크
경단
##반값
평음
도린
brake
break
데미지
엄중
생명선
##화호
흑고니
황의경
298
좌청룡
##급등
##我愛
금지
피게로아
퍼져
##enoch
만수대창작사
베일리
지명권
##라포스
레진
##울묵
##등부
환경운동연합
국제주의
##정확
kbs
샤데이
염한웅
경무
채보미
고법
##GDS
아속
##타이핑
##이빙
##딩크
현쥬니
금원군
WBA
위계
놀이터
푸름
야쿠시지
수사대
##작곡가
##;(
트렘블레이
로진
##케린
##피콜로
헤로데
불법
서사
안산
나보스
톱밥
아카데메이아
상무대
KRG
기촉
NPO
##도재
시에
아기날도
김미성
##swcf
##한증
완전열
악보
개화당
막동이
할리스
공익
##안재홍
페이로드
셀주크
##사간
제이큐
##레렝
과감히
##활자본
아자씨
권영국
듯하
미국
백무현
박노해
여림
",
이창용
명상
##제이션
가스전
회의
다이렉트
달려갔
흰빛
페파
리치먼드
파라지
이순형
비트겐슈타인
라이문트
칠성사
TXOP
순서수
이상군
부국
넘겼
슬프
소방청
##배우자
김구현
##마즈
##도코모
GSSP
불린다
광케이블
##동메달
다담
##충부
##만복
##이잔
##등록제
##Psittacosaurus
##부비
목판
유니콘
부실기업
410
##투안
LSX
크루소
우루과이
경미
므낫세
##면역계
Chae
흘린
발전기
##▲㈜
복위
지시
통증
##솔비
도수
##NO
##미래
죽는다
##레오니
message
무재
체질
운동회
스푼
김하성
마카우
연개소문
항공모함
젤라토
마고로비
백반
정태영
준치
##DSR
TCC
##그레인
STL
화물기
TSM
##유니참
형수
숙의
서킷
장박
플레시
비야누에바
과반수
##경위
프리랜서
hakju
##안리
including
##트랙터
정판
doors
자백
##헌법
치타이허
강재준
━
YMCA
글렌
박소현
Audi
박호석
##밴드
323
##경포
영미
행정동
##탈해
콜럼버스
##네즈
마타하리
가식
박재동
점한
##합당
KADA
웹진
485
##폐질환
##칭한다
성남
임채민
집적
건호
비포
##오션스
오샤와
데생
신도가
##레닌주의
티케
##길공원
##오카자키
이랬
Xbox
##불신
진퇴
허벅지
선문
각질층
권오현
김윤석
김영권
심포
사베르
포스트잇
박혜나
로텐부르크
싼
아바스
##반반
##한성부
곱슬머리
열하
외가
핵자
발생학
바칼
##바꾸
##단해
부르고스
##&.
석식
준다
##스티브
등칡
문패
프레지
안창남
##왕자의
정확
팸
통닭
##입감
트랭크
오륜기
대통령령
알릴
데스노트
쇼크사
##디에이치
하노이
킹메이커
클린트
##로군
김흥동
박충수
펠리아스
FOMC
헨드릭스
해항
##울타리
초림
웰본
셀룰로오스
호턴
놓인
착공식
거북목
혁파
봉무
홍세미
Canada
##낭성
이지현
토막
##추석
##더치페이
##수식
이전
안치영
DNS
##용환
쿵
사세요
##賈
##가입자
출생률
푸아
##알프
연수
강직
##157
반공
벤제마
CEO
파계사
보스윅
##5500
##등록금
현관
송지아
로트와일러
린나
##PwC
AMP
##어로수역
OVF
양자리
##유식
1957
##옥체
MAN
이목정리
##견과
청정기
하치
법안
데이드림
##사라라
사우스랜드
몰트만
가로등
##자기
종원
김세환
잡지
##모한
氣
블라터
곡인
문진
변두리
피엘
##바아
##초등
양해림
##왕밤
맥박
##Chapter
##열기구
##자면
아파트
##옆
둬
놀량
임용수
유광
##지승
불륜
고아라
##강하늘
정책금융
장샤오강
커큐민
##殊異
경쟁자
##국축
돌푸스
##관할
세네갈
##계교
##스피어
환퇴
엄상익
쿠쿠
토피
정치인
##가명
##"▤
정관
기회감염
예일대
##기능장
mihi
##형민
##카가미
격인
탄화물
##고추장
이성근
월이
##버니
##㎍㎥,
##가부
송월타월
니콜
신군의
##빳따
Sunday
풍천
대우중공업
헨더슨
technology
hPa
##통지
Lucy
##바타
##담대
##텃밭
안치
연제
##스러웠
콥트
##전용차
빗길
남한산성
마리어
##방해죄
§
501
재배열
헤이스팅스
##스바인
이진한
##지역인
##´€
458
황지만
아리스토
태양홍염
작업자
황조
##mob
오멸
##둥
성공리
MGMT
##천상의
왕자
##가등기
만료
목각
##결정
어떤
가파른
한승희
##수중
픽포드
##APEC
바디
탕웨이
##창궐
##타민
라그로
##돈녕
##단의
유명환
프레데릭
하이에크
스마트러닝
##아세아
김재진
웨일즈
치하
호일
변두섭
카르발류
Suede
Magic
김지숙
OHS
##동영상
종
##청구인
##가메
##스나
피스톨
##사택
암굴
아크라이트
포식자
전주국
박대
##강점기
페라라
##일별
가즈코
무척추동물
이정복
유작
##포루
위닝
RMX
IOT
엘러
BMG
##긴축
허망
한주완
마이너
보고대회
##효설
##강민호
기록자
##석재
UFC
위탄
뜨득
##른은
District
알부민
##이것
제국항공
건축가
Star
벨
Address
##高
BDA
뒤주
##No
노리치
발라동
##가군
##윙클
AS
##레일리
DDT
김영백
오가타
늪
##진정
무릉
이지란
##업주
박경호
ClariS
##곡마
컬러풀
봉수대
주상성
##서비스
간경변
동보
스티커
열지
판크라스
##곡면
##마스미
##된장
의사당
##박효신
시화전
약산성
홍경주
베지나
카프릴산
정승현
##시공간
비지
##성상
토스카니니
정대철
##Class
이투르베
면민
##아프로디테
★♡
의문점
##부전
지네딘
반겼
최성
멘토스
아진
고승범
나기브
##아호
심재철
##산스크리트
한국
비칠
진아
##비엘
김동석
교칙
페넬로페
태봉
특대
##코아
김헌
##운도
해조류
서산대사
홍백가
폰토스
##탈퇴
연성법
미행성
몬산토
£
부른다
국공립
박소연
##자산관리계좌
##거문
시박사
국세
재편
##감장
##분양
서우
규방공예
KISTI
##감로수
금고
증편
빼돌린
전월세
##영이
##음자
김바다
후스
몰코
##만족도
Tc
긴급회의
김달중
셰퍼드
크라메르
준장
텐
보통학
##영천
남수단
##산수유
암모늄
##西安
연방제
블
OSV
아딘
에바그린
##칼륨
육탄전
정진영
리허설
남북통일
실리콘밸리
의사록
##연행
##드린다
장애인
악덕
뺏
스몰토크
키르히호프
##이별
##험
국어사전
다부치
신복
청야
염윤아
블랙우드
##바이오
추원
진박
##사배
##행세
심바
##베니스
JIS
##괴물
##쯤
방사선
박한
##코네코
퍼스
동양자산운용
##여선
곱비
박창식
공녀
최규선
레드스톤
##서재
착복
옷의
아스마
가즈미
2800
넥셀
##依
school
신숭겸
##될까
##EPLF
##연설회
황골
##전년
서수연
Wall
##싱글
##전시회
##안내
대한해협
노환규
##다수결
피네건
전지훈
ESI
터지
김해성
비테
줄줄이
장영달
##데코
##침착
삼국지
이화여대
##목욕
##태교
카사블랑카
Mattis
순증
관해
정원관
##을수록
##밤중
라이히
소희
협력
양평
강석진
##호재
간현
##학교의
##려다가
##덤바
타
옐로우
구태
개청
보합
ABF
유수풀
기숙
##윤창
유합
유
운암
##계
페널티지역
칸드레바
퇴각검색
항성
남용
179
##상급
##%)=
비슷
크롤리
##창민
산실
195
##과금
레이티머
카이맨
달해
떠나보내
지기
##위즈
##한다
##산마
##불문
와인하우스
육영재단
종욱
##정전
브로크
##진동수
아이아스
##뱅뱅
마오쩌둥
##이완구
만끽
안장
윤규진
이지희
비그
##역동
민란
##선제
535
도요
##가사
##？
##토큰
예술단
##坊
##평양
식시
단바인
양성애
550
##진베이
##ADO
##봄날
맥밀란
마르티노
발렌시아가
##헤센
##쿠다
내외
##레앙
숙주
모르
성일
출생지
내설악
이동해
SH
양정모
##천구
몬테수마
레이스
얽힌
##라터
야나체크
짱
코이노스
##자나
후루카와
대결
벨푸어
GCN
덧칠
팔레트
숙직
상필
글라이신
럭소
부산교구
빅토리아
1934
PISA
들릴
##다연
우투
##카인즈
타남
수입국
블루스택
위정척사파
##나머지
Dynamic
여원
이누이
섬월
표밭
OCA
감산
##분담
자임
노부히라
킨들
##彭
떠날
Outsider
##라미
##기봉
함부르크
신종
##兆
미키코
피보험
도곡동
이종태
뒷전
MFC
##효익
꼽힌
##DNA
##이순신
##鐵道
한솔제지
김승현
황태성
귀빈
당사자
신석기
##나프
이보라
아이큐
희망
HAGO
호국군
참패
행패
##건강보험공단
SSED
##도영
실재론
DBS
캄보
변산
##톨로
후배위
은
말라
오스트리
스네이더르
하지원
##사업비
##히든
법조인
##오공
SPICE
뱅크스
꾸며진
후지쯔
야단
찻잎
Insurance
##순
##아난
아케
세르비
##113
점주
비와
##된지
다인
클로
##관점
마천루
그리블
나일론
817
##땡
감만
메가트럭
총대주교
##캡틴
스테이
드러나
뢰
의창구
나뉘
##진도
##템플스테이
휴마
노모
범실
파티클
타상
양분
원산지
DSP
금요
##1958
Final
앓
##始
다구치
이종옥
마샬
홀딩스
White
젓가락질
WFM
아르농쿠르
##토르
소목장
태백
##Tayra
##러닝
1050
##박서준
##峴
구리하마
위린
NYT
어려움
공사
##윅
미모
##진평
##淨
발데라마
방술
##뿌
어려워하
##soonhoc
이서준
최강욱
##바지락
##논술
##꽃핀
##칼로리
회전교차로
리용
1228
스탠다드
가세
##테넌
##欲
80606
##양봉
얼티메이텀
끄집어내
##밀크티
##잡스
근수
포이리에
##ʃ
프릭소스
##컬
##슬림
TCAS
번성
##㎡)
##2
연습생
##청정
##55
정령
##스모
##태경
경교장
히로뽕
만트라
js
삼중살
IWPG
##e
브런튼
##김고은
ADOdb
편견
PRS
이학민
화지
##ZICO
돌아와요
티플러
쇄골
##백정
##수첩
오름세
##나나
##ERA
노인병
섭정
변상
마에다
박재인
호류지
##소뼈
준동
병영
양세민
Concert
##황제내경
##앵의
출루율
연사
산업자원부
간호학
승선교
##도살장
익스
##부의장
Bogey
드네프르
##프
페드
##자본금
##종료
외국
##유익
이효필
예승
온스
인입
PPFA
이노키
박술녀
##=］
여진구
Btv
##Baby
##치미
##법안
클리셰
JMW
마키스
##Mass
경장
무사증
##位
쿨레쇼프
##호프
소나무
명예혁명
QCAD
713
소공원
돌핀스
##터코
##용부
##리듬
템페스트
샤스탕
독살
##함대
##이주민
##링턴
##〉〈
##게이
덤프
일부
##소셜
즉석조리
##새의
##정려
밀착
최우수
2065
접종
주네
##동남아
△(
김순정
종근
호쿠
동막
om
거래
할리
서문탁
이치요
##작파
풍접초
다승
따지
리플
##소법
태공
한울
JJ
##나들이
지닌다
##질주
XTM
노태우
부가세
최래선
##져
##구주
불티나
SCR
디아라
##혁신
부레
스타게이트
##카푸
사츠
페테르
슈프
##정도전
양한
감미
이하응
##원점
콘트라베이스
황가
메우
내성균
##공관
##솔라리스
터무니없
고승덕
쾌변
김윤수
##모란봉
##고는
흥덕구
그나이제나우
역부족
##바게트
##광주비엔날레
IGM
걸까요
선령
김은영
원스
##newdaily
##건즈
카스토르
##재취업
생존
립싱크
정해야
보령시
저공해차
김동길
난류
오톤
올림포스
##경쟁시험
##리발
##자아
##궤양
파텔
JAC
권재희
##》).
황광희
옥토퍼스
큐어
김현종
홍준호
##무로
나바라
상사
모름
##전도성
무경험
##늑대
김정아
##협상
바깥쪽
이학영
##조용
##후생
##희귀
용한리
회피
느와르
하토
신영애
벗어난
웃기
##240
김영오
용혈성
##운검
##투쟁
##투자자
알콰리즈미
루살카
##이회관
관측소
철산
##有情
스탑북
##상주
박과
로직
괴문
손숙
유카
응해
혼자
##%],
##직장인
##전염
페이지
##자국
스미레
dCi
##양득
##레뷰
##역세
members
##안전교육
테크
남수정
국운
##의사록
HACCP
베켓
##마선
경산시
이은비
전우용
##지상
##일행
##유체
식성
폭격기
청구취지
TIP
전했
야견
구필모
현측
부심
콤프턴
Csp
골매
선예
##미쉐린
오릭스
##사복
FN
민석
##국산
수호자
이광헌
콧구멍
##위생법
Hydrogen
찬조금
서행
돈대
##이구아나
재운
카스피
미납금
브래들리
움직였
국무원
미타
##강욱순
1812
PNS
직면
페로
##태정
##루테인
##낙동강
민선
싸리나무
특발
기술사
잔디밭
##부모
##덴
##'),
공유자
##역사학
어항
슈얼
##청두
안타까워
판매대
하지민
안야
중원소
우주망원경
184
APAP
장일순
##육묘
라우렌
역학
펄
##자봉
##비자금
어류
##팅게
##미식축구
돋우
웨스틴
오버액션
발차기
##응성
##교계
##SBS
애스톤
돋보여
이시와라
492
라이츠
##음모
군인
miRNA
막히
발출
KRCA
길선주
각황전
강태선
송보은
##증세
##소품
##중만
##박영신
술탄
디우프
갑작스런
보잉
퇴정
아우
##민주주의
중노위
이진국
##───────────────────────
라파
치사
비이형
매운
페어웨이
바이오매스
##행정
라스푸틴
에리
코오롱건설
뜨개
응암동
##송라
##학가
##당시
##최문영
대광
참봉
남계
남한산
남태혁
##세르
건국훈장
카레라
##어시스트
찬차
패륜
##적립
메이슨
러닝백
##밀착력
아비코
##오케
경신
중간재
’
##국제
로버스
블루종
##정천
##차인표
vertical
병풍
##선동
핸드볼
총사령관
나태주
FBI
정인교
정보력
보태
##hansi
##탁의
설송
발정
정실
cm
호서
##공강
##진기
절멸
##좌상
디너
##짠
함정
보인다는
우디노
트라프
대뇌
　○
심리극
##외주
러블
##프렌드
##자책
항암제
군산시
갠지스강
가요코
절연
지긋지긋
##우회술
##법제
니나
여긴
카카오톡
배윤정
##아라
##은가
잔루
갖
##막장
##馮
양수기
##good
최선
김해림
위연
현피
지어
##▷
실로
캡사이신
국민주
##정경
투리스모
허이널
궁평항
거시
버터플라이
낙진
일주기
조윤우
##알림
##행하
##명시
김수
서면
##가을
군무
나우
검토
해상자위대
##293
레들리
사양인
##선교회
93
잭슨
오누이
##에이프런
비셔스
라바시
제미니
VFX
격렬비열도
오준
SSP
모순
신도비
이광희
제한
##미관
이언주
##구경
약력
철령위
왕강
Multipart
모르가니
버켈랜드
빠르
두마
네부타
편한
반가사유상
QPR
상도동계
영명
클라스
L
그림판
포문
##640
##태드
##박종진
이탈리아어
울버
##지네
숲길
돌아간
복리
##득표율
난세
암페어
##수변
라로셸
이철조
궤도
리프
##완도
소외감
김공량
희곡
연석
000
김해란
조희동
##합천군
김중산
##邑
보입니다
씨이
권문세가
조원우
텄
##함성
여환
##카르
측두엽
##랩
보면
##미타카
보브
산봉
북양
##3100
졸음
윤원로
탕진
스쿨링
##전적
##세미나
헝그리
시네마
랑
물맛
##특임
리암
사쿠라이
비워
삼키아
##스폰서
설령
야시장
패의
##+==+
송이버섯
어우러졌
상파
##파피
트레이
지라시
야누스
평교
##봉교
##상노
초이
비용
잡혀
마태복음
##미스터리
팔선녀
끌어올리기
##생굴
##김대명
뒤늦
입욕제
왕성
Trump
페이튼
Jazzit
IDE
분투
공모전
115
##비전
편각
황정한
감가율
하루키
렘
유시진
금왕읍
##상금
실비
추도사
##침례파
##은행장
el
##지점장
파나히
위조지폐
강도
누마즈
이스코
견신
김지연
부당이득
##国
##陀
##비엔날레
QIB
핫소스
ADPi
크러스트
만터우
##파리바
Arc
fire
##沖
##Competition
Nepal
이진영
High
순
오질
때려
가정제
페가수스
심재복
&#
조속히
빵빵
코스모신소재
코몬
정연이
##댄
연우
##마이너
Secretary
축퇴압
직하
이일민
상반방정식
갑상샘
파워퍼프
##키덜트
##PAC
##제정
마에스트로
디머
박정자
베이지안
##말년
코만도
##III
##연
DIGITAL
올라갈
정순원
플랫
똑바로
##수탁자
로열패밀리
##코루나
국제법
AA
##스쿱
트롬본
##폐물
겜플
시월
마이소르
대격
그라인
＋
손종학
OCN
황칠
국기원
아이언스
장택상
농어촌
채취
##질라드
##無知
적설량
튀
후불제
##해질
##관병
후사르
##ccOS
강현수
펼친다
애로
임동준
개돼지
##파운드리
드래곤볼
기요시
공현
상남동
화엄사
A
##ear
함종
##제단
볼란드
SAR
대문
카스테라
##아파르
죄르
마창대교
##말려
참참
##수자
강인정
##GLA
전홍규
넋
핑거
박은빈
##선진국
꽃샘추위
윤한봉
종합부동산세
##문가영
fMRI
급제
김상순
지오지아
페니와이즈
##듀발
폭염
장영신
##bottom
##침구
##격성
##장보
앞차
수록
김준현
##****)"
##새우젓
드한
##바퀴
civilian
지지자
만난다
김병성
표창장
김승규
##’%%
아카몬
조병민
입춘
GPFG
APM
기러기
##이피
위나라
##휴대폰
##블루밍
대자보
정군
마레이
##의류
##唱
음악대
##아무개
윤하
핑클
##닌
대전환
7530
인성군
마리스
페르마
##로이터
당태
##경혹
제쳤
재택근무
오를레앙
기셀
브로드웰
SKY
본방
IFRS
경대
##미렌
김종현
킹코브라
바예
##自
밴쿠버
PCS
명계남
##플라이트
김새롬
##임페리얼
##신도가
##정진
스카이다이빙
##9500
간담
홍지문
##벤투
노형욱
##스피커
발설
##무엇
호준
시럽
##일간지
##조선족
##영춘
##숙박비
기념사업
트라이
명차
출반
##지배인
255
오치균
비앙
프로테스탄트
오동도
##오늘날
부장품
VLPO
수색대
김지호
NHS
중찬
라이코스
##항공기
한대수
최태욱
초본
사도
##㎎/㎗
지난
《》(
SDx
써서
낚시인
##잣
HGP
하버드대학
알프레드
왼손
알런
박진철
럭비
KUS
수연
도가니
함중아
인문계
로즈버그
##/
##워크래프트
##엑스
박복자
강만
매화
YK
박샤론
옹개
함반토타
주소록
나가라
하자
윤초
##멕
##경이
JAJ
칼루
증거능력
##晩
##언론
##포상
##파토
##재판부
토틸라
망운산
제너레이션
나니아
##した
##조금
##bin
##상향
##유럽연합
베르바토프
중학교
##태봉
##프리드
615
착오
##시각
##사발
##weight
홍여순
##도중
무연고
정태수
니오븀
##신용도
##曆
NADPH
##베어
##정상급
허정민
##시교
류수현
수사학
장유
유포
재발견
SALE
##피니스
때밀이
초월읍
차차
이웅
##헤르츠파
##뮨
조사망
킨텍스
##7860
나르본
에로
실로폰
휴식
ATM
조선은행
##라운
표준지
등등
##루안
##학적
플젠
카호
묘표
##기본
돌려
그림자극
우종완
박선주
##력
고영
##탕면
##;.
##클리프
##Derived
바다소
시키
노전
민효린
디랙
파라
##만한
촌지
맬
##니트
##역상
국민의례
그리핀
장로
타케모토
조명한
불감
에벨톤
풍자화
걸어도
알마스리
에이미
관함식
귀찮
북스
강력부
##참의
##036
구강성교
##addEventListener
전염성
Body
Fly
서해영
뇌량
##넌센스
##강박판
##캐프리
도연
이병수
철없
##홍천
드리
이매방
##유즈루
나뉜다
맛봤
뱀주인자리
MAKE
석포
자이나교
이윤수
##타자
##발급
온난화
사르토
##남과
짜릿
전민기
빌럼
유승준
협연
도락산
파룬궁
나영자
하이로
터무니
눈물
꼭지
짰
컴뱃
##로렌조
두통
1994
##워너
하이츠
배고픈
파차
걸매리
장은아
방적사
##돈천
이대휘
장전
와카야마
세계선
양향
소통
묘법
애시먼
바벨탑
로드리게즈
##{$(#
##나비효과
긴팔
쐈
ISO
추종
##접
라쿤
창안
APLN
외해
카펠
or
##옥수수
비젤
##액팅
유채색
천수
충칭
택
미리암
##진리
##수목장
집값
##리오
패류
마사카
믈라카
엄호성
##심사원
최일환
서평
컴버배치
딸림화음
초촉
경인고속도로
작두
최선호
##코츠
##홀리
뜬공
##조개찜
에콰도르
참치
아질
##세포
##무개
저당권자
5⅓
##완전히
바타유
−
후식
힐러리
니카이아
갯녹음
시계도
##함께
##입니까
제과점
데려가
XZ
##340
잔대
뜨락
지어스
밀어붙인
하타부
##미원
김건우
용해도
아사다
스타트렉
크로노그래프
##알레르기
서유정
TPA
##향대
만일사
##해소
청동상
##北京
된다는
레마겐
마후라
스위프트
##주석
##골소
인한
##콘테스트
MKb
##국내외
차홍
징진
##개시
최정호
##캄보디아
해수
이른바
##헬레스
##▲
영목항
##중열
본국
레위인
##UFC
김여사
AsAGP
##맨투맨
하청
##비막
조윤희
추격자
##내과
##평원
##선수재
##타워
올드린
분오
김정일
투나잇
지반고
##고발
리우
Dell
조용원
한영실
구럼비
음성군
潘
빅리그
볼츠만
보좌관
성기
국자
##최사
##박범계
하지나
미야즈
##여성
이뇨
##니르
PK
에브리온
발성법
신앙고백
##빔
##500
미터
메피스토
원음
세가
아나톨리아
핑크
혈전
##Golden
쇼퍼
##상한
망산
윤정호
JTO
산약
애시
*)
커플
##든가
##기상특보
데스마스크
##풍향
탈지
명설
전자종이
민주당
꼽히
##인류학
종적
##보선
##테이크
MSN
##프레
카오스
보두
##채영
박향
햇잎
고소
소프트웨어
##택영
훈족
상승세
평리
밝히
프릴
나산
확대
##항쟁
내진
FinTech
임홍식
식별
정류소
화학
##의학
임은정
답신
결속력
아장
##행정관
롱테일
레이프
애잔
테오필로스
된소리
##근자
서윤수
장현진
##레이다
##龍
협주곡
꽤
포트폴리오
주간지
앞면
첫해
##식구
##마요
앎
##드리프트
프리즈렌
##역옹패설
입이
노르만
정착
##7400
납니다
##활계
##종목별
떳떳
##텍스
##내진
##수산청
##업무상
솔리
김영관
##곡관
강영걸
##리밋
절찬
원할
이감
이영주
정미조
플러그
김복진
구이
낙농
양광
애끊
CCTV
과수원
##분기점
소옹
적석
재목
브레튼
미추홀
김형주
발
##®
##조장
티슈
에니어그램
전라남도
그저
display
연령층
##풍신
슬그머니
수일
슈마이켈
오카자키
정만호
시라이시
수십만
##스탑
화협옹주
##llionaire
대웅
목줄
어도비
여미
##거추
임권
볼라퓌크
뭔데
암베르
##경비
##복숭아
##화법
##데스크
문학상
경호원
체코슬로바키아
손병호
##허락
티캐스트
간선제
mPOS
종로구
해서웨이
익스프레스
티탄
분식집
##플루오르
##따르
매튜스
벌려
SEZ
TIMS
은공
욱일승천
##코르푸
##동창
##무관
83
최상목
##손학규
안목
제주일보
##±´&
TT
이원근
우경화
##모사
국민은행
##여객선
##而
SNS
함유
##선도주
남달랐
초대석
##총량
태명
실무
##존치
조구
손태영
연주회
통합진보당
구트만
언행
예기
##이제훈
게이트키핑
알아챈
기절
냈
##거창
벼농사
코리올리
##-'
candidates
GSB
정묘호란
소포체
돌미나리
##장행
위스키
마토메
CW
원미
이민법
##샤이론
오리콤
앞트임
라보
두데크
##혁정
항저우
우옌
##메이어
적대시
김범
메이즈
석명
##짝
가당
바이로이트
보아텡
베리
신임
북구
실력파
##PayLab
##채무
##이노에
전편
삼첨판
지곶
성씨
멜로디
장기전
SPDY
##ca
일봉
조선왕조
Science
깐깐
뼈대
알로에
AfD
거문고자리
이상혁
데바
이인섭
시게노리
##CG
광릉
엔투비
박순애
알틴톱
라트
가운데
##이승우
강경책
강승원
이창준
062
꼽혀
포플러
##우자
송중
카우츠키
##정자
이다도시
##반실
줄리아
##덱스
독무
##일호
드려
##염좌
벌새
QV
착하
탕산
데이비스컵
##환도상어
다임러
소크라테스
서교동
##趙
오븐
학제
##ppb
LOA
소머리
안산시
##},{"
##251
안병진
디제이맥스
이와이
개그야
##방화벽
팜비치
이리야
납기
##동통
##Hey
##有爲
아리스티드
미확인
치약
##공영제
불국사
Ab
즐긴다
##승적
DCT
우다
거미줄
개통
##LINK
달랑베르
십일월
##각존
##하남
##선적
##양성
대형가
쇼콜라
1002
편히
063
권속
신윤희
##기부장
##월트
린드스트롬
##티노
코피노
적재
임희재
마호니
양용
완산주
광업
만경봉
소혜
비거
멜리
군사용
장론
돌아봐
##디맨드
EMI
최성민
카소
떨어져
전미라
##김지우
디모테오
묠니르
##박정희
##~
##로클린
##구단
콤비네이션
##초속
증기
##이준영
피디
##뮤
##유가증권
정기석
툰자
혼맥
아키타현
라르
크라제
열띤
메아차
배짱
버튼
##보강
과거
##보이스
정규재
##Harvard
위구르
다다랐
##든
##'·'
태울
확실시
지켰
카시트
##카펫
##지소
이만기
아스파탐
##동관왕묘
대응
##베이스캠프
여항산
보행자
영양군
##보가
##을래
말러
벨라미
삼청각
##촌동
Batch
##둠
케렌스키
종사자
차저스
물리쳤
싱잉
다릅니다
구강암
##김주식
##발전시설
바닷새
표구
##레그
토해
##협동
##음란
##보인
개막전
국희
global
정찬민
##야기
##서구
유의선
중입니다
와동
하도급자
##누크
##조광화
##렀
김미란
홍인표
힌두
GSMA
##심천
몽땅
##등판
열망
컬투쇼
총구
##행상
생젤레
덤덤
오브
##스케치북
강자성
흑체
킴
##3200
##해리
##한제
취사병
포자체
부테
세인
핀들레이
##유연석
단게
지가
Foxp
##다양
특별상
세시봉
이은성
한틀
신천지
이선교
비신
휴가비
대둔도
보현
벨라루스
윤숙자
탱화
Office
POM
##푸치
한쪽
샨텔
##치료법
세한
한별
정수성
폐수
고영희
##예수교
사루가쿠
조제핀
JUMP
에벌리
골란
맥퀸
공고
머스
작사
##스피릿
김양래
rgba
류은규
육필
강풀
곧
탤컴
아디
##운하
Brown
##타월
울주
동자
##교육사
##WEF
ECH
개피
##국회의원
김재현
배시
디스포저
이복웅
쁘띠첼
뒷목
##엠지
재주소년
##친문
##고용
서암
간단
BFL
##동관
통수
체크
상해
외청
Ext
테레민
세종대로
과전
0505
펠틴스
노진혁
##제
l
더비
##완전체
##양품
좌욕
인보
##민주제
김인애
하락세
포장
근원
##외대
##기통
프랑스인
충기
##표결
카타리파
##트레스
##여고생
팀플레이
##승선
하숙생
##피소
│
##식인
쇼헤이
모로
##버클리
개항
##건가
DVCPRO
홍가
사라진다면
##nbsp
키린
난중일기
ZFS
모아쓰기
다비드
이음새
##SIGNAL
극소수
##피코프
체념
##골목길
##빅토리아
개포동
펜촉
상환
아카데미
메흐메디
문산역
충무
국제
소나
옥수수
랑방
한고은
장근수
감쇠
코엡
차돌
1880
캡스
뤼순
##좡
정우
김일권
##욱
타라칸
요스트
##가족
오재철
##┼
아웅산
배경
##종환
배양육
환대
달렉
안하무인
##세인트루이스
스테이트
공항철도
프로판
치미노
아키바
##정류소
##지락
한국어식
텝
##니코
간사인
김홍신
마이푸
접영
Hurrah
정성미
##bold
걸상
##푸
우고
##계량기
거스르
##성숙도
tps
윤필용
클리크
##Playbuzz
김약수
아메바
베이다
##오석
##언어학
##트리트
재현
테카맨
##김영규
九
주걱턱
저장조
현시점
자밀
여전히
##나이다
통제
응하
##명무
CAD
##카테
##구매
신영석
징
이방실
##MICE
정태원
다리
싼샤
현도군
##웍스
저드
##일링
그레이트풀
파브리스
##(
체르노빌
이재광
견책
##나현정
##손태영
크리드
총무성
##데일리경제
미래사
어느덧
##라이트
자르
##착용
##군사령관
##감식소
컬렌
빌트인
##법무
##바로보기
##둘레
마니산
##토치카
환절기
##힐즈
이승원
##가스
소프트
##보관소
알스톰
설계도
##수림
##베르나
최경애
##가작
##부과
만난
긴소매
써왔
##레이싱
##송로
보온성
반흔
##이무
제너럴
데칼코마니
KSB
골격
최대영
멧
신수근
보수
891
##간고등어
확장
내슈빌
스펙트럼
해머
##이효리
만년
Server
##김경록
털리
##곱
현기
##커먼
박원곤
코틀러
##KDB
##박영수
##망각
##덱
육묘
##사다코
명확
업무
어쿠
심낭
아십니까
##신칸센
가리킨다
오바
꼬치구이
전이
테무
바시키르어
일름
##향토
##宗
##화생
올갱이
이건수
한소희
##로얄
##화이트데이
영안실
##첨차
KERIS
초반
##전문가
입성
CLS
##以
##146
##라고요
박상오
##종택
이누야마
하킴
음서
##황금빛
##=>
Beam
모토히라
##게시판
받아들이
1959
쾨니히스베르크
##피타
##설우
반달가슴곰
사하라사막
담판
삐에르
합격률
##박종찬
입센
태국
##되
오웬
장이론
##소섬
샤머니즘
해냈
글루온
매집
##위비
든다는
로케이션
##설국
제면기
##염소
##말라
##〕－
바로
##우이
태은
##영림
##아전
##마냥
너무나
Steve
##레우
싼장평원
단월
명사십리
이동걸
적시타
##완선
근평
minimum
채밀
##문현
전도체
##상위
핵폐기물
메드레
##宰
부축
##close
자명
Guild
에니스
워즈니아키
메리
청국장
렌트
결성
task
##전라
넘기
용소
##벨링
성산대교
달력
줄리아리
예총
테레비
검단산
손영민
##대지
비닐하우스
드라이어
사우론
##圓
마샤도
상훈
142857
최항
지레스
선보인다
##기차
불럭
니칸
##애지
##하리
##경제학
잠실야구장
주군
타이완
피로인산
콘서트
VOCs
##렌스
다펑
머쉬룸
리판
분필
하순
##물품명
삼각함수
##시동
##멕시코
'
광택
리터
##로버트
프레이저
필그림
이뤄진
고압선
##불
베코
성판
##버러
정영
신드바드
##수염
양림동
저리로
달구
황성
##교학
1933
코식
국공유지
##여상
강우량
##만추
양영아
##대총통
조끼
##엘보
##정교사
오니쓰카
##안아
바브
웅덩이
투숙
조승욱
##패러다임
전쟁
가몬
서수남
à
박승원
책상
정장선
록히드
바래봉
안타까움
라이너스
조감도
6700
쇼코
아시카가
셰니에
‘’
나이세
몰상식
##비행대
사과나무
아구찜
바그너
분묘
훠궈
조신철
옥분
피타고라스
activity
윤효전
린포체
창우
척추
브르노
라크베레
SUHD
##교칙
올리비아
##우
野
##장에
맥심
이뤄
김용판
이월드
장홍염
알아듣
##노스케
이황은
##시효
##브라질
##울림
##서비스업
란다
카타리나
비문
심심찮
각서
잰슨
##원법
말초
앵커
##로더
매지
눈뜨
즐겨
206
군포시
운세
특수작전
##조알
##야구단
##FG
자던
##드레이
MSL
김탁
체스터
##프라
페어
##키는
CNF
응가
우체국
오클리
##세그먼트
##직위
##야망
가에타노
##도메인
크레이터
김기열
궁궐
고레
채혈
##시스틴
##유격대
연구부정행위
아로
에스파다
구전
##여동생
고담
여비
파이어니어
##수목원
내원사
##나시
##허슬
내금강
2200
오묘
fuel
정릉동
의협
##방임
방돌
예언자
견당사
솔즈
시공사
담뱃잎
##히어로즈
야상
##오거리
기독론
평발
정상윤
하몽
유인원
Factor
바트당
사노
##벨벳
돈의문
차나무
다다요시
레밍
퀸스
EXO
무배당
인쇄기
정안면
염경환
##잭슨
구해
이진석
이자의
##유산균
##누르
##174
변성현
##육지
빙의
맘보
뭉쳐
아이슬란드
산세리프
심결
내셔널
과밀
온달
공준
PHY
레이턴
타격
##절골
FOSB
##코뿔소
1017
기형
아이시스
##삼합
##뷰트
##따움
확성기
선릉역
##김영수
##일본어
##디엠
##HELLO
##바겐
Houston
누드
DCNS
##노트북
##UEFA
PHC
공포증
김현정
들어갑니다
블랑크
묘
도망가
##fareast
남코
반수
임성빈
괴성
자유시
1592
째깍
찰흙
##됨
제이브이
##비나
플라스미드
##캐스트
돌고기
교미
이궁
Koreas
모아졌
다분히
공인
극우파
권력자
##학위
텐가
DDA
버빈스키
보톡스
아파
윷점
##갈갈이
칠봉
시각화
##알레
키친
싸이카
채희
구와타
앙투안
##듯
수양
##캐치
XSLT
밴더빌트
##착과
VOL
나카노
##섬록암
치료법
크레스
업타운
##후보자
지방세
##전역
##대작
지방분
슬링
마을방
##;'
330
강박
조향
##아스널
오비완
갸름
박모
헌납
미야모토
##루아
모식
복호화
야학
피케이
검산
북가좌
##예비력
호객
미나마타병
장영석
용변
장사익
베르사체
아랑
은동
TNMS
##윌리
모래알
나리
이사비
아키텐
##면허
##전진
RCY
난바
카버
해병대
망고스틴
##본질
육즙
신인
벵에돔
##朝
HOT
케너텍
수고
아디게야
securities
##노연
서명숙
풍만
이준석
1830
송죽
##명가
##청와
융자
UNICOSA
로도스
영업직
Young
조스
STATION
조정원
원도
맥스웰
##frac
대학
가미노야마
블레
##계약서
##라던
개헌안
구로동
금륜
급식소
김복자
홈마
대일
우스갯소리
##귀문
떨린다
지일
테크네튬
전지용
자허토르테
##매제
##..
연장
전립샘암
홍나리
안셀무스
타일러
표현식
병역면제
아즈마
이원정
##구나
##누
##건
탐무즈
재배
참모장
유나킴
레이사
권소현
##생술
왕국
기니
로스트
서현진
##삼송
락피스크
메노
어순
##김지석
박경근
심포니
alliance
##지구
후금
뉴펀들랜드
차세
희소식
촘촘
컬렉터
CMOS
Gree
계략
##깜깜
기우
##도포
교토
콘스탄티노폴리스
브로민
##퇴계
FDS
##피루브산
페트라
서술형
##셸
창춘
##신라리
목만치
윤보
소천
치소
고라쿠엔
##직이
마르테
##톡
조동인
시화
린델
가상현실
KCO
파괴
##납
##고엽제
##호작
사이렌
##다노
긴자
야생화
집기
##○○(
##군력
숨지
대용
진흥기업
돈다발
저잣거리
##질문
행자
금기
영토
타르델리
##빌라르
##220
강감창
포가테츠
ZONE
승무복
##젊음
플레디스
벤튼
##상천
홍미정
성과급제
오은영
##혈장
지켜냈
홀로노미
처해
Klf
진부
##PCE
##卞
##시디
##파라곤
##******
목걸이
##복판
누적
양띠
##시완
merci
흔들려
무코
푸에르타
유니버시아드
##공정거래위
##참하
시슬레
##장판
##효소
##문대
##Matic
서종대
탕롱
FLIR
아모
##작불
1170
김완주
정희
송재호
주도형
##화웨이
이재규
브러더스
##태린
##올림피아드
백인제
키론
서호
국실
##끌
임요환
반소
시원시원
OPI
한기태
신동
##sewan
##미만
##news
호연지기
##所
궁비
dæ
배설
돌
##리재
##최호
김양희
##得
##벌집
암호학
황간역
가솔
봉변
홍은
불용
테란
엄앵란
DRM
측후소
수려
##트루아
생태
소곡주
기태영
심실
우연이
##애호가
##사일런트
타릭
셀룰로스
수차례
BOX
##Les
##媛
망나뇽
디바
##8700
뱃속
캄레시
개비자나무
##디워
몬테베르디
화도
##賊
비닐우산
##숙생
##불상
##원역
익산역
옥황상제
샐
취재
독서법
정훈희
오를리
물보라
긴테쓰
##낙낙
도토리
토마
왕십리역
치루
##배수
##숙이
물개
##찬동
프로듀서
장예모
수중
보호색
여미리
##화락
##별빛
##분출
박정수
당황
##익호
김재경
##궤조
코요태
간제
방상훈
750
폴리사리오
elections
쇼지로
문정아
소가노
비협조
윤예
유선종
##특공
Corporation
입간판
바실레
##’”
##리더스
붙여진
장두이
##최
이승복
아리프
어비스
##공시지가
##Mbps
피선거권
##게장
미스트리
규장질
마음가짐
##@-
췌담
생환
말해줘
용덕한
경왕
##파시아
이걸
##이드라
##감상
김윤주
발람
장직방
요플레
대선
##패럴
실투
라우렐
이상득
시스테마
신장
##해시
들어설
산술
계곡물
자필
##인은
덮밥
강남스타일
고속
횡보
강순희
나타냈
와트니
변제
달인
##시맨
재테크
게오르크
VSE
황소자리
라가
당면
선데이
오픈오피스
능금
산후풍
산업의
지근거리
정미림
##원추
유나
##달통
프리드만
노후
허난설헌
곱창전골
브라스
배웅
오
옴브레
진입로
말라카이트
코르부트
기소
접점
##애기
1883
JAB
##Don
##神話
##비비고
최인훈
##코넷
오누마
여수항
##드라이브
##four
감정가
팔라디오
이갈로
박태주
유레카
##화의
엄궁동
보호관
조의
##군웅
키리노
북쪽
흘러나온다
손봉호
##닭곰탕
##릴레이
실렛
도첩
비에
아이아코스
##거신
토핑
두아르트
조한기
눈
채권
소상히
차로
보현사
나무틀
##LX
##푸름
##원군
디미트로프
내어주
찬비
인벤토리
키덜트
아사카
미륵사지
나오키
기쁨조
델로스
나오스
전광판
브라반트
##훈열
물려받
무지개떡
에델
바투타
##둘
##루보
청강생
##蘭
영화당
CJ
##우자의
이중생활
와타루
탈수
##79
청곡
배기량
##우진
조주영
##hellip
Fuck
강상윤
트랜드
##코닉스
##당선인
##대전
##꽈배기
유레일패스
순익
##생겼
Ic
장한
촌닭
##방위대
##인효
겨울나기
##야스
켄시로
wa
NCC
악의
##잔디
녹말
곽은수
마산합포구
##창세기
현내리
##유스
장정
김성열
자비네
쑤이화
##샤우어
JT
중간값
수창
추신수
처참
엔카
골든슈
대우재단
##끼호떼
윤장현
결행
##뮤직
##ㅋㅋㅋ
bestsujin
막창
정수환
태우
##외환
접시
한동철
##숨소리
슬레이니
Nx
##심음
마키노
소넨
행적
보트린
##都
LPC
##배율
주호성
수화
랍
녹농균
##'》
사이프리드
##아세트산
##튜닉
##소연
에큐
경험담
사마타
방탄차
김혁건
케이싱
지메르만
LOCZ
##패들
##송헌
원주시
프란츠
##올빼미
안장점
risin
##부회장
##한국사
최유성
##헬러
소악
##First
##캐롤
##사물
##설녀
##수박
리듬스타
하희라
남상태
TPO
추벽
##위원회
로엔그린
##꽃동네
커스
##진정한
선진
털실
##ETRI
##해발
성분
김민정
조동근
확률분포
에라주리즈
곰소
지하
최홍림
말복
경남은행
옴스크
원호
안수진
완다
할당
##방송법
수산물
##시자
##폴로
무술
향연
##돋
투석
##원세
캣츠비
살생부
청장년
멀린
##잡곡
##외톨이
이브자리
파사
이경원
팝캡
마의태자
김재중
칼리파
겁니다
메이주
박둘선
찟
대림역
백신
노동영
##해유
붉은가슴도요
##강간
넵튠스
##기력
밸러드
오달
타닌
트래킹
오지환
##레이터
개찰
확장팩
구천
사이드암
IOA
바랑산
지육
한낮
애프터
절실히
비노
에이벡스
58
##인아
##³.
퓨처
착용
크러시
인수자
중고차
스필러
##아마도
이현우
JFDI
최정은
히츠펠트
##요제
떡집
검룡소
사리사욕
활약
타고르
6900
용상
##드롬
##WBC
넷웨어
디젤
여좌
운반
브레이크
29
클레멘타인
##司空
##근린
차학경
수여
여신상
포크송
헌혈자
저글링
##치킨
언제나
##램스
친한
위자료
##지밀
##교리
##대디
슈타르케
인재
##근무자
인사말
사두
직박구리
저수율
망우
윤창현
뭔
선동
공세
낚시회
고압멸균
89
ELB
설범
사막
구포
##DAC
더스크
##〕,
##코엑스
파라자일렌
##고구려
##로와
쌓여
앙골
##SPF
타르칸
컴백
김석견
##양계
##운수
연석회의
##朴
##구용
이지원
폭탄주
플라스마
고려가
선행
bid
향동
무자격자
##타블로
##여보
CLO
##다라니경
성운
##=!
##패의
GGG
##謠
##카토
프레도
라디오
의연
##실록
中國
장저
아니리
##시연회
##샌프란시스코
공개
마리화나
TBS
푸켓
Dhanush
##선반
을숙도
각트
##끝
ECU
레몬
##구획
이석형
##대게
소라게
##배기
홍만표
결사
##머티
달리
카밀
꼼꼼히
공황
##양제
APEC
##닷컴
패드
파비우
주재
열렬
마흐무드
권태감
##송동
##공직
키우
Asura
손진영
상소
##수사관
오랫동안
흡연실
네온
감곡면
혼혈
옵서버
##이행
구디
오성환
테크노
이어간
캐빈
##수칙
김성제
북창동
##법서
마사토라
솔빛
##플로팅
350
##훙
8600
색연필
캐터필러
톨레도
팜파스
들린다
했을까
##환불
정용기
##수제비
선혈
김진수
재연
밀어내기
컬렉션
매니아
인식표
실경
멀티플
박광호
녹색등
##진회
미카게
유망
김소희
어코드
##테바
##림스
저성
심봉
##菜
증류주
붙였
역법
명백히
DMZ
##동여도지
##케토
하마평
저금통
박영택
##동사
임수빈
1979
워너비
포키
주결
산길
기질
##놔
##돕
##정거천
##앤시
##실적
##정
저서
할릴
체육계
##단절
##플라자
##마령
##리라
EDITOR
종지부
기하급수
남재현
OLE
김희원
396
튜
김동일
##육과
접히
##Revolution
토로
##우근
한정판
망라
새내기
라이토랄
바예지드
##소추
##전우치
##차라리
##식의
비투비
근린
연대기
승무
단상
침탈
라즈어
프로
소록
##Global
김효선
안의
크렘린
##JBJ
DARPA
524
##ix
링
토르가우
라우슈
이우정
##곤고
바이옵시
##용기
Oct
아연
COREA
73
Ⅱ
토퍼
심불
용암류
대장금
구속적부심사
당재
시계열
##등성
블랙몬
델로
##머핀
저조
피아트
가셈
다르코
코르티솔
3500
##김영광
##단성
레알슐레
##드레싱
푯말
##구정
예뻐요
##진태
##poem
##은어
렐
##CIO
김응조
##신지식인
##듸
이효재
베라
##전국노래자랑
##갈비
UL
문어체
테다
IPSN
젭슨
풍선
당선작
선전전
간결
철공소
카타리
인수대비
##조치
주저앉
리프팅
큰고래
교원노조
##로비
안일권
간사이
로빈슨
##대어
##빈곤
신경제정책
울릉읍
##범칙
고구마
시너지
BIDC
고진
##유니버시아드
파격
Biz
##부스터
클러스터
소서노
인스펙터
중력장
##창녕
##포병
##도핑
##느타리
뿌려진
##수정체
AGM
이심
배구
불어나
세례
강완숙
배민희
선크림
골칫거리
대여권
조회장
##렝케
##페인
간농양
툴라기
들여오
##펠릿
##경명
프로슈머
브라만
위창수
주고쿠
쇼인
##파우더
##연변
다뇨증
세비야
손쉬운
##비급
팔코
모라비아
막노동
보아
스텔라
몬스터
##큐레이터
400
네임서버
##리마
카돈
지안
이후락
labor
죽염
##%-
##잠시
윤경호
앞니
아드리아노
지명수
##존스
명의자
비커스
우마코
##복주
차승원
##자녀
네온비
주석서
허선
브로우
이재순
일반세
베르나츠키
급탕
YOY
박용오
란트
미키루크
유상범
흘러들
길비
##카톡
오다기리
tell
쓰러져
느닷없이
CC
중평
TFT
자의
남두
최상류
격한
연습장
##관운
백정
부총재
모리
##플란트
검사관
윤석화
##스테린
##도카와
이스탄불
지오드
고혜진
타이완어
##레드
피를로
변리사
진일보
패스트볼
##수액
신기
##가덕
##에인트호벤
맥팔레인
##주문
FFP
인터프리터
무라노
토오루
##박탈
거신
##강서
조남철
실린더
우문술
##더라고
코퍼레이션
엉뚱
##구만
토피노
통치자
법무법인
##중구
종착역
말산
물총고기
계란
청계
카이저
##刀
##후관
루차
앞선다
KOTRA
}
팟캐스트
별감
김윤겸
린단
트
닙스
천일고속
경복
나상호
체르
필릭스
상태
##모마
하야오
연인
##악기
KEB
디어
오토캠핑
안세영
부딪쳐
부안
##투스
##외투
이순지
##증류
##짝퉁
##작전
체육관
언페어
response
##관련
##视
박정
김상현
인조인간
게이트볼
소비문화
##고산자
지음
그것
절벽
##총수
노약
Girl
대륙붕
맨슨
걸려서
수령인
일자
공상
쥐젖
##유인영
##영차
사법시험
##정흠
Not
폭설
##관리자
iQ
##원내대표
자유자재
FESTA
고병
##오사
주바이다
##거래소
식수대
콜드플레이
II
##전세
##"^
컨테이너선
과고
쌌
라뒤레
셀레카
##호강
취징
##양강
오해
김승용
출렁다리
##팡팡
##츨라
기동성
##뻔
Century
구국
##강낭콩
##부원
정종원
합법화
네이딘
입힌
##투싼
청향
##원풍
기본소득
풍토기
옥주현
유감동
##의전
청량감
브런치
사재
##김진성
바흐람
Awakening
뚫린
##퀘스트
금주법
##친화
대전제
LAA
폴링
소홀
송원섭
고미네
부딪혔
##소고
VDT
SFA
##금광
은고
##우드
##원예농
상어간유
동궁
과징금
아이튠즈
아코
가늠자
크레바스
백만
불렀
가정부
##물가
##옌
차이코
장차관
브라마푸트라
복당
살벌
정일선
INC
최창석
한아름
타목시펜
##진흥
안혜경
유탄
프란시스코
조의금
##라즈
엠케이
드레드
천진암
JTWC
##컨버스
브릿지스
피츠제럴드
백동규
적다
##롱고
초전도
수영역
세워둔
UID
응용
골반
최무
##정현의
찬양
이도
잠적
##응용
엮인
이승만
차은택
보르도
파파야
이케다야
조명균
보웬
정애
##본보
운림
실체
이방인
콜리
영친왕
언노운
박윤경
백지연
컴리
안정환
힘주
KOIS
줄리에타
투탕카멘
저온
당헌
##찬방
이노우에
올센
관리격자
##에프
빅스버그
군관
##하만
##윤보미
##제이엘
카슨
은하철도
후견
동료평가
백마스킹
눌림
##내의원
##총사
하프스
하네만
항목
대봉
쓸개즙
사쿠
박인덕
퇴비
킬러
환노위
286
##밈
##순자
조흥은행
##별로
횡단보도
빼로
기량
파출소
창덕궁
무르실리
박스
##메르켈
자이쿠
1907
맥긴
포키스
군축
명예퇴직
ATV
처녀
세이부
##韓
불란서
##테리
##튜브
##수욕
##판소리
시켈
##경회
##맡
씨엔블루
함락
스펀
납북
프리즌
##：
##자르
##呂
쓰쿠바
##연녀
##─
갱
석민
##누지
유영국
브로닌
##내숭
약시
주의보
이소은
##승현
나연수
영녕전
김봉환
##전남
거상
손영찬
맥도너
##김한수
자기공명영상
##용관
더프
##법관
##우통
감정선
알아본
모반
만우
송지수
공정위
순흥
컨트롤러
##HU
목표
##파마
###
일등석
##파격
방철
넓이
말타기
원해
프린
##윤창중
쉐라
##른슈테른베르크는
Qeexo
미다스
장재원
##햇빛
졸업식
홈디포
히로시마
도시
쓸쓸
이통
신라교역
장하성
기삼연
사라져
경의선
선진리
재고
사고방식
내륙국
알닐람
문천식
##레일바이크
서생면
류상영
OTO
홍건
신혼
정략
파티
백업
니코스
YBM
##산길
타당도
##리볼트
스트라이드
넉넉
##모설
##무삼
머큐로크롬
효장
##드링크
##예지원
자미로콰이
##노벨상
하승창
##부족
홍수조절
샤브샤브
##null
##아세틸화
기술
무너졌
리네커
카타
super
그라운드
복정
슈주
증권가
발행인
##쪼개
##功臣
유마
셰프케
페르민
##즈윅
##교통량
기범
청화
흡
##샤히
어묵
business
외환은행
동양
##농업기술센터
타갈로그
##쑥담배
요새전
잡티
축삭
##봉승
생쌀
방유
##坡
##사병
튀니지
efforts
CHP
드리스
대퇴
헤더
오수봉
##사제
##열람
##화토
박하연
##아바타
##羊
아시아인
##혈의
##목걸이
KCM
중동
##사면
##이념
유진길
미리안
덴
opening
##오상진
마주
월라
조상우
버렸
달샤벳
##화차
##강동원
##소송
예초기
녹화사업
##라이더
##수도회
Market
자족
##김주헌
substance
##%▲
절집
##NAUH
동남은행
한올
##렉스턴
향토지
##Trouble
구간
##카프
chroot
##웨일
EO
백선엽
상해임시정부
사학재단
아가멤논
오윤성
미림
베티스
##스테드
얼스터
건지
연유
##유대교
야르
##Roboto
##불계승
박미
송재우
오프라인
DDP
기슭
##이터
실기
Holidog
강재욱
진행형
르까프
김그림
달서구
미보
6500
물양장
##스테일
공현주
be
##캐스터
마쓰이
##생성기
##미루
여러
##아지
에마누엘레
실사구시
PCX
##물품
민방공
김연수
##어퍼
대축전
임기영
콘티
202
##동조
심리치료
시래기
비쿠냐
ψ
페어필드
미세스
판촉
##시간
탐관오리
아스머스
도절제사
##닭띠
Radio
회덮밥
##변
굴욕
쿠스토
유비소프트
슈타인
##비욘
부슬부슬
실리카
##머들
퍼티
##운용
제곱
##궁금
카우치
NPC
코팩스
##l
이진법
전미정
폴리펩티드
치료제
웹
##어게인
골룸
##과열
##pds
토하
##설현
##730
##신과
선녀
강제노동
바보
도뇨
난다
한우
계획안
##산재
##탈장
##원탁
펀자브
정성일
▶(
타이젠
이주실
검색
색경
QLC
AFP
##입금액
한석규
##파탄
##BBK
정려
##대마
jjozoo
EM
페넘
최혜연
##김생민
과천선
교원공제회
삼색기
##바이텐
##명세서
방교
제드
토종벌
CWI
##박인비
상하이
윤연선
사다리차
마니아
톱니
내릴
##브라
해고
몰카
1974
황해
EMS
##여중
##산적
잔영산
이연두
토층
##김민정
허공
RAGE
ITV
김종인
IHG
베이징
배점
암송아지
덕포리
어려운
통치권자
리볼버
과실
##성리
##=‘
##조대엽
웃자람
안소미
꼭짓점
기회비용
차려입
에단
던져야
상무부
##공군
매개변인
매클레인
##다나까
##김우성
고약
419
신다희
이근규
스마트카드
강동국
유심히
##EM
변전소
KD
가덕도
Mode
##기정
들린다는
김평일
디플렉터
##우리
이승윤
김환
이종배
##WA
역사학
##淸
얄타
경찰관
##각수
李
플루드
주익
송해나
양방
카이스
##소산
게이힌
##교대
다칭
키패드
강강술래
금촌
##자이로
##휴게실
##亨
무시
시온주의
##장례식장
송익필
##클럽
##뮬런
##유커
##렝
##힐데
상담원
에어로빅
서훈
기네
맞춰졌
##저하
등롱
트리튬
왕의
Head
통치
##해양법
대성전
KBC
커크먼
##그치
후라이드
##긴급
##군부
미슐린
Act
박춘란
##독제
켄타
드래프트
금복주
##논어
넥시아
동백동
actresses
모던
페트렌코
문하
간접세
기라티나
비오틴
박성훈
##요약
낙담
퀵실버
프라하
성상
GBS
##‘(
쉴라
##이마니
김강률
##TEST
커플링
Brennan
전파
사업체
##스파이더맨
##암세포
수술실
MHL
왕관
##시공
최인자
김진원
막사발
오민
##hPa
모여든
연세
1400
##忠
dataType
에클스
τα
정시영
파롤
드
아메리카
##지기
소비재
##아실
##운석
##기변
##畵
헤어
##검
##영남
폐원
283
JS
##여문
##전현무
##가라오케
콜라츠
멕
수금
귀추
##파란
##진디
##이준혁
거윅
##조한
##남이섬
휴매나
도박사
홍현호
김규식
주태
포승읍
세미
바이젠
흑사
##사졸
##체조
김문기
##방지
국순당
내달리
이뤄지고
##높
##여행길
타이론
##mesh
군락
##최근
III
##원더
빛냈
##든다
주전충
박두식
committee
방향타
코스프레
가리켜
##ㆍ면ㆍ동
##시보
폐인
린스태드
베스트
헛된
##kmib
위신
##정치가
##주취
##관호
양견
대표
##스팅
예비력
리츠코
유바리
##하이포
##후일
점입자
##소총
정채경
앞바다
지속
두수
공미
칠성도
##界
국빈
CH
탄광
##사회상
##민스
##결원
##재판소
이만우
동군
헌릉
##이관영
박성화
또래
SOC
##송관
참파
카바나
진나라
디플레이션
토털
2004
GDi
여의주
산타클라라
게르기예프
DiffServ
승하차
ISA
##사상자
도브레브
냉동고
##나
AWD
##WP
Talk
수색역
BHP
특고
DT
미량
##지형도
이병진
미겔
방석
서판교
권
급유선
##도쿄
윤정
곽원갑
CK
김민준
육진수
투표자
설렘
속성
손주
##22000
##드럼
다큐프라임
밀리언셀러
안티오키아
press
아이콘
1986
해넘이
보험계리사
에우노미아
##LPG
좌의정
오름폭
##취임식
해상
NLP
이륙
원주
오미숙
맹장
이상일
California
##단점
HDTV
블레이저
에데르손
전승
통행
##코러스
섞
제나
이민희
total
트랙볼
##우세
임춘원
여객선
강수영
마땅
##연암
TRG
웨트
요나라
NARA
■'
줄인
리예
마리크
김대호
관청
인애
코파
김호규
낙오
성량
자멘호프
##대학생
모자랄
스윈튼
집필진
서배너
루마
##에이치
##정정아
우레이
도파관
하의
게이틀린
##망우
암보
슐리만
경쟁사
##사신
이만갑
##½.
하남
광식
인천대
미래형
비스핑
##둬야
마크업
##Main
경유지
복토
코모도어
박문수
##왕전
이용래
가애란
카르포
생모
아비뇽
상판
우체
##물수
사빈
브루스터
조영철
탈바꿈
유세장
물리학자
골기
청계광장
반미주의
##루니
강축
에몬스
올윈
수교
보홀
대본
남획
단검
후저우
전략산업
제마
바트
소우지
라오스
이사도
박신자
CSKA
가톨릭교회
겸업
VLCC
공초
##자전거
마당쇠
기박
김영록
DIFA
##백일장
이선우
FF
fans
카탈리나
BBF
##조선
##무디
사피엔스
화장품
##억울
서두
##찌아
역대
##유머
##메이데이
##성복
광분해
케말
폰세
뷔
##연체
NFL
##악산
들어가
MSDS
차현우
문수
카예혼
##한마디
수도군
##한미
동구리
산청
빠뜨렸
##안랩
##風
칼렙
공개매수
##개리
##심원
무왕
##ITS
산상
Studio
##BAD
닻
코울
##근무
##여교사
피노키오
802
불러일으킨다
Vivendi
게랭
마무리
VIVE
쓰치다
안재홍
휘어잡
##김정주
금환
##동구
리액션
거국
##재청
마르코
##송송
이시형
금광면
트랙패드
詩
팡가이어
사치
폐경기
##蔵
##발효
뉴웰
복잡
##체결
이어도
##강기
차실
##함수
##데이즈
##개콘
중흥건설
for
##onStateEventHandler
##점검
대필
세로토닌
##메가
smog
##所依
커닝햄
바바라
분지
에드우드
##Œ
삭스
내쉬
RAP
갔
##진짜사나이
침체
381
##베아르
##메타
브라운아이드소울
김근상
본다면
매슈
사주팔자
##오체
##CP
바치
칭기즈
대롱
데비안
##치어
놔
이동원
윤형숙
이상벽
##숙성
##分別
찰보리빵
레이너
주중
크레오
루시용
구덩이
Jones
##토토
최자실
충공
##~),
Mk
관절염
등본
백열전구
##러블리
후유키
강득구
다이얼로그
주세혁
아이템
답지
산초
제갈각
정주리
mg
친했
##군만두
그루비
##굴뚝
간몬
일찍이
무게
##부총리
댄싱
피현정
냉방병
##쉼
1490
가요계
정주연
무오
##CR
급진
##구좌
파브레가스
졸업
연말연시
상욱
토르발스
##광망
##박효주
##교통부
##에이지
조보
나오스케
폭투
이규호
세메냐
공모자
치장
리제
허윤정
침장
아이비리그
잠사
춘향대제
조사료
예준
풀렸
##정범
욕계
축생
매기
##나왔
##몽구스
##다
우메하라
장한별
베엘제붑
홀스
라이트
조은비
세뱃돈
라카인
여파
마우나케아
진섭
##ㆍ실천승가회
츄
JV
김용국
기념품
##율의
김성회
##인근
전망
화가자리
서현석
펜실베이니아주
아즈사
여민
백연
계약금
선착
오세인
아르헤리치
##836
자이르
신발의
WebGL
목관
##회복세
안덕
코이
담
버렐
국시
by
##세웅
거슬리
##자판
내인
호기심
##이미
##화학제품
##긴자
##토이버
비린내
연탄재
채경
조영각
중편
시작점
법대
흐림
아세베도
##왝스
한강
안종관
상자
이장섭
##야영
##%).
아비게일
타이틀전
##리올
##하노이
좌익
정당법
##하늘바라기
들어섰
키루루
##풍의
미비
##드빌
##다발
##right
##수용성
궁정
##테오
유흥
사유리
김대우
놀이
목주름
##위염
세진
가정주부
##모찌
격자점
##부나
기관총
올렸으며
모듬
심방세동
##20
고품
퍼브
칸자키
GOL
문지인
##효의
GDPR
HHI
비카르
pa
밀어
##코스키
샨족
Hf
인골
뒤진
도시샤
박춘금
##중대엽
##Fed
결말
이경민
##카니안
꽃다발
##수성
철수
##in
한국팜비오
##기출
버스
종민
서석
아브넬
마사오
바텍
##권이
김영찬
카바니
1819
반독점
##찐빵
파테
을유문화사
죽산면
분파
이징옥
염화비닐
장욱
◇‘
328
붕따우
##미티
효
##%),
킵니스
겐신
유레일
포주
##진야
섬진강댐
십자석
파치니
무악
##로프
가즈시게
코뿔새
야마나
간통죄
##렐레
모른
이중과세
논밭
강동필
##이전
영업시간
유시민
컨버스
반즐리
408
세일라
홍상
##스트레스
시사점
##팬텀
올랜
수씨
##다은
##162
##루페
$
삼국전
최필립
##색슨
경수진
##도착증
맨즈
둥가
노형
CI
저쪽
##남진
다가섰
##히타치
장성환
태후
헤어밴드
상완
웨인스타인
뒷조사
하복
손영록
회원권
김준배
##서명
시찰
원정식
##304
##최대한
이병헌
프로덕트
##장년
심해져
도시히사
주미연
SEMA
랴오
부인과
오드리헵번
##잔고
지극히
부조리
##데이터베이스
##김정훈
##올웨이즈
정민경
도화지
##-.
##쥬만지
##find
##약수
##역전
##순위
하락
##연속극
방치
##스피크
##lbs
김병관
##힘쎈
알레르기
대사도
##測度
##보어
##블락
송환
##먹
빗장
SX
홍의락
배럿
루즈벨트
요크빌
##치인
##문단
이국종
마힌드라
봉암사
콜레스테롤
##의약품
##도브
##표로
불거져
##삭감
갈
그려졌
직인
레이업
모낭충
기관허탈
줄리아니
이창구
##박주희
##리몬
##기사회
태동
갖춰져
직선제
##정장
##전금
##들어가
아들러
##바이블
##반칙
##마틴싯봉
투썸
조용환
MES
♣
50
글록
지오
별점
구이저우성
##양의
##성호
##영업
규한
500
사바시아
사르르
여호수아
에바
어차피
트뤼포
##오저
기적
Voice
유종필
와이셔츠
청구서
중화학
이창호
바둑
상장
사누키
이계벽
손영희
##대한민국
철도사업자
##개코원숭이
경사
로켓발사
##의안
국금
야기
Sao
##남초
AWP
처한
화순적벽
##무주
여겨
마곡
오스피나
Pop
내공
##끌레르
뱉
샤흐
변희재
대두박
남경
##니혼
대범
달마
자귀나무
토욕혼
##유장
##헤일리
쌈장
KOREA
가족력
##진스
김학의
UWB
##lh
노동운
노리모토
밴티지
라마디
반대표
제스트
##천좌
##흘
짝짓기
발트라
##바지
조문국
물집
송삼동
니나노
채무자
##팀원
##3400
##구서
##준우
##군기
포를란
시부모
불한당
##더프
이종창
##브랜드
류혜영
총알
커튼
항소장
원고
김정국
몫
조지아
악견
후스파
코빗
바르다스
도박죄
오버홀
징글
삭
IOC
이방자
퓨가시티
##芬
영행
##정암
##발포
개구쟁이
##리바이
장윤
##ロリータ
##구가
##석의
목감
##comBP
떳
데플림픽
소콜
북해
양기호
VEGF
백보드
##증식로
발롱도르
당김
펼쳐온
퓨처라마
일체
김범수
미련
보산역
김헌식
HL
이승열
NXP
산유국
5600
##횡단
##발사대
비바람
성형탄
##분열병
형제자매
토닉
도박판
타무라
##우성
홍키
##광판
마켓
서상우
부탄가스
##썼
친생자
##sdot
투표구
##久
유병언
큽니다
근로계약서
김원호
##라멘
아일린
세로쓰기
지필
##유린
미미르
안치실
포섭
나타날
캐치프레이즈
##네슬레
연분홍치마
동풍
콘스탄티노스
댄리
로손
띄우기
사외
##롤스
프렐
강화군
##혈관
재가
##배움
VTEC
이두
markets
##평형
소선
설상가상
옥계
##격려금
옥바라지
Hg
추가열
##경순
후퉁
윤승로
노이만
제호
##보험증
이상민
즐비
김근
##코도
숙지황
수지
모범생
던힐
내비게이션
##선사
유림
경무국
An
맞춰서
Zr
##핑장
카힐
누비자
MDD
##양당
##을까
##알프스
##335
하이얼
아우크
##diams
신원호
94
장진용
##한스
미카미
골랐
양교
헥사
##TD
곱씹
등주
차차웅
CASPER
요동군
린다
판문점
##마린
##권고
##氏
SAO
##오세
##觀
##재난
참의
제왕
원주율
다다
다룬다
쿠포르
모기지
풋
페타르
임창우
##최국
지게
##통조림
##황치열
드라이클리닝
그럴
초순
주카
멀티플렉스
아르콘
##좌표
상가아파트
동양인
적폐
대백
##다이슨
##산림
USD
투로
사찰음식
노민우
담쟁이
세피앙
##매일
##원행
코스케
신세
종결
##어주
##경희대
만렙
호익
이현호
Onfroy
현자
남성학
후작
남조선
##전화기
글루코코르티코이드
##흐트
청포
하루카
김대업
##조직원
충절
아이딘
가채점
남도진
곤잘레스
설사약
김웅용
헌법재판
케추아족
작두콩
291
시타라스
횃불
주치
렴
성도착
표상
마이즈너
브리턴
무제한급
이경구
##츤데레
몬스터즈
차감
##르니
비상식
힐리
필라프
대설
차지연
최종현
##세안
본색
Cost
금메달
카빌
화단
공동육아
안연홍
##통식
번의
##실종자
오석조
능력주의
젠거
##사단장
경
##방전
정철이
##박성진
##조선닷컴
아프리칸스
둘러싸인
##룬드
백건우
오덕
독재관
중장거리
앵귈라
톈저우
칼리스타
##CPI
##최다
임진강
.▲
히데타
모음
부수차
뗏
브라이스
종주국
투헬
Onyiechi
알티마
레지스트리
채광
유승관
yé
##안산
##소울
개척민
##제형
##물고기자리
재탄생
문틀
가르쳐
##황영철
로시니
반물질
##댄싱
커포티
모텔
##항산균
풍겨
restructuring
조브리스트
##졸라
블라이스
모나미
메르시
성일종
진은숙
소슬란
한경
현경
분리파
##노승일
##유미
성급
소매
DPI
항원
##김이태
사귈
만내
##JS
ants
##군함
중하
##상담
시모니
##알펜시아
iBatis
NEC
밸푸어
공동구
와그너
현색
허범산
##미친
##임정
사기업
##집단군
##공모
이영오
##세로
KAITO
##억대
민형사
유초
##복시
콜벳
##실재론
##퇴진
##蓋
변형태
오나
##셰르파
곽의진
##영방
##산읍
농업용수
데이토나
##Calling
태평소
백병
통의부
EXIT
대한체육회
##연의
기아차
젓새우
호운
##㎎/㎏
##이상호
IDA
조호진
전액
선보
##지서
사인증여
킴멜
##고스
블루사이드
풍양
예방
시마노
스자좡
제주전
##티머니
이사벨라
Romani
책가방
##탕반
서길원
Marine
김영일
##전국연합
현수환
세일즈
##바소
CAFE
방죽
##1964
##리허설
##나예프
##苦
##테우
서울시
순기능
초음파
뿌렸
대기발령
라르디
MX
##거만
도미타
16
##여고
##그리고
##코코
AfDB
free
늦둥이
##요독증
##술의
비알
##Sugar
소년법
=>
암행감찰
##SPAC
##어비스
홍준영
##단과
되살리
환영
변경백
##피렌체
눈병
반자
제화공
##서대문
##모모
은자
액틴
서사하라
##민변
로이젠
브로민화
##바쿠
##포포
스타브로폴
산근
미카
##www
경쟁률
트로포닌
##y
##성창
서화
노경은
변화무쌍
쉰들러
백일섭
##차용
설피
##골린
##암흑
##고실
머릿결
##loc
중심핵
패티김
진료소
KOTC
무턱
##연합회
일본
여용
모미
##주름관
옥정
##속대전
ENP
손수조
반도핑
##샤라
산계리
쿠르드족
베네딕
##차수
##충격파
필수품
##권력
상상력
##는구나
##하얏트
함길도
브루셀라병
로마인
메수트
와콤
##SDC
##고재
떠올리
앵무새
##타바
미온
##방립
##손수건
생일
##톱니바퀴
정한론
special
비토
##봉송
졸업자
##아니
##무인기
흥분제
허리
##모드
오붓
##모듈
화암동
송경호
올드미스
나파
한열
펌웨어
박형규
##으려다
CAPTCHA
유행
EBS
장형
김범석
솔라리
도망친
완벽주의
##모가
헬름홀츠
궤간
오화섭
위클리프
일리치
##퓨리
에스
스톤
멸망
저널리스트
##귀혼
##혼
시제
보가
##로저스
강명호
하옹
활빈당
##혜정
매머드
덴카이
##장녀
시사회
노스캐롤라이나주
일컬
##뱀띠
수지구
##다수
##남규
##히스
정력제
탕
황금기
이복
Ook
나쵸
장근
eBook
엘더
로케
수영모
보문호
정악
분자
카헤티
나이브
##약점
박재혁
통쾌
주입
##굴삭기
##비키니
등식
Nian
초코
공정증서
##달렌
##기가바이트
마롱
이호준
사암
##토미
임상아
침입자
비표
##지난번
##절기
##항소
##대별
몽유병
##개돼지
##ㅇ
중개업자
총상
터트린
##체스
KORD
##위주
서울특별시장
##관내
##나온
필봉
##범위
AESC
도우며
MD
닷컴
의식주
##절감
하딘
comfort
지나치
김영옥
코텍
터미네이터
사바나호
군바리
##word
비둘기집
상림원
##楊
##미술관
헤르미온느
남만
##ROE
교배
폴리아세틸렌
산자크
아이넷스쿨
카섹스
레빈슨
떠오르
Fed
하문
##프리미어
##나베
메이커
##178
하객
변우혁
##뱃사공
##치사
##자왈
장례비
임정우
##사시
광나루
992
##조광형
##텝
본보기
##PauseAndResume
웨딩
##혼식
기호가
Fault
서하준
##폐구
오현석
독살설
more
윤서영
망치질
##유르
삭감
구본철
가에타
트럼프
돌비
구매
상철
##협의회
쌍둥이자리
##143
##재개
평원군
970
골자
케린투스
자력
응우옌
##경영재단
##민경의
Report
한몫
월말
나스랄라
콧날
고영일
창미
##글로리
파텍
행
광부
##단전
보도연맹
##LV
정상
에틴
마니
하노버
##교와
장미
##홍상수
구텐베르크
슈퍼볼
거미
공휴일
##질기
탐색전
##기아
##토르프
##앨범
문제집
##테크닉
##경천사
이순철
밀리미터파
##로데오
한세아
아리아
##소위
##Ray
마치코
리팜피신
조원동
##초비
불출
##진상
##두렁
##6400
하주연
조영식
취향
클린업
##반론
##이윤
박영규
매장지
전제
##어부
##능력자
머리뼈
코요테
##泸
삼연
밀로이
박민석
##대제전
히라오카
콰트나
일진회
##나중
##陳
무거웠
모리꼬네
가포
##독립신문
손예림
프로펠러
소이현
##블레이드
사이토카인
##네오
봉합사
셀리카
즙장
김학운
늘보
96
전압
코러산트
화염병
##賞
비지터
구들
브래드
홍보가
##832
카마이클
##다드
農
Schroder
카이탁
##제타
##불고기
남성미
호리
누카다
신지식인
스케이트장
##동력
##于
##로니아
##자금
용감한형제
햄
프라고나르
스트라스버그
박상래
##춘추
미친다는
뼈아픈
투스
포부
##양띠
파헤쳤
기립성
풍류
큼지막
candlelight
스카이랩
##분경
##다움
GTK
열리
삼성문화재단
##파라지
에부에
진구
환적
##루머
트로일로스
갈매기살
착륙
화백
##숀
김채연
말끔
아코르
##상은
법
아웃백
##방송인
##세종문화회관
진행
학창
석회화
매듭지
바스크
자석
펠레그리
BFR
여과
베리야
진도희
수게
도너츠
모모이
##꼭
##세이버
입양
##판스
홍총
김연지
우주전함
오르트
총론
신금호
autem
##발암
배합
절정
파헤친다
태도
기타리스트
코코뱅
January
서악
SPS
국회대로
Korstvedt
아케르나르
##문법
강희안
##기점
궁수자리
##이언
드렌터
##시책
엄지원
손석춘
화이트사이드
##바젤
KAAV
봉와직염
리천
##약광
박남선
오크어
##빠지
유카와
##피아노
하안
##사객
마이조
##혼잡도
아르메니아인
친선경기
메모지
평생
##band
파고든
최혜용
조경숙
##비축미
변법
베네딕토
남반구
순수익
페일
말법
팽창
##다일
율원
장세
후행
##적설
건륭
조준
무한리필
메추
정미경
정의역
암군
변설호
점막
초대
떨어져서
##드러
수험표
침선
근대주의
우취
##태장
##기별
##블러드
오쿠니
와인버그
판지
##ARASHI
콜
불친절
마일즈
케겔
##차지
놀렸
교복
AND
도슨
음기
##正音
검인정
아덴
신익희
코뮌
가경제
정세운
Marshall
##대행
기업지배구조
매창
텔라
##투
볕
사순절
##화살표
유상운
DMC
지로나
장수
가시이
공화국
아우구스투스
##동후
한선천
참기름
##052
Court
액티언
크롱카이트
##레스큐
##Imagine
##매주
손오공
목표물
꼬미
온기운
##앰
세벌식
깔
클라우드
마셔야
개탄스럽
형법
도관
일식
갈사
모터사이클
물러날
For
가학
핏사눌록
##진마오
##Good
밥콕
##판매가
머스테인
주변
아넬리
##무응답
##옥비
메리트
이상아
##보성
진도
첫날
분류
##피해
노만
배수현
##헤
장학퀴즈
오키나와현
괌
응시
임신부
유홍기
멜빌
청년단
래브라도
배기가스
국립오페라단
안젤리코
버터
KCTU
사카쉬빌리
안효섭
윔블던
덩굴식물
김선재
##별별
##508
최고액
##JAPAN
보얀
컨트리클럽
아미노
관광지
##픽쳐스
##％)
냉장고
점봉
단층대
상품권
##권단
##노마
살레
##life
지부
심은진
강민우
##방탄소년단
##작의
송과체
##지관
##노사정
sulfinate
JEAN
Washington
소연
윤성모
신위
##도현
##인에
##혜공
##달기
챈스
##위
BOE
##활동
단위원
위략
애프터스쿨
애슈버턴
밀레니엄
멘델레예프
꼬박
##쎈
##끌림
부가
역병
▲〃
##보청기
샤브신
스코샤
##촛농
발트
쾰른
법무관
쫑
담즙산
도플갱어
적룡
##내층
185
사이프
상디
KTB
KTR
호남
##플로리
##블랙
올라탄
삼청동
##감정가
바가
##大社
내역
휫
유곡
##엄상익
여윳돈
두루
##239
파놉티콘
##봉의
전희숙
##로선
##톳
##그
KSR
티모셴코
조광현
황규영
미강
##베이스
영동선
##순교
##아만
스티븐연
보스톤
스파키
오피
드보르자크
##일야
##진인
완투
윤후
골다공증
늑도
##전봉
##길구
미사리
문장
뭄바이
수지상
하수
##항공
##Civil
##농산어촌
IEQAS
##국부론
##건우
문세림
Minos
브루실로프
표주박
김대일
몰려들
##이용주
##수
관개
두께
정에
##유나이티
장작
행우
브라우더
가메야마
이인영
##民族
라자르
##노동청
##데이스
장탕
##지문
##네버
포카스
디텍터
투신
##Line
클린
이신애
You
살풍경
정일영
삼성암
다를
킷
##%/
준정
##총생산
모나시
구소
샤이아
연희
환벽
가네모토
김지웅
##"
수전증
하상도
KM
스탬퍼드
스페인어
진주
듀얼
##궁장
##나카지마
장재도
강동호
번졌
뒷담화
매니큐어
Brigade
뎅기열
이주상
야노
##힐드
##인칭
보호막
차도선
축협
##코바
5011
머큐어
##だぁ
경영진
삼창
작센주
##하우징
당동
문군
##슈탈
Command
##㎝,
##등석
특색
이호근
음용
##페즈
건너뛰
재전
유가상승
##마일즈
네움
##㏊)
##월기
수사나
지배
자칭
원질
올레뮤직
내년
인스머스
##제군
WAAS
석감
열세
##화도
김혁래
김기정
페이스북
바통
알레이
##신경종
##원맨쇼
##△(
한족
여하
천상지희
김사국
쿠니스
##돌격
어음
칼라
섀넌
##Miss
##리튬
죄명
골
디젤동차
후분
야노시호
신하
티미
오성진
MPW
##방언
최대공약수
시트로엥
특제
독학
##KOVO
정다은
동홍천
시리아군
톡톡히
던지
##살리나
신효정
레스토랑
지켜봐야
고아성
IBU
원모
베기
##양성자
아른
융성
노측
중규직
##무지개
877
뿌요뿌요
##---
남지연
피르스
정길
배영준
코른
바를
나카센도
이당
제강
named
간장
##mnt
월동
##트리할로메탄
대열의
##저우
인교진
에이나르
진범
##오정
니조
마요
박다
유병재
##광해
##전해질
앙증맞
CBO
##민효린
손현주
478
옆집
##遺構
모씨
백종헌
양문석
MEIKO
조두
씨돼지
개종
신진호
반민
엘리사베타
콤바
직립
##************************/
이형옥
말제르브
주택기금
둘러싼
더군다나
##길티
진한
##ZX
이재갑
##귀박
양숙
##코위
EYL
parties
봉황동
예인선
스프링
핀터
화요비
PLI
##청소차
머무
##헌트
##기술
편집권
중앙정보부
신우신염
정례
##사읍
삼성카드
사금융
홍인규
북촌
쑥뜸
VRG
해방
##Fiction
나테
"-
질적
선사
하얏트
##兩
얻어맞
##서편제
클루버
##봉산
디나모
우쿨렐레
##강력범
남수현
조슈
##녹
희로애락
Qoo
줄어든
검색창
##Jul
초청장
분란
##태극기
금도
중점
색이
##62
##오버히트
도칸
##한중
가정법
김경식
무선국
철가방
논제
##우내
억지
엘다
직접세
##go
##훈
루사일
##아카데미
Bad
윗선
심재국
KPI
##장진수
이내
풍어제
##SQL
사바나
##해진다
레디스
고경
##쌔미
##명기
양자수
Failure
다닐로바
거울상
정다훤
##쫑
배낭
허
평활근
##"(
천문도
치우친
Loves
##바드
입찰
최하루
##종파
##선량
황국
발야구
##늘보
거제동
변함없이
지원군
쯔
펼
콜맨
김범우
통제력
인간관
360
콘스탄티노
##리베
파밀리아
설기현
속국
##Bye
닭장
##누어
지린
##코레
심청가
우이령
##로역
##삼공사
서방
Giga
타일
##adx
이시우
들판
##°,
김지애
관기
belli
##제어기
##隆
##오산
##殺
효의
애월
살필
한병태
라라비
해선
조핸슨
##통합진보당
공저
쳉훙
니까
일문
LSS
불발
헨젤
카필라
AJC
매콤
##납북
거부
논리합
밸러
##나오
박상언
북군
장폴
스탈링
높이
##DDG
게르다
##넥스트
##이곳
소풍
최수현
이예정
RBA
최충
IPR
##퍼렐
폴랴코프
이명환
##호메이
훈맹
IVR
##특파원
습곡
IFFHS
쿠라레
괘종시계
복합
Drama
FDR
##붓털
고이치
##에일리언
관리직
##듀케이
바쁘
등기우편
##마스터키
경제
love
HEMP
##별관
##금시장
##환상
적재함
##카타
천대현
개최권
언변
##맥
386
##엘리트
고고
이욱진
##셰프
FK
손수
눈송이
조종자
브란덴부르크
산장
RADIUS
피드백
광군
극비
쿠프
람사르
##형과
박잎선
즐거워
반제국주의
##원경
공범
바로미터
아닌지
왕조
dog
황창규
두르
안준영
고츠
##선호도
바질
스냅샷
추재엽
하은이
편집국
석지
네프론
헤이드
##대교
맨틀
소원
페가수스자리
##홍주
윌리암슨
women
##태운
##상풍
명혼
국과수
리즈
##농공
##오나라
##마이너스
올라온
-.
마사소이트
오르페우스
찢어지
남소연
박성재
오뚝이
관가
##위너스
##콥
빽가
AG
원상
셀피
##});
고사쿠
서여
문은희
소북
흑색종
윤일록
##신해철
진궁
교습소
##담부
##열린
해역
regime
동대문
컨도
섀클턴
##오송
##사릉
박지성
지급인
##제교
시프레디
유엔
난해
라돈
사직야구장
##반기문
##발
크루거랜드
울르
윌버
정성모
ANRT
화흥
경화증
보토
중도좌파
##발매소
jtbc
묵시
이일선
##남매
##방식
RTC
토와코
피라냐
타망
무바라크
##플라
삼각팬티
##정국
솔라스
뇌혈관
캄라
##당도
##김창종
홍석현
탈동
유군
봤
컴플렉스
단디
##넬로
도원경
특촬물
테세이라
팔짱
##Commerce
Toshiba
모래시계
##차이
판의
광양시
구취
RBMK
##순환
연체료
최성규
라코니아
칼륨
##고지방
아사프
##cage
최곤
##수력
##식열
이명박
송재준
##비리
아주머니
두러스
##기대주
대종사
군악
김동률
김인경
고위험
응대
추동
아키모토
246
풍계리
##호크
림프구
승승장구
마천령
출석
이사랑
가을동화
모드레드
##별밤
##NX
민노총
PIF
소피
휘그
나갑시다
민민
분쟁광물
노무라
선친
쉬퀴르
##무용수
##처벌
담론
쉬리
도미니코
오단
##mmdata
##썹은
##DAY
오창
공한
순양전함
TIGER
만들
구루
##오한
UPS
오페
최한주
톱타자
신사참배
가서도
베나티아
강성주
##열차
##실래요
못난
406
투시
##아이러브
##리그전
뚝뚝
분홍색
생성물
부정교합
그린스펀
별경
화장장
몰래몰래
민영휘
분점
##모차르트
##코이
나르세스
콘택트렌즈
##호크스
##DR
김천택
유일자
74
김은진
아데노이드
##동재
재래
턴
##서포트
##카트
레코딩
##에스에스
묶
차정
래시
nomine
##방치
Come
황진우
햄튼
홍제역
자처
향의
오하영
##Money
죽전동
언더웨어
##임사
이륭양행
농산어촌
수임
##복원사업
##필름
##행태
조수호
##스포르트
전설
명왕성
##드렸
레이븐
이슈타르
그물망
의도
##몰카
##병창
오현종
스케이트보드
물혹
Swofford
시생
##수용자
홍석준
켐
브레야
웃돈
레스터
끌어들인
Japanese
##베스터
##카우
미제라블
##조경규
궁사
콰이어
안탈리아
올든
월러스틴
북항
이상형
이용언
##리베라시옹
문선
alias
##노하우
##장발
##랍토르
돌아오
##도내
성녀
##EuroSTOXX
성균관
##바우처
효자동
##지피
사령선
엘레오노르
절강
##카플
의정부
마비
부화
##선교사
송희립
하모니
##논평
##화성
수갑
갬빗
##課
##SDR
##com
방부
의의
김흥국
안락사
멜라닌
군복
##아와
##통계
흑연
##80
흑설탕
주판알
##알론소
수동태
##공막
일념
##∼
하태균
##문화주의
소셜
볼티모어
스몰렌스크
##%.-
원더랜드
와다미사키
고마
##스와인
신문학
달라진
이준혁
홍석한
원종건
향해
줄눈
전하
강소라
차다혜
브론
##니스
프레
서간
BRIDGES
voting
이교영
##신중
냠
듭니다
##키워드
정경희
일회용품
GTOUR
후허하오터
오제
아다미
##거래량
중청
##요새
세례식
중원구
간섭계
##듀코
고자이
폐막식
##안전망
시거
##라이브
맑
매케이
NoSQL
테쿰세
뱁새
한정애
geun
날뛰
##橘
##여걸
단골
피멍
빚어낸
##예정지
무세베니
약재
##방패
성희롱
7017
장기간
백탁
##청도
1885
광주대
##파에
응옥
후레쉬
strike
반투
세우
장기하와
##방환
서원
브리지
CTCC
아스트
##영화관
수박씨닷컴
포어
무경
인덕
예성
##자라
TG
박준금
쌍꺼풀
ZBD
##수발
앵글
##배수지
우금
양세봉
김경협
개와
치핵
트레드
CRC
##앤지
##다방
##%)▷
##피세
전례서
스피크
돗돔
주메뉴
부트
칼슨
##교통망
전시실
퇴적물
아자디
##수관
갑천
ISeoulU
부드러운
##완전
․
지출액
이현수
승학
##불탑
##인시
온새미
세
옥시토신
재첩
굴곡
뉴
카리스
압축재
##원숭이
##사무원
##절반
니케아
말투
##留
푸치니
삼일절
마그데부르크
윤영삼
모으
##래나
소렌스탐
##鏞
나사
VfL
메가톤
박성배
##레보스
교합
가정과
내항
로날드
심문
리브레
에레트리아
이슬람교
연산군
수정과
까치상어
판교역
월평균
서성민
우람
전병헌
스파니아
##소화
박명재
##톰과
##캐드
동인지
안인혁
손호준
##합회
##유가족
##팬레터
변위
굳힌
##전자전
일어났으며
폭발음
KNOCK
경완
간쟁
##너지
##효성
##임원
been
제갈탄
예닮
##타레
외교
고글
몰린다
자본력
##상황버섯
##원숭이띠
유지선
가코
관해선
##김정숙
##사찰
어딘지
일어난
문정희
적격성
아키에이지
##위기
톰린
GID
##진법
중농
##합격자
비위
##호떡
주바
임철
바꿔
##지명타자
넓히
동맹
##바이어
##클레이
##송강호
밭
데이킨
자가품
##적도의
이태선
카르타고
이현지
정흥채
장사정포
매듭
##寧
##젠트
출생
개그우먼
총액
##강과
직매장
##國人
마치다
##진사
##광수
##됐었
디모데
늘어난다는
Alice
도망자
조례
보로
##불효자
##탄약
수행
수감자
스릴
299
##38
##유자
동영
동막리
어울렸
##City
사일런트
필리포스
##Fan
##유보트
압출
일족
##hp
엄윤철
황금색
##핵분열
수거
고철
박승
무시무시
##는다는
에픽테토스
FW
##차선
##가중치
뒷굽
##히터
##군성
GNI
”
비로비잔
##律
##링커스
##友
멘디에타
카를루스
개표
##당장
##간
영상
데브스
미니밴
##스필
##제전
내츄럴
##시화
빅뱅
이자카야
리쿠
오가사와라
아라벨라
##초고
일축
가거도
점렬
2021
##페이
타사
하이텍
##일방
자모
떠돌이
##장려금
속기사
캐물
부풀리
##산회
##대리운전
##지사장
MI
정유섭
사경회
##부름
왈렌
##병동
기일
과로사
짜
##콘크리트
고참
경부하
##디바이
##MSD
척당불기
##상공인
Flower
##밀리터리
AVSNOOP
급부상
웁
##2100
과당
##』『
일보
##사시찬요
PBOC
##계산대
타카하시
드림스
주영
Design
태희
실격
최성용
쿄스케
이창선
장사진
MoM
와이탄
탈모증
##증액
셰이커
##감찰관
누넌
플라이트
##약부
환자복
SMAP
마나우스
##변혁
CA
강선미
based
##체이스
##대로
변성기
##피에스
마력
##제철소
정우진
트래버트
갑작스러운
진백강
소지섭
회상기
장근석
##wrapper
분타
##정열
국가주의
카타라
패블릿
100
둔갑
무하메드
##경제학자
예술품
##page
염곡
##준다면
체르니
자가
##오지
##예요
투혼
깃대종
산타령
유고스
뚜벅
배연주
##자세
신곡
##1
장발
추카
엔피
구니
첸잉
독도
수없
PIA
삐친
##조선인
김홍창
배닝
슈퍼카
퍼시벌
응결
무위
키스
##전자쌍
페렌츠
김태용
중
베리아
하선
##임주환
##화석
##화고
엘보
KECC
탐색
헤위에르달
글라이더
##짜리
건조대
돗토리
자베드
친안
논리
##코니
레킷벤키저
외톨이
##암웨이
##장동
아모리인
##안보리
##축제
신영옥
결점
매달렸
조남호
리스크
##고른
철마
세모난
초신성
전세형
##천섬
세이버
cabinet
##官話
의친왕
열구
후면
체형
##陰陽
신지연
제설
조앤
레티
휴직
야산
김영춘
가락국수
골리아드
황철웅
##화봉
뇌심
##카카오톡
군경
지켜라
속초시
호문쿨루스
박병은
대리모
##반점
프랑키
##비행대대
독말풀
SMC
미터기
다보
그라나다
##졌
##고배
CITY
타파
하루하루
##～
뱀독
##소득
##2050
이럴
##여권
어찰
##혈액
댓글
김일성
##사내
싸여
단고
허인철
너트
폼페이우스
안형수
이강원
##축장
AO
모르모트
안지만
실란
안병하
##레터
효명
##갈리
##버로스
##선주
연숙
##좌관
유임
바스턴
##명리
우동주
통기성
mVoIP
샤티용
985
##막바지
##비숑
이종갑
##답니다
메티슨
머서
##양세형
▪
사라마구
##팽이
##점제
초파리
햄스터
페일린
이민구
우먼
본회의
##Live
로빈
##브렐
##심사
아타리
만만찮
##프렐
외로웠
##여대
강남대로
한가람
MRE
스크루볼
용머리
安
##울라
##통지서
샤이론
바스케스
팀스
약정
홍성우
숨기
상암동
페라티
넘쳐나
카카시
##오징어
퍼레이드
##체납액
운조
##단오제
##스텔라
배움
##모태
집행유예
보컬리스트
##외교원
다이엔
낙전
인형
##행동주의
니트족
##유도
##기념회
KAMD
확진
##브로
허락
이성민
타임즈
데카
##프레임워크
당원
지허
취두
입맞춤
번조
성지
##초코파이
##시게
##인원
헛스윙
바운더리
##미세먼지
##산불
흑기사
##줏
투약
조경호
2045
카에데
머릿속
안성
아나콘다
##이나리
허당
##에노모토
##그로
##天皇
추경
됨
문제
##2300
우스꽝
충각
##나갈
금세
##돼서
친환
##근로계약서
39
동분서주
아이싱
연륙교
채동현
씁니다
박대종
건평
특화
하이쎌
##Term
페인터
##리도
코엔트랑
KX
원조
KAMCO
SJIT
##진로
멘붕
뷔르템베르크
지영
##제조
##딤
자대
브로스
요크타운
교환
타이프
이뤄져
루파
##소상
페르디낭
빈터
수집
이병석
##와이
덕수궁
정재규
유아
##이루
##조정래
천우
조영태
서재필
신명화
society
##KAIST
Review
카추사
##할까요
잉스터
현충사
안트베르펜
369
강현욱
스레드
심리학자
감사원장
우물
슈케르
통일세
한결같이
최다니엘
##000
##내비
방공호
프링
통지서
##조현옥
##乙
마교
백두대간
장선
세미콜론
한꺼번에
탄탈럼
##齊
창녕군
selfies
약해질
타카이
아란치니
요한복음
##명신
유경아
조세희
바인더
부동면
열람실
김종
쉐리던
University
##테이블
윤보선
변한수
안드로이드
다육
브로너
##설정
리네르
DJP
승재
##乎
가라테
더플
할리웰
에레라
##찬기
AAHRPP
구상안
카탈루냐
박천희
##NSA
수호천사
피운
올라야
카탄차로
슐레스비히홀슈타인
지학사
포카혼타스
트렌드
PMO
준용
내방객
폰타나
##가온
어원
관용
뮈라
##볼파크
##혈견
##무영
eis
코프랜드
아쿠아포린
##형제
제니트
속죄
치과
##럭셔리
##천단
이용상
흑요석
##지도
부교수
고의
명불허전
다윈
움
##실내
트레드밀
구미시장
곶
##만분
호소가이
버무려
가라이
티업
##클래식
오로
##옹기
소식
추어탕
넘치
##NYSE
변호
MgB
##중
리아드
스포르트
임수미
##진위
추포
양미
편집국장
하마도리
##Chuu
esc
##Poker
김자홍
서재우
춘래
태주
연구생
##천문대
1763
##트임
한동희
가액
웰치
이보근
웨버
개더링
영심
윤웅렬
포춘
VPN
덮
임미숙
왕궈웨이
오카무라
다름아닌
이병우
페이버
홍수전
##jpgIMAGE
##+'
##BRT
##쿠션
##스토어
가져갔
익금
오딘
꼬리뼈
김선아
곤약
정운택
검침원
##강지환
##삭스
budget
##중종
김남균
두루마기
##가이드라인
베스
바리톤
입학금
고성군
##LP
agents
마르그리트
노부히데
양조위
##클럽메드
횡단
상영관
희생양
험하
##精神
바캠프
풍납동
##매쉬
##닛의
패총
방북
주토
전파원
양도담보
##시니어
헤들리
플
도망
디데이
카시아
영현
당사자능력
사커
라임라이트
##감정서
루어
번주
history
임권택
득력
##계투
##가인
뇌하수체
33
레르
생산액
KIWW
김래원
내변산
스타인브레너
두근두근
시몬
심교
##기에
##태의
임오군란
꼬막
비단벌레
항명
##얼굴
에른스트
벅
MeSH
##別
##중합
명수법
정자법
텃밭
문은
코린
기상대
컬처
기시감
탄산
오나시스
칼훈
보호관찰
실권주
##나영
퐁당
국수호
##특진
서파키스탄
Cobain
네로
벌봉
김철민
왠지
맹점
잘록
##두더지
##-
히비스커스
디모인
Monash
우연희
김원주
Franca
노부히로
공경
아센시오
선수
##김효영
212
이제원
##코니스
35
아이테니엄
##할아버지
슝
천연가스
1941
공수부대
주택가
페어플레이
기존
##36
Ka
스누라이프
아이크
##색기
히아
괴기
CBOE
싯켄
시암
오덤
##파리
옥곡역
김필성
##한의원
##tt
레일
##새로
박시헌
##감소
이냐키
마지
기림
인트론
손꼽힌다
김정호
이사부
##클라인
##})();
방배동
##피도
##㎘,
우발도
##비밀
임파
이복형
##매약
##작소
여비서
슈왈제네거
##睦
##%)
pt
國漢
##시르
김만덕
태초
##암호
##GP
거장
##HDi
선택과
##스완지
수후미
아이젠
##석실
AEBS
그레고리
이상희
ACP
어탕
216
##김대중
institutions
사리치
외연
진이한
##멍멍
블릭센
마장동
##어단
흘렸
뎀바
황민경
페도라
##킵
러닝셔츠
베네딕트
##／
##14
무득점
فاشهدوا
°
삭개
##케언스
##레체
의학
송창근
혹독
남겨
연이율
슐레지엔
FOWLP
##정령
등통
카티브
이인화
##공법
##송하
조큐
홍연
프린팅
천지인
총의
곡선
프로텍트
곰쓸개
##³¼
##스팟
아모링
##HIFC
##아미타불
##자립
하이랜드
이노션
세움
종편
노사정
##혀
폴룩스
어려웠을
일러스트레이터
##한금
님
MDF
##랭
Universe
재순
##일주
앙제
##미영
##先
정향나무
##송금
##관망
공개서한
카빈
당부
주상욱
##결성
엘컴텍
##서예
건장
RePEc
##아이콘
추석
이세창
##EX
진술조서
##라이온즈
##전단지
스머프
거주지
눈물샘
##곡동
보하
메노파
반색
강은진
##종전
##잔치
##피코
계약서
로티
클리퍼
##한우
블러디
잿더미
##잠
전자기장
최충헌
##련장
사마르칸트
##셜
목공예
위나
에칭
홀딱
체커
##블로
감리교
##인큐베이터
누명
##오더
경판
##수익자
조혜련
아실
##크
##회계
아카마쓰
##몸
욕창
##강체
휘리
역직
마산교구
모스크
TM
##친왕
##선기
타블라리디스
##담수
인천국제공항공사
##문영
##니들
##자극
##고손
청당
##상쇄
올리비아리
정밀
브라만테
##불가
가쁘
안산암
##사회과
##동사강목
민승재
생활필수품
히든
##증설
##하식
증권사
살릴
DPRK
평야
##슬라우
화홍문
##입장
##주자
##비고
##헌병
야생마
이쓰쿠시마
요시히로
모리모토
조영길
겁재
롤린스
김인후
쓰러질
패러디
##274
종축
차라리
한온
j
우애
연상연하
물리
##망고
사토시
##온살
일면통과
표준시
쪽박
안마
구준회
색은
권사
방시혁
냉탕
이다윗
Cendant
송월동
리즈먼
##균등
장석현
킬드
후진타오
유격
데미
##³¨
에르난
지카
진폐증
공백기
##유명
매형
361
아하
지느러미
덴구
단산
명견만리
스케치업
강남구
연환
염려
클레지오
고르스키
##레온
브룸베어
##정선아
UNI
##문업
##유심
##로망스
마키아벨리즘
사골
이문원
##┤││
활물질
##지지율
선방
장단점
##옳
후쿠시마현
윤재승
##수각
악동뮤지션
Korea
차단제
##괴롭힘
푸쉬
여현
##분자
스테퍼니
유승안
정은혜
발레리
259
부왕
EMP
##가이즈
##주교좌
화면
</
정주영
시아누크
레노
##이사국
면접
합참
격전
인력
증득
강했
누비
염력
떨어뜨렸
최룡해
668
##전극
아자라
실린
오렌지색
PAT
나지완
파프리카
김지현
##야도
##첩보
##bj
##입주
##구별
##유태인
분트
새
##계획안
제생
야쿠시마
윤인자
휴양지
AIPAC
잠자
충동
우체부
임예원
낙차
애니카
대인지뢰
김한나
##저기
광운대
허샤이저
##Thriller
##빵빵
환태평양
##전서
코픽스
##시약
국적
열어
이승기
독자
##러버
물리력
글로벌
휴무
송산면
폐지안
##후애
##매매
신야
where
낙월
##영산회상
황순원
김명옥
##관람권
외관
내열
호남선
김영조
##책상
광축
전립샘
배장호
##이화여대
신사
353
##쿠메
백고좌
브룸
##델리
##555
환구
정시아
##2025
##리히
왕실
게으름
##페시
하일성
접어든
유산
잉글리쉬
휘말렸
DMS
##1990
전규삼
윤채
##는지
호남고속
##베누
도난
초치
김용민
##고승전
마르셀로
##사법연수원
왕대
공익신탁
대만
모습
윤선거
터뜨린
정인선
햇볕
##용
천상의
우포늪
##친정
##심림
윤경
김홍영
##뤼
임태희
아침밥
POWER
부유
탄
##지식
자사
신승현
명랑
##권
##9
##만구
모내
##쿠로다
공이
규장각
운동화
삼성타운
동명사
##구락부
운수업
정한비
황기선
housework
##괴로움
풍수지리
##안정제
##동경
##노족
##여원
동흥
정경은
8000
주신
체불
##코코넛
계량
김효범
포르제
##라브
##습도
안둥
방광암
리앤
처했
잡아당겨
강원도
##인물
적토마
인좌
로쿠메이칸
##동탁
영산
첩이
컨데
실험
호흡기
##br
말레
심어
##풋
수료증
히나타
얼른
깃들
트리니티
##포
소싸움
##은정
맥컬리
##재각
감춰진
##기록부
극심
##헤지
콘스탄
화문석
트라이벨
##단호박
태평
World
일탈
Wave
하후상
##빈곤층
어엿
##돌아온
임산
에센
부의
김영욱
across
정세형
김진규
엄정화
탈리도마이드
가니어
홍선
조현식
공보실
달개비
스트루브
핵무기
래미안
태일
##빅스비
1807
##자외선
GTB
재방송
계율
동판
홍백
뉘네스
직상
내려져
##망설
##惑
마음씨
알론소
##자간
연산자
##전광판
유능
##펼치
대사간
알프스
땅콩버터
양변기
##라네스
##방대
카봇
약침
예금
오토잇
π
##桓
찾아다니
모스크바
##법의
##육성
송준근
원연
하베스트
긴급조정권
##구절초
베라티
방편
물메기
원효
김정
##엔딩
유콘
##渤海
##태도
결산
##성천
JBL
장헌충
##브룬
##1791
##코쿠
보가드
공정
##옷
##決定
생약
##경기만
버바팀
웨건
##area
변기
자리
최귀화
손아섭
쓰림
업주
나온다고
##롤의
##양묘장
##채취
반피
캐즈
##웅
쉐이
##CCC
##노무현
리지
낸시랭
인적
##다람쥐
##구속
조윤경
##LCS
남태현
대학로
우지야스
금강경
정란
진관희
등가
석관
##럼블
##사스
이현이
미트라교
변질
##成
심일
유광우
신경관
딱정벌레
오버리가
##일급
블랙스톤
##아휴
##이카루스
##건축물
##위례
신고
프리스
##이우환
노트
##승훈
공고화
김양제
등대
산출물
브라베
용감한
납골당
정확히
##개별
게이요
무기력
정연진
작렬
##중완
##산협
명제
##베리
정기열
몽당연필
##은천
상의
##선란
개화기
##시드
##문화유산
숄츠
##고척
몰약
볼라
영업망
##히딩크
전륜
카트리나
GST
유리카
##이규혁
##설계도
잊혀
##선지
속바지
##대피소
다투
이첩
시온
##판사
김창근
자책
##중재법
황보성
모의
배삼룡
##라이브러리
King
장화식
##거
이예
##나예
왜구
MO
##메이크업
김재근
도전장
부서졌
신발장
year
아말테아
정자
운전자
박관용
더샵
탱
이천웅
##설아
citizens
아폴리네르
전화기
경공모
헨리에타
광왕
##대각
경험론
파르나스
대이작도
유기농
쳤
후반
사그라다
##수생
##급성
VS
점유자
아역
면접교섭권
AVCHD
육본
문홍
동준
##딸라
##예의
조백
서관
##소녀
##여장
복날
413
국내군
야후
이강석
##ML
난도
기어코
##Whitney
허지
##라켈
린지
미화
가졌
69
류덕환
예당컴퍼니
안드라
탱커
##캠프
일본어
##소멸
염호
페스탈로치
신용장
조홍석
##미트라
##아령
CTK
장정남
##장현실
남대천
레슨
##간장
##克
타카스
칠리
장창
##㎝(
XE
수덕
##解釋
##대창
응룡
왕새우
입시
미네소타주
테오
Genesys
권세은
##리제
##단변
싱글톤
내성
박준규
##자고
##메이
HUG
만새기
##德
린더
##진보당
박철
give
ATA
황현탁
체격
왕언장
심해
펜던트
LMFT
간부
한혜경
우형철
최용
루시
덤
충원
세자빈
814
이제훈
##ㆍ
##주공
##Feat
저축
스와프
이준식
몰려드
##YTN
##참고
더불
휘두르
##관심사
머드
총신
토라
##강남역
박재완
양승원
벽면
다트
##던
전기식
묻혔
##익스
##만장
문문
자폐
제임스딘
corruption
김재윤
젬마
##베코
아르케
Order
법흥왕
호조
디죵
퓨즈
##유단
갤브레이스
김은지
경쟁심
##환
이나
##예술단
굴
덴푸라
최석문
소홀히
하반기
우표
TR
시내버스
##공학부
##영농
영동군
##회정
소명
컨스
##캐시미어
자경단
GLA
윗부분
쇠사슬
지나쳤
하미레스
메론
윤필상
야뇨증
박요한
##콘서트홀
에틸렌
역상
Middle
추리닝
이워
쿠메
보물선
피케
스톨
엠
태양계
##위복
선선
라이프치히
로미오
Mozilla
##물살
끝줄
문성현
이형민
시바키
software
##무시
최동호
마스네
다뤄졌
064
가주
까투리
party
##어회
##회전
들어갔
PONEY
초래
조카
실행력
총비
##어메이징
조기숙
##DRM
미토콘드리아
김상만
다툰다
승압제
베이비소울
employees
놀부
인해
##다이
Round
동그란
시험기
you
ELAS
니벨룽겐
흥천
##TS
임포리
순동
요시무네
베네통
동갑내기
##여회
워라
석전
##6
차관
USB
우덕순
QX
금현
박효신
초일류
윤병세
##이다윗
레이서
이영
KTC
##최정원
##’,’
고상
프라스
코일
##표
##승광
##소용
담수호
상륙함
SP
비틀스
케이비
팔마
당하
하이트진로
##ν
##오늘
플랜트
##노동조합
##옴부즈맨
김광일
이하진
수영복
불퇴전
산태
김종왕
창왕
YCH
##유한
테팔
쿼크
##태지
윤홍선
##해빙
스프린트
##김희석
##란다
기숙사
##산타
BCU
##장정
##개헌
CAC
텔스타
후련
##애부
숙이
박태상
남다름
##후유
모노그램
손지
키노트
올림픽기
##빗소리
성유빈
틴탑
아리엘
물으니
세이블
쓸
##할망
종달새
밀복
##광복
김재인
김가야
바실리오
점선
과르네리
김형완
##바람난
대한문
##조명
관목
캘러헌
퇴행
세경
##달달
QE
오피스텔
겨릅대
듀나
에드먼턴
미나
##번지
##철쭉
650
토기
재학
링스타
뉴랜드
섞여
복싱
고스트
br
##중헌
##구글
조보아
창업비
##차군
정년
##킴벌리
빈드
방갈로
일간스포츠
묵상
##徐
대곡
##GA
##김완표
정회원
마티예비치
오솔미
각박
Apgujeong
할미꽃
산복도로
going
임파서블
##야동
블록
죄악
##HMG
야고다
선유도
탁재훈
항공학
꼬리박각시
박도영
론도
방원
권창훈
##병리학
작살
평해
진압
##소조
##마리암
##정상
차승연
##스윗
김윤도
##폰드
##미현
파프니르
##컨트리
##STER
##투고
명문장
학꽁치
폐모
마사다
##페이퍼
##소료
놀리
##딱
귀부인
비잔틴
수약
피에르
서량
foreign
리세광
##팅커벨
자연
힐페리히
미사일
최첨단
##브루
임채진
##농구
냇
##NF
##파나마
종택
권병호
근력
조병
딜링
##통신국
TRISO
찐빵
##보인다
##파사
##예산
##오전
시음
부스토스
##권파
윤치왕
##삼치구이
KBSN
##조의
시게코
##기형
비정
고투
철벽
##중막
아이돌
##840
##산테
쇼핑
길동
임성한
##박상진
##줄
가라
신왕국
실패작
창방
엑스맨
벽시계
소사역
##도외
한양대
##립
소재지
##도철
개서
강신준
저메인
##투표자
대학원
태완
완성도
##해집니다
##스몬
미쿠
##Korean
올맨
노래미
##billion
고만
엔더
제라
##내게
##복음주의
케언스
권혁은
달천
박세건
육형
크루
갈미
밀크
##DC
##직종
신소
카틸리나
뚝
따내
김경천
ASC
Rizling
폐렴
오병희
##서강준
싼타페
##보험의
##보수당
MLS
Nintendo
유효성
위반자
##진홍
##근작
들어올
Cortex
꽃가루
블래터
느림
##다디
시티즌
양미희
##안녕
모셔오
##얘
##나를
하르츠
##음기
수동변속기
##련지
##신다
##세액
응했
##EAS
산사나무
##"▲"
엮였
한정
##물길
##재분류
##힐러
##문예
염유
실즈
진피
##민심
##외모
헤켄
##효수
데인
가락동
남민전
사이더
배꽃
##9400
이재곤
도마뱀자리
단데
헤로
##더가
##마리나
내사
영흥
음향
홍성흔
2900
##롤
로널드레이건
위반
shipping
COTS
시추
##좌파
외의
팬클럽
김인권
##호반
카바
김준오
솔리드
Saint
##타게팅
양일
황하나
##BUS
수출입
##이동국
레가스피
프로스포라
파소
수체
영석
##여비서
삼립
##鮮
적층
레이싱
갤
##냉장고
문화재청
##크누트
롭부리
낙랑
베를링
게티즈버그
##ul
##나경
##stringify
오상
엑스박스
아프리카코끼리
박지
##결의안
쉴레
BIA
부하
아냐
##도락
링고
미친다
응답
##웨지
가좌
변함없
##엘비
경제력
장승포
김제식
베드퍼드
문구
##이창민
설립등기
##조던
p
##글라스
조석준
##톡톡
테이머
청명
회가
딜러
단전
챗
##교황
##사
브레히트
애장품
분비물
무라사키
쉬를레
비진도
정성립
라팽
진도군
##靑
독상
##예시
세워져
헬캣
##수업
##예당
##미스
##가요무대
##´‘
해설
접지력
##인권위
비발
비경
김미혜
##삼도
암반
대흥동
추방령
##강경준
김성곤
핫케이크
박완
스키버튼
조계사
브로드
##바크
과부
허리둘레
호천
폭스콘
##전참
247
##駒
iptables
화인텍
##컴퓨팅
의예과
##바르시
토박
##만남
요이치
##인식
차창
solution
홍성원
피서산장
꾸란
##=▲
주무관
난부
##무어
양무진
##Happy
##증권사
##신의
작풍
##승과
동신
##㎍
발색
##주원
경험
타이베리움
패소
##매디슨
오해영
주오
무토
김지민
##맹금
피그미
강물
정철
갈치
상춘
끌어올리
##Comic
카탸
정소
Manage
WCO
곰
##承旨
파원
후레자식
거골
##소아암
민치
오민석
요르고스
선물환
##iKON
무관
부족
대변항
##직업훈련
도일
아시아
성내
44
##DAL
허용
¡
##>◆
##수육
버벌진트
적복
AZ
##1553
ICSID
##피칭
이세인
다이소
OMJ
카멕
기습
##장성군
PIMS
##거니와
광진
커린
에
용진
##환주
스테이시
도어
##어려운
FPR
싸워서
최근호
쉑쉑
##어보
심상
여포
##옷장
##방카
소테키
멀리
스웨덴
용액
DACA
Spirit
PBL
인버스
혜화문
거리낌
엡스틴
신호수
휠덜린
논객
이강인
트래버스
황현수
##최민용
병가
##저온
로니
평안도
지진파
이파니
신림
입질
조심
침례
축전
화실
로브렌
마진원
사진사
시빌
털어놓
헷지
홍윤철
##엔유
SC
대국민
찾아왔
손석희
고관절
##거절
수표교
용산역
쌍화탕
공생
산와
REAL
##후퉁
##삼성그룹
힘줘
징시
답동
##프로그래밍
김혜원
완치
여성주의
risingPollFrameCnt
##•
##검찰
물류비
##유병언
##이세돌
조혈모세포
용두레
##진률
글리세르알데하이드
낮출
##원리
익산
전진기
초과근로수당
혼미
캡
##스틸
##양매
나눠서
회네스
학관
심방중격
보라색
루저우
##서래
로드킬
미옥
바비큐
PSR
##VOA
스타인펠드
김대
갑상샘암
로트만
윤희
##시아
##김수영
과묵
##일록
정담
겨울잠
시초
거칠부
##20160318
평형대
##리버
자운
##어항
무라드
##약전
매수세
CSL
노우진
##비드
설교자
특감
메레디스
180
##로열
##戌
##㈜
장덕
귀부
메디
임학태
하현우
도침
왕안석
모닝콜
박문기
독화살
올곧
샤록
베렌가리오
##랭귀지
야생벌
마티스
밀수출
무삼파
판타
##찐
##옥수동
##문위
쌍승
VST
둔기
##스미스
##록지
##흑
침낭
이기권
##장연
##교직원
시스티나
박지훈
승무원
모라이스
##닭갈비
림프액
JH
신용카드
찾아낸
표제
##요라
##PP
##▶.
신규
클라시코
##연마
영삼
어울려
其
법인격
송지숙
Russia
아이디카드
고득점
##남양주시
아페르
황동주
##우파
염경엽
입도
탐문
##軍
씨앗
호황
##욘
##구회장
아이즈
##야생
##대장경
가질
##6000
펄롱
판도
##머니위크
우메보시
품종
깨지
##내방
끌개
##우혁
홍콩인
페로즈
아쿠
##ㅎ
##진찬
##000660
##¤
##패혈증
##유행
광도
부여군
999
츠네오
음량
##파래
##문빈
##존슨
로욜라
미니바
위그노
##Not
##과목
##無常
##글로벌
리오르
부드럽
FIDO
어금니
김곡
모리사와
웅포
거로
주의
##라오
##부검
김동준
##회색
미수금
안달
##시오
배치표
취홍
從
RFP
토폴
BJ
환시
러키
2149
이기동
##심소
##Wh
##鑑
IK
뇌졸
명훈
영업양도
##线
애티커스
방패연
##마예
##기록물
삼합회
추궁
스포츠서울
힘스
단팥빵
임정평
염흥방
##하석진
아오조라
##김종민
##본색
창장
패션계
헤드라이트
##위사
##염력
조우현
documents
##별법
딤플
검진
temps
##머
##Mac
벤담
엄청난
이뤄지는
WCW
##파르지팔
##박하사탕
##황기
##교합
##바운티
##에릭센
##宋
##왕봉
뒤태
##ℓ,
ZIM
나이틀리
##SHU
베어벡
야히코
삼매
흘렀
향방
피해민
적전
OTA
##790
걸린다고
기현
최주식
캐시비
##eŒ
##소리
이민선
애꾸눈
티켓몬스터
우루마
##널
곡도
이정헌
##든지
고바야시
보정동
##레사
현모
김용옥
증대
##후원금
조화
성창기업
Back
반독
납북자
황목치승
불통
##무릎
청력
얘
신아
##검증
심대식
부정소
##tip
사드
베르누이
봉천동
##썸머
그리즈
##수출입
##민의
지홍
걸림돌
야간
##이동
##청년단
홍난
##찬위
##일국
날라
아따맘마
##관입암체
프레인
##ㆍ미사일
숙신
NFC
못생긴
건드렸
큐빅
##교정술
WHO
이미나
강원
흑백
최수
셀윈
##셀타
극성팬
총무원장
새우튀김
PSP
##악당
##항공대
Vongo
블랙핀
안료
##던지
##사이먼스
은장
##아식스
받들
##무성애
##트롤
바르가
관리
KCB
##사무
최시원
정경운
##로체
라이머
제철소
호랑
고타
레나테
피로스
뵐러
한영근
##향우
##드웨이
효선
어플리케이션
##이페이
##선수상
라엘
##역학
##EPA
안전관
삼풍
버그먼
신일본
체르노바
##키나
이사금
총출동
신종길
역명
##한영
탄닌
병법서
풀가동
세칙
돌출부
game
유지애
일방통행
알브레히트
국제중재
산후조리원
전병현
1701
류제승
남과
##mpa
빅이슈
노동계
헝
첼리스트
##향료
Mi
탈해
테헤란
정제두
발칙
코흐
오승훈
바커
##AMAs
국조
부서진
##셀비
화니
##중회
FAU
##관음보살
찬장
뢰브
##이드
BF
870
GWAVE
임방울
특약점
포병
아키르드
##기전
arts
Side
난색
오하라
음악캠프
수류
라슬로
##토레
슬라이
왕수복
최독견
횟감
지지가
##224
삼생이
##리벳
놓쳤
병마
next
베르네
오포읍
##진
##천연
##느냐며
카렌
순천
요율
한수지
##미고
페르디난드
금개구리
테오도리쿠스
시트르
##205
쓰쿠요미
엇갈리
감정
소호대
##laugh
남조
The
달팡
공산군
##조혜
학교장
##셀레이
더빙
##양만
##혼영
아가서
##바울
계룡산
##닢
##베크
스트리커
리스닝
폰치
##反美
항가리
개인정보
##로브스키
##대체로
사각형
##분견대
##靈
##덕본
구순
별책
중계방송
글리세린
outlook
칼국수
소비지
고스톱
김종혁
브라운스
##속살
추적
커핀
에스라
알배기
여성지
설계안
느낀다
##〉()
##극의
쓴맛
간다면
##롯데월드
내려서
##RT
카쌈
원시
UFRF
삼성전자
##물범
##고구마
하군
최명선
종어
숙달
유현기
NCIS
##검관
##더라구요
##Perfect
메이링
김지유
TSV
##성촌
뒤집기
##가선
고등어
##심술
##구감
리파
유소정
남정현
##나조
서벌
허니비
차선
정종섭
경찰견
레슬러
부엌
##피파
마음고생
1882
##레디
이만수
##참치
보탄
##황색
최진이
##木正
##성
강적
##스노
미치광이
FDA
교량
##시치
##챔피
다닌
##애프터스쿨
자전거
외대
반차도
##허용
##사훈
증례
허그
차진
원앙
##도식
##구문
##김광석
SFS
감정서
따돌림
dealers
순교
연공서열
화엄종
436
후회
이경영
사임당
##그리움
병천
수소
명나라
김진동
신일철
##트윗
##영업자
후히토
김주희
이종근
##나라
차량
심심
슈에무라
프레첼
파벨
##도림
라이먼
파르나바즈
해서
##케일
배불
##학파
진윤
태전
하얀섬
미학
재구
##서든
스틸피엠
##심리전
김태군
노부타카
막론
주형환
유회
노출증
볼투르노
녹즙기
변발
대왕
요시토키
##편법
조현우
##공정심
##기념품
##신혁
시발점
최윤겸
멜리나
Ki
violence
##제대로
##한데도
사이먼디
과선교
##SIA
재기
개칭
##장윤정
챌린지
나무
불시착
##커넥트
##愼
##無
정민
##NN
##이즈모
블레인
##헤알
##소똥구리
엿새
BSE
㎾
류현우
퀘이사
경부
요한네스
##소규모
운중
혜시
데릭
두고두고
마방
이대로
##구대
김덕희
##리졸브
문기
조어
나노
222
##빈티지
이상협
수반
ＭＳ
만안구
실종사건
영락
신라리
장파
##비너스
##가화
SJS
##CORE
주민
홍게
래트너
한도
##완이
##수담
소방방
##서른
서린
부
가르랑
Europe
절삭
설공
##피어
##총은
은신
김용학
후성
조사원
##구신
힘차
김승대
프레드릭
오유
##레메
NU
허저
김용식
##오연
##신임
쿠샨
전가
##1986
1911
강별
##데기
스케치
오우주
##害
액정
응수
취추바이
CDS
##05
##배급
emojis
팬지
##바모
캔디
스페이스
##볼라
##천골
들어선
야마가타
최호선
몰려든
털털
알리스타
+$
하회
##으며
##、
455
푸지
머릿돌
##팩커드
Atelier
노동법
디프
##Cinque
사립
미륵사
text
삼성증권
기독교인
거머쥐
신지수
##와이드
우남철
황실
임당동
사양
정동하
코끝
Saenuri
이병린
취한다
공평
Morgan
##오른
##joongang
##이면체
트레
##블의
분체
대심원
독약
하늘빛
##정의선
View
이시야마
수로
학술원
테너
##쇄설
츄하이
최영이
##정류장
KGP
피보바로바
임상
##달력
##김상조
대장정
체포
찜
출원
##르노삼성
##자영업
분자영상
계곡
##썬
울티마
범계
##펀치
##구개열
마리나
##분구
##쵸
##공교육
상습
쇤브룬
그로피우스
만세교
대처
끝
패트
회로
대리점
마마도프
팔마스
Zing
##for
이성배
##초밥
전화벨
##창현
##퓨어
뇨르드
##에틸렌
박겸수
##OPS
기념상품
##KDI
왕식렴
plasma
빕
##지능
##써
이치
##기상청
뤼디거
##BJ
##건전
SYBR
암흑상
##모르타르
이기남
투어
재의
교대역
##우라
그리즈만
ㅅ
단주
##소식통
##세니아
전시과
틸러
사메지마
릴라
김응룡
나설지
캔틸레버
왕시
##'()
##쇄신
로텐
DCB
투먼
밑거름
소리아노
카니발
##레볼루션
롤스
##조운
##종결자
BUS
##**_
어휘력
##형벌
인왕산
볼드윈
신시사이저
미제스
기폭
패딩
연두
웃장
중화
김남희
전영
##삼공
박형빈
텔레매틱스
어땠
##라는데
프로젝터스
정률제
헌팅
료헤이
EDCF
을불혼
##軛
윤자영
키티
잉글리시
##라벨
백조자리
쉔
악장
##짱
허가
우탁
초월수
##파타고니아
암송
라그나르
화환
출자
차밍
PEN
하이파이
149
업장
강레오
주문식
손완호
두습
봉선화
요시유키
통계
##에바
##랫
먹여
##의리
CS
매주
레녹스
코타키나발루
익랑
세크
##수간
우유부단
##우협
잉크
히데아키
##기억
이지애
##산부인과
##》)
소유스
역술가
능통
##듀얼
요독증
다음
##경대
##이즘
페르미
백승욱
세속주의
아리마
1134
폐동
메그
김시범
장아찌
성혁
슴
라그랑
마가목
인디
##뿌요
코시미즈
아델리나
용맹
CINEMA
수질
KAIT
증진
웨슬리
한명숙
##인민해방군
꽁
판트실
헤이우드
송아지
무단결근
최강록
강현
##구호소
김상조
만진
##4700
카타르
임경업
효자
##진율
##HIT
##명의인
##테리어
유우야
붓
##사회관
건전
묶였
일심회
원아
완주
랑고바르드
로드러너
##혜이니
삼성
GKL
##DVM
##서울특별시
사법연수원
소금
##그년
##백
약효
네타
##민법
알레만
무료
군세
##시봉
애플비
번갈
레이다
그
몸담
월레스
##궁중
몽파르나스
##자람
성수
##늦
bill
인천광역시
대령
김안나
순서쌍
후안
칠지도
리승기
건축비
노르
재질
슈퍼컵
##허경환
박무영
맥아담스
##리얼돌
##try
중엽
갈무리
왕펑
##주조법
스이군
풍영
not
가쓰
애매미
know
에콜로
거위
##산딸기
##부명
FSM
이회택
도르발
곱
연결망
개막식
##오반
세모자
##호빗
기해
대한민국
거침없
파업
저거몽손
VZV
아혹
##관광객
개업
리나
호히
용경협
━━▶
뒤덮
오세득
쏠렸
학전
##교섭
##화상경
##스턴트
홍완선
노심초사
##점차
##意
한상진
이스라엘
이원술
##이재용
LPDDR
SSAT
공공
달랏
명찰
##개원
황산염
##잔트
김효준
불개미
##下山
##유지태
노루재
##아군
##무단
상피
##substring
부림
여지도
##〉,〈
##길가
HX
정경화
창립
송경섭
멘지스
면모
VRAR
##위약금
##보민
상체
도요타
핏케언
양심선언
##삼양
감독관
워리
디마지오
##데이
방해
their
온당
칸세코
서두수
##도시
##AIIB
산골
전갱이
한재석
시킬
여신전생
Were
들보
콘텍트
한큐
뇌터
라루
##상환금
##캐스
##>(
손호영
HBO
인산인해
류머티즘
어육
나경석
예학
이디
##㎍/㎥
자블라니
사실주의
FCA
김경모
NFV
##역업
아낌없이
심의
샤르마
Asset
##나희
슈바벤
##델마
주걸륜
직구
망설이
분
##87
임원진
깃털
##즈인
##무한리필
세이드
AW
휴렛
##스진
식대
건진
##예인
하프백
진양서류
##난치병
##정대업
핸드
ATSC
알렉산드로
캐스터
임용식
달라
##손나은
##니코틴
김길두
캘리스
##스즈
광진교
뮤어
##위해
##갈이
탭스콧
CFPB
생활력
짝짝
사상구
유고슬라비아
##전봉준
판돈
김태동
##대조영
문명
UAA
여행용
지트
일정액
##비게
가위개미
##채윤
대정
모비우스
대원미디어
##연구소
1972
설레
##정가
상파울루
라라
GBB
최동석
책장
박경훈
얽히고설킨
##컨텐츠
경희
경서
레드삭스
##바이탈
허비
스타하노프
평화
떠넘겼
WWD
COM
Hawking
##모어
iPhone
##Vs
##냅니다
##바르셀로나
건강체
##그리스
아미동
##배넌
단일팀
왈레
지켜
윤요섭
##펠르랭
낑낑
물증
Jung
썸데이
개원
바드
GET
##블린
##호깨
##관찰사
알바트로스
적잖이
environmental
##스콜
조기석
##권리
이구아나
ATL
##런닝맨
망치
index
##판매업
##메트리
고민
메이지
토산
통계청
걸음걸이
##念佛
구도
김수철
우현
런닝
종파
서로소
새아버지
지우네
최규백
토프
##연륙교
오름
김성근
아르메니아
##통인
올란
##최태준
거래제
행주산성
##히라
맥루언
translation
나눠
##반미
판례
LGD
엘렙슨
CVN
분화구
김영갑
체어맨
##문학관
##대환
우성
페레즈
사베
##분해
##호드
##IPO
##세력
기착지
저류
교협
툭툭
용대
railway
보은
##미용사
아웃랜드
##커드
##Drone
내일
매카시즘
은밀히
오귀스탱
흩날리
숙용
##아모레
##여행가
껍질
관립
시몬스
청량산
주디
무혐
##지축
노국공주
##상점가
양치류
난임
골든
##거우
##보건복지부
##지리
윤치오
에버
땅속
가스미
김진선
선호빈
끊어진
주훈
그림물감
광주광역시
가로챈
밑도
관혼상제
##폭도
소율
재판관
링거
플레이오네
장삼봉
사카린
##정선
##이단비
부추길
레나르트
박수
불멸
##김동영
아드리아누
새러
##상사례
##시네
##광부
퀘벡
감춰
백승화
추출물
강된장
전형
스톡
개원식
꺼지
문터
다릭
##됐으나
Atg
버퍼
매수인
달무티
크리스퍼
스가
성은
독해력
금관국
얹
부마자
##전략가
오커
김인원
##스켓
계왕
세군다
닭꼬치
카네기
시라즈
##팬클럽
gas
##평론
##헤이
##성훈
##after
##부처
남종현
유먼
암베르크
##산역
TLO
##artContent
##정유라
선우정
전당
##》("
concert
천룡
화촉
##르
##장학금
바코드
##위탁
리들리
뵤른
'(
배기
우표첩
국유재산
발명품
##내야수
제원
국시원
권현상
강단
율동
고정운
완
요청서
##담시
출고량
준위
함우
##했
시련
##라면서
##곡스
##이글스
선우일란
##노리오
방글라데시
##브뢸
##박현주
갖춰진
미방
##카툰
##지젤
살아왔
교육용
인공호흡기
실패
전도
백설기
남베트남
유지
429
운동
궁동
빠져나왔
##성군
Dubai
캐나다인
설탕개미
##동갈
##추부
포쿠스
무서워서
박옥수
##엔뷰
##산관
TAPI
##김동규
정혜경
대수학
건데
마마
TBWA
한상익
얼떨결
다람쥐
RAD
##이거
플라시도
##벌제
′
강인경
##보금자리
몰아가
FAIR
조토
##구
아이템베이
최배근
희준
개과
##공급량
치켜세우
##클라리
훈
##반딧불
요시노
##국자
반발
경력자
발표
홍영식
채진
된장
스히폴
이용주
이봉창
이종만
##»,
최고상
dizzy
하늘소
블루칩
##GWh
##편안
##금은
마그녹스
쿤츠
후두음
고양시
##워커
##가소
고슈
금감원
전탑
조휴
##비상
##보상
도게
##비후
스카풀라
##022
##㎞),
반천
선정
이홍규
프랜
로렘
span
담아냈
##가마
아멘
##수완
리푸춘
##적
웨이커
국책
우황
양쪽
코나미
홍영
박한용
##빅보이
도구함
맺
##아방가르드
거즈
수피아
낙사
가령
오토
생가
황중곤
##안동
254
##보비
##배실
케이맨
임태훈
가토
##군장
TOD
뇌손상
링가옌
Kekoa
설욕
##상속인
##맙
##난바
##한다거나
##자마자
친해
임세미
삐비
김시후
소음인
정여창
가계
##㎡/
재작년
강남훈
##소이현
한정선
철원군
서정
Cent
당중
루크레티우스
강습
강미주
박명호
자파르
김남형
지역
##난치성
면목동
브리지트
남정
희연
##중서부
270
정해란
프로레슬링
동북
올라갔
고가차
현수
고연
김혜림
CTS
##식장
아뇨
##맨
데니소바인
감식
##화
최은
가메오카
갯가재
매케인
경복궁
슬라이드
디렉터
##목숨
연약
신영수
퓨릭
##고분
김형렬
니만
목수
들불
오리올
초중
고용부
바이오산업
앨리스
티니안
##고어
비평
##삼관
지태환
핑크니
YoY
##미세스
TGIF
24
압착기
애서
외무부
보여
맞대응
CST
돌돌
##박홍근
UAW
범블비
##BQ
Night
고착화
광복절
박태영
임호준
조달청
##유진
말단
##진다는
발란
unemployment
서술어
승천
향후
##강은희
신탁
며칠
최세환
##智
오스나브뤼크
몰려오
홈에버
레이어드
횡포
하이니
오르한
##논두렁
잔뇨
넌
##엔지
IIHS
##개론
신율
아교
##균수
1931
노부스
##어초
##점유
라이나
살얼음판
레스큐
##루수
##기암
에이드리언
랄라
탁본
##역사
##좌익
신도림역
강진군
역률
진보주의
인맥
부쳐
호법
##덕분
정여립
##라로사
중이
저변
당선
##able
남겨진
##심당
upandup
##금고
파양
##로브
태선
김경순
보리밭
펠리스
원천
##정수기
--
한신
##동남
우림
##베레
##습원
HYWY
합사
딜레마
의무병
##세차
폐교
조팝나무
남궁원
김재엽
연상호
##알콜
기념식
##전례
LE
##시킨다
Taq
직무
##Up
박영운
##슈뢰더
커틀러
##맨몸
우루크
##보관장
판타스틱
안드레아
로랜드
##QLED
권의
##린이
##직비
콘차
꼬투리
아까시나무
##양수장
Inc
초임
##mask
##디니
올립니다
##석모
##리가
##천포
유인식
치료
##조합
##상사
벽계
영문학
##문헌
예불
세월
##추경
옥타브
만무
입법고시
ESCO
파운더
자화
알현
행락
##경인
##How
감쪽같이
##처녀
카라
##불교
마라도
물질
##누리꾼
##타미네
한소
구산동
최신형
##이재만
##편한
##공민지
라파스
바시
소세키
신뢰도
##국군
바쿠
테리코
학대
편이
장인
김병권
##세마
흥국
샌디에이고
이용부
잔존
Hotels
신세기통신
헥섬
조헌
##마일드
에이버리
즉위식
##암기
테브
바른틀
합죽선
성큼
김대범
##주거
사회
je
천왕
뻔하
킵초게
장임
젝
##활성제
##사몰
##당했
정답
##JIS
동평군
##리스
문맹자
궁성
지대
발심
서울우유
##분열증
리쌍
##스테파니아
ZR
##사저
오롯
수제
소변
##지모도
홀뮴
인격주의
카비테
밝혀야
낙지
##식생활
##신첩
공대
삼별초
흡입기
##이란
누나부트
류경호텔
##汝
##하이
SEK
피어슨
##베를린
축제
유인태
DJI
칠궁
##Apink
조성진
SFTS
교신
KEPCO
쉬즈모
##Web
단열재
##영조
한없이
견해
평정
휴지통
##국실
해수욕장
잇달
##’)▲
입법
이부진
주회
차액
조양기
##김도훈
##등촌동
별난
##즈그
결계
승가사
오펜
장맹
##교통사고
형강
##라우
장정연
동반
##백웅
##역적
식사
준비물
사태
알퐁소
복제
스트리트
정시
##래프팅
둔감
##윤리학
죄악시
건복
##자이크
코피
고미술품
이원섭
##호선
##로맨스
##굴밥
로맨티스트
해안군
마호가니
등극
김명훈
##세종
총떡
규칙서
슈타이너
창병
위선
##대구시
루테늄
##클로
##For
생화학
##་
성희성
반투스탄
남도
##EXID
v
아스파라거스
국무회의
딥
인티파다
흉측
제게
삼전
]
자폐아
반상
오셀로
번역본
김준일
##객사
정대화
##이식술
중앙아메리카
##유모토
##레노버
엇갈릴
울라
라이센스
가니에르
일전
마자
종진
휘인
##용감한
급성장
에우튀프론
매겼
엄호
람보
Always
과비
CAM
임진모
경목
than
신문고
체인점
##항암
##입북
##티그
박수홍
누가
송기윤
김시중
본스
##EBITDA
간달프
넥솔
식기세척기
능내역
수계
##　　□
이은상
니슬
ABS
##019
스프래틀리
공존
포도막염
CBA
##%%
종업
공정성
회개
달라진다
##스팡
페루
법당
수통
서지수
Jury
마이크로파
부영
##카나
에이오
리조트
남은주
독립신문
요시미
맥시스
##㎜·
##EXO
손양
##$
영산강
심양
살아난
##제련소
이둘희
도매가격
##배리어
무두질
##http
김상하
가이어
제티
##필명
늦출
animals
빨갱이
과정
일재
도교
##736
하만
물그릇
그레인키
##영태
류화
쏜살
옥졸
아틀라스
첫눈
##생수
흡사
유아인
선현
##보당
다슬기
조계
##마전
##점
빈야드
불가침
프리젠테이션
마틸다
가로네
김윤성
학규
검사원
바시나스
##이주성
##로아
판도라
방제
바꿔서
이동숙
미스김
됐으니
##확
노래방
속임수
천자
##車
화계사
종식
##IPS
##할매
후루마
##차구
이헌욱
##러스티드
1989
##지안
##안전성
흘려
프렌들리
수코타이
##휴양소
필기
##례
마량
김대진
최종규
인어
##소공
보어
에임스
두상
감사원
제고
2050
궁정동
몰아세웠
##했었
##회차
로브레도
신국
에스더
세외
##연구
경비병
EXP
게오르규
##승재
##항모
안드리치
##실련
전염
eMBMS
이태현
피쳐
##구제역
벙커버스터
원근
멍울
라미예
금설
노드스트롬
예심
사가미
##천석
SAD
캐럴라인
월드건설
별칭
##묵백
강만수
항소심
더블린
따라비오름
자르카위
교통난
##혜민
내겐
전통차
##동점
##구력
결승
놀리토
노이
레이아웃
휴지기
##클리스
##양아치
신동혁
포페스쿠
배운다
후춘화
##쿨름
KIS
파이넥스
케이틀린
치통
##POP
원초
인삼
##darr
당연히
건너갔
올리타
##깊
알아냈
언론사
답사단
팬케이크
혜거
##군부인
##대리석
블라시
예레미야
명승
쥬
김포시
대유행
##위인
동인
##땅
##부산시
##효율
플릿
방미
한문
오신
주성치
차벽
4400
황보경
파열
스트리밍
##곡선
토마토소스
##롯데
##다중
경지
BULTV
균형감
##236
자오웨이
IBM
##행동
드래
383
##발효유
##게이드
빛났
전진
판촉전
후기
니시아카시
##엄과
지하자원
변전
Win
##출산
채터
특별기
풍경화
##검사소
##방통
##명은
##슈퍼스타
이동상
여와
##부증
##파시즘
오석근
##임수정
서기호
멤피스
##소비량
레거시
러블리
파벨라
연안전투함
##고미
고생물학
MOC
##채용
한기총
##경찰
민찬기
신선철
플레브스
어머니
##접전
##포머
원심
롬복
지반
성령
계수
아이브
시구
육유
심우영
운하
호노리우스
로위
김찬호
##악취
구멍
장어
픽
컨버터블
신청
막내아들
공유가치창출
정겨운
흰머리
간곡
이아름
웨어
오배
제모
박건하
##次元
네일러
사가
파루
조준호
PPRF
애청자
은하계
##중력
Lions
##디포
Writer
##은희
분담
##충청
##준비금
##장장
##특기병
이용승
##맞이
##강경화
Markit
혐의자
##창조적
재출발
부제
에볼라
##FORTEC
##檢事
여름날
훈병
귀관
충전기
뉴요커
##클라
될
악령
##질리
464
##포기
합유
은행원
명실공히
##城
##사호
주류
미술가
손침
부미
하비에르
##阿
##종로구
삼겹살
##리청
##정책
1330
동위
##천막
이쿠히사
수비수
##삼존
간지럼
##점인
##NATO
좁히
홀로코스트
##첨가제
Netflix
송영길
RORWA
초파
##레스터
방식
##기간제
1921
DWN
##창투
리밍
시로이시
아스
때깔
##공원묘지
유랴쿠
##봐
발작
왓
높일
유영아
Java
버블티
##우지
##차
귀가
박정학
소윤
갑철
문현미
박서영
##용군
향리
청봉
계신
그라피티
빙과
사육
펄서
##건호
간암
김성주
OLC
낙뢰
이윤성
##뿐
축대
##오리진
##채린
무조건
##싼
브룩쉴즈
취할
피구
청자
고시원
당당히
모나드
투기자
에타
지주사
출고가
지운
김행균
곤포
하이드록시기
ROTC
##무신
##마투스
##징발
이동현
SDL
유창혁
치즈스틱
##수집
##여비
제석천
박봉주
RISC
##스스
Ole
##마틸다
율촌역
##위키드
측천무후
유재환
경비원
스트렐치
란스
레빈스키
##발광
##가점
꽃동네
문루
오명항
##시트로엥
##회사원
거버넌스
김철영
웜홀
강명
##면적
대경
##라기
##환산
공섭
낙향
유상
매병
압박감
세스코
대전교도소
##미타
##슈마
1875
##매수
##과기
박통
준급
초절임
백학
##터
송지호
보카
박유하
다듬
난감
비상벨
나시드
##68000
스멀더스
비비고
##Marry
천종호
##TokyoMX
리걸
박태환
##안봉근
532
ICBM
##향리
왕수인
김용택
요구서
저염식
##유보
어댑터
쏠린
오조
##스카
로이
##TEU
##누적
수심
1981
공덕역
##SAFE
CONCACAF
배터리
올라왔
추간
##UHD
ARSA
##위험인물
인디오
THC
##행운
증거력
루가
##유족
이폴리토
##OZ
북관대첩비
임피던스
장검
추나요법
##42
##지히
DO
힝기스
후이족
기록
베어
아라시
시라노
알란다
소로스
캡처
극단주의
##전다리
권중희
불감증
이코마
##적성
세작
##모반
프라이부르크
##겸의
광기
우뢰매
황정환
영철
구좌읍
소두증
최민석
안더스
격식
GH
트론
구르카
송원영
허이재
##피체
텍
##한때
소화전
##문주
배초향
his
록키
범타
##구족
개복
강주리
페스
748
KL
##제외
이정희
돌핀
드웨인
립
033
##군경
하향
##고루
장영주
시게모리
오열
중순
바부르
joshiryoku
네스카페
##공매도
손심심
##광명
##군정
콜론
컴포넌트
프리먼
코스닥
##정족수
마시아
##비포
이규선
연삭
루치
보표
인정받
477
정영석
환송
오승택
노은
##사용자
마도카
스트림
육개장
펼쳐졌
호시탐탐
ELD
하니아
##群
##天使
브로드밴드
늦추
펼쳤으며
##하천
위성호
##SW
##》(,
Architecture
김강선
##Together
##지심
명사
플루타르코스
장착
CE
메추리
leaf
플립플롭
Mountains
쿠싱
##번개
##김소연
구명조끼
시빌라
교촌
category
요구불
지자
##영일
누산
##이추
듀랜트
허쯔
홍릉
레바
무청
올인
칫솔질
타란티노
애보
##파오
입김
##낭
유실수
장광
##Soul
기관
스턴버그
노자
씌
액자
TEM
어업
차이점
출전
윤현숙
##봉수
하이파이브
연방군
MF
##공예
##빠르
신림동
미뤄
다쿠미
협동조합주의
신사업
##저작물
##문한
황동일
강신혁
WPA
판권
양쯔
##올스타
괴마
##CU
업고
##분묘
##공세
홍초
##단태
거짓
Wifes
성반
거명
##RAV
제작사
함은정
임용남
전각
1891
KAL
한지수
##전신
피마자
##크리스프
헤스
##연축
MBG
오랄
메말라
할부
고브
몽디
##MDB
복수
##나무
##월임
미결제
##그리
##노숭
환생
수용액
고깃집
드러냈
간선도로
Adipose
합작사
느끼
##本
##JB
해소
노키아
삼각선
##사업장
속담
##가리온
분당선
진하
##경
예술제
탈루
딱
고령
##귤
##시흥
유커
SAS
고
##생생
차경미
bj
야지드
이완용
방준혁
함경식
##구의
쿼터백
노부모
기당
로빙
아
근정
##척추
중진국
페리시치
리쭝런
##LGnbsp
임재욱
종각
##지느러미
사생활
정재은
베조스
이화학당
##MP
진천
##오뚜기
빅토리
장충기
최창원
소액결제
황지동
교학
시라카와
##유기농
일급비밀
괴리
##모건
필리프
인공강우
##가운데
##1975
어떠
조미선
##낭송
##태양
표현
날씨
마하티르
루이빌
##객실
##학창
거북선
디온
효녀
제술관
복고
나선다면
DOME
##欲界
Favorite
모듈
좌동
여성학
부의장
김민철
##액트
##OB
##표본
46
정한다
center
##이성
152
히튼
##산악회
음란
기다린
블랭크페인
##캔버스
곁들인
rainbow
유키
무주택자
우혁
##루슨
불의
##투표율
##а
호선
##★★)
GRUB
가미무라
경제학
BK
##》·《
최성은
우지혜
##호단
삼성그룹
면
찌아
##시행령
나성동
복합체
사립대
이종혁
##리방
물신
야마나카
NR
xml
##%),▲
새미
UHD
고종수
먹자골목
##슈펠트
신세계그룹
fishing
##된다면서
동아시아
킬로급
서프보드
##피스
##신양
##실미
마몬
박정원
##프론
##난교
유니셈
받아들여야
##가요제
##왕도
가젤
줄자
친선대사
##「
성유
고백
곽민정
이현성
##노런
##원더랜드
그르노블
이화수
승격
폐전
십자가
농서
##시정지
순샘
크라프트
유계
##합격
윤창
압
효능
##피닉스
배
적금
레가타
##방출
Tizen
##일곱
##가난
곡교천
다저
문학
##880
##라시스
##자세히
진지전
우한
최진동
구룡사
##정당
발현
로베르타
쌍문동
마리사
##서장
비평준화
무풍
윤상원
영북면
생테티엔
이태진
+
노랑
마술피리
##모당
시날로아
이진애
##개요
그렌펠
니퍼트
##운반
김택진
백수연
신플라톤주의
##지파
비둘기파
이학재
USL
캐쉬
LAME
우등생
수당
진단서
##㎍/
##정준영
##텐션
김승환
찌른
취업률
##仇
##생사
프랭클린
이자겸
김정원
원색
미스터피자
##용순
이든
plants
##녹권
정준하
협조자
리버모륨
흠
##식품
고람
매킨토시
귀족
##버디스
달호
강봉규
##주한규
인플레이션
붉바리
##속재
셈법
##분국
파리아스
실비아
신성일
적우
버킹엄
오정연
무희
GF
룩셈부르크
수여식
소루쟁이
매직홀
신속도
모란꽃
발렌슈타인
순대
품삯
완강
후포리
빈방
크롤
미뇽
##어채
경재
노박
print
940
함백산
시력
##과일
##카운트다운
장진희
우당
오타
##여관
이왕직
간섭무늬
연주자
Chapter
랑데부
초프라
트라키아
##순이익
급파
베이비복스
##웅산
##힐러리
임재섭
##텔링
##조달청
이조원
##NE
DSCB
돼지
양민
아구스
##사외
데번셔
앞질렀
남일
##삭
##&-
호명산
인공어
발렌스
선거인명부
##부암동
인마
야프
##드미트리
서프랑크
작도
모지
##울혈
토공
화평
트리젠
이주승
##유부
애틀랜타
대명건설
##蜀
336
아랫마을
video
만납시다
##코미코
로앤
급격
초라
##석유공사
##에르
천차만별
권위
본킴
황도대
##산현
오윤섭
##파손
돌변
CICA
네이션스컵
##혈당
##즈크
크레머
천안문
방애
원잠
리도카인
특권
탱자
익주
Lama
phone
대공비
고트프리트
##인데도
조부
정제기
전광
##노력
명동
##蘇
골지
방령
진철
커민스
Zhuk
KTG
##μ
아문
근본주의
서효림
##냈
##리벤지
굶
-"
##인스트
비고
보풀
만조
##순찰차
다비즈
세르베투스
##황규
최일구
허창수
조제분유
췬완
총기류
성탄
##세계상
고마쓰
##관람객
1849
##회원
김종필
##메리어
##346
눈키
##가론
전필순
김수근
임칙서
##기택
류청
RBD
불당
브래드스트리트
켈트
다랑논
##지스타
포터블
승압
귀목
##튼
옐로
국민연금
속아
공수아
김동규
사명감
##지영
능허대
##뱅커
쌀빵
마성
넘어가
유퉁
숭실대
##로하우스
##iframe
##고영주
허우
이현경
돈벌이
늘어진
심려
##물랭
필하모니
##구엔
유괴
EBCDIC
##이바돔
FRJ
밀어붙였
hwihols
##성장산업
바티스투타
##욜로
직역
시리얼
가이아
드골
##オスカル
820
화산섬
고려공산당
최준용
플레하노프
용융염로
포증
정승수
##이승만
##엔시스
필라투스
낭푼
매니악
##계리
알레시아
##판타스틱
놀림
오카방고
침통
##블레스
타파스
성완종
지암비
혼마루
우산국
##¶€
##譜
아이디얼
비구
##아트
##쟉
뮤의
##농악
섬마을
전차남
오브레곤
모창
시켜
StubHub
핑커
가그린
##6900
대응조치
iwrite
##UN
마을버스
##8400
르네상스
현업
미란다커
출자금
금자
##반
##단양
송하경
둔산
시크
눈총
##대교구
유리병
천문학
선착장
PGA
힘썼
에길
들고양이
굳혔
파라스
##마사
프로스타글란딘
이희솔
한솔교육
##정표
전환점
##魯
미경
김준곤
교부세
##처짐
##유산
김우중
그래서인지
ATK
귓가
정춘숙
##렉스
##반장
품평회
##피해자
##락지
미니
이세희
평신
##사회부
호박꽃
이건민
##도니
력
이서구
일종
1811
윈슬렛
##역모
##아말리아
증명
바오로
##블랙커피
출구
##단말
소극장
네스
##후기
강진이
되새겼
##백혈병
외대수
##김대인
충파
##아르
최승혁
##치료비
파리넬리
누란
Er
##터진
곽희주
윤병춘
안내견
불도저
명문
우주여행
##진다면
##객차
러브크래프트
이지은
뚝심
##육수
##동양일보
금박
김광림
잉글우드
차벨라스
하스켈
##문병호
##박성웅
##록스
튼튼
죄네
핵우산
계촌
##준
바크르
니켈로디언
##콘도
변이
에니
##Only
김성윤
##자백
##0940
##멜츠
의정서
입담
##마차
김종직
##두레
##양경
진승
버릇
혈압계
오메
합리
불태우
##∼’
REALLY
##형질
포탄
##편지
박정식
황홀
빈치
두드러졌
조우진
엠피
하빕
리커
##*************************
예치
PDVSA
##바카
섀시
오존
나성범
##용신제
구노
관봉
혹평
이엘
##뭉치
세스
로페즈
텍스
##대처
##콘티넨털
로마린다
피넛
삭방
콕슨
니클
방촌
지갑
쿨라
성화
박남규
베르그
##이상
덴무
요시다
##정보망
올빼미
##종말
##정각
포털
순둥이
각색
전철역
축융
윌밍턴
##개협
타흐리르
입술
호사비오리
반스
렛츠락
iPerformance
한은숙
주마등
##폴드
김승원
센고쿠
106
##체제
continue
박훈정
김희영
이달초
게살
|
티칭
노회
증인석
철릭
자코비
##바흐
##청신
김재명
로젠
##느낌
재투표
미즈노
##화물차
총각네
##비정규직
역참
ix
신갈
윤완주
교하
##>.
신기수
홍지
이지
사벨라
절음
홍은희
우젠
##우라늄
굳히
임헌일
관중
##병진
고무우카
에스미
##570
##시선
##수괴
태민
임동
야시
세민
정정아
때려잡
남유진
박영호
당주
허웅
##북동
심정지
GD
두꺼운
얘기
##분극
##운고
##투모
##재정법
왕밤
정규장
##~)
뒤틀린
카트리지
##친화도
데이비
중성화
산토스
마사나가
전정희
산사태
바스프
화마
##점프대
맞받
알킬
##박영선
##걸이
ASML
임지
잦
##기기
전표
남부여
##육합
국학
만들어진
어간
뽀얀
##½”
본따서
원한다면
송성영
옐라
매장인
지상파
히로미
엘레우시스
락앤락
IFCI
##▲ⓒ
##라텍스
쑤
수면제
염정아
혈장
##뉘
##순양
녹아웃
적산
셰리던
선바위
손교
660
행마
홈플러스
컨벤션
종류
PTC
손명호
##명월
학업
오티즈
##무동
##유치원
객장
알고리즘
두툽상어
지덕사
주간
##가천
하이킹
특수작전군
나겔
불광천
덖음
진입
방수포
스래시
근로복지공단
Play
##身
##케이트
##렛
아이코닉
승부
벤구리온
석세
한지에
문막
##맹물
##ec
##서로
러그
##하하
농수산업
노먼
엉망
ALBUM
무류
명만
리총웨이
##집들이
##비탕
신천
의령군
쇼펜하우어
##寧
장영철
김윤환
FESTIVAL
시먼즈
아라스
원태우
##돈대
마지스카
둥베이
##"<
##증폭기
##역인
실심
밀폐
허양임
이데올로기
천억
혼종
북관왕묘
##조끼
보리달마
##9000
분담금
쓰촨
위식
##된
겸영
희망제작소
IPC
옥진
##메이드
이택근
관우
경찰서
김상미
게베
가야산
위크스
이준협
피알
을사조약
공직자
원추각막
##UX
가면
왕첸
숭실
일산
필리포비치
냉동식품
오우치
##가이드
언더테이커
##채비
봄처녀
불면증
사기꾼
푸저우
진작
##벤트
##지론
데커
##급
##달라이
##복무
##성수동
김연경
선금
##행주
씬
가마니
로티플스카이
##Free
노역
헤파이스토스
House
클린턴재단
선수협
##카게
##DVD
##버려
스피리도노프
##슈테겐
비인
##엔시
##스카이
##머튼
노플러
##서산
만신
커런
총장
간이역
##原
가림
##춘천
돌이켜
조광화
귀때기
high
프랫
로베르
스트로
하싼
##휴게소
##삼각점
랴
##부패
##1110
348
순간
스콜
무용지물
마션
직간접
##郡
퓨
##도카이
##천안
이블
6
##"|
백옥
##여리
##야프
사투리
Acegi
성결
상업시설
##있는
JD
그렇지만
MY
##장자연
인신매매
부총장
GRU
##휴스턴
총력전
##경선
##尙
치앙
현충일
점성술
건너와
파미
신중훈
남평
##브레스
##course
아산
##관부
원길
##스프
튜링
##라선
##사니
##윤철한
##유세단
##통살
##위즈덤
오세훈
##거북
젊
##큰
조폐국
칠전팔기
사슴
홍정호
스위칭
##綾
역무원
관한
치둥
플로이드
마통
마광
##비스킷
MULTI
확답
페드르
봉원
##Lucky
달동네
노래
##성자
프로스트
##약주
##베이스볼
##미시
멜리사
마다가스카
BC
출연금
가쿠고로
Supreme
와타베
폐해
봉정
멤버십
##실업자
레이예스
##여연
하양
소재현
진석
유리상자
강인원
두루치기
탄현
##합금
밑바닥
하이드로
밀접
장방형
은미
묻혀
##태세
야민
김기수
핀셋
엔티스
##알스
대한상의
등도
확장세
월면차
올레길
스틴
##〉(
맨입
헌
강력히
사마귀
##멜리사
교만
##oR
슈프림
탄성
##바니
고다미
두산건설
박선우
다이안
렛
##고점
낙후
GL
##유암
##신중절
신비
질주
신규수
정금
리처드
조형물
시공간
강홍식
HJR
건함
보즐
##남국
##부로
테라오
##초기
양택식
##도르
동성동본
강미자
정해졌
제이민
통도사
곤칼베스
탯줄
알크메네
쩍
##입마
라미드
특조
##딸
##더라면
BTC
성북동
280
박명석
티부
##영화제
##이명박
쏠릴
coffee
홍경민
스크램블
Segway
입어
##쇼와
##동맹회
허세홍
포토
##▲"
장학우
비브
방만
페트병
부디
##칸막이
##변인
이강철
농민공
##에스트
아이젠하워
농암
대립
##젊
##표주
##오버액션
##楼
종로타워
뻔했
엘우드
전처
##越
김희경
##지퍼
코유키
전매
곽태영
##이외수
신응희
이스미언
만금
롬바르디아
수성동
오피스
입체
이임학
##병신
임종인
##妙
가고시마
박리혜
징고
##몰이
##쇼토쿠
##아틀레
맞섰
호니
토압
클린스만
하타르
##갤럽
##롭
수영구
##ACU
##얼러
정보경
카티족
##창출
웰비
##Mnet
이재영
가파
##226
##쓱
증오
사키
##Boo
파워콤
##부아
가을꽃
대란
##매월
언니
##煥
##다당류
출입문
허리케인
이광수
##국방
가디언
포워드
##변희재
보유자
김도현
공동
##어쩌
이호섭
하카니
총지출
라울리
##기영
파이프라인
##그러나
모레스네
김립
##문연
wxWidgets
제작소
해석학
##시스템
지속력
놓쳐
DAP
걸작
##코일
아나클레토
잦아들
나와도
##말기
샤리에르
영산재
신비주의
##강한
맥베스
##왓슨
GALA
JW
남한
나온다면
지설
습담
라윤경
수리동
조말생
##섐보는
##소설가
청구영언
제너스
##우미
김재신
##스파이
허페이
##멸균
##드로잉
1010130000
##페스타
박영대
##니까
막부
낌새
##비의
이재호
걷혔
##夫人
불닭
케일리
##하이웨이
##아예
접합면
##◇
공립
이제야
##책임
캐시디
하이허
미미
핍니다
##따뜻
##산정
줄였
화약
목탁수구리
줄일
메타
월경
##안무
실크
1938
##예은
개경
오카나간
economy
ext
흑역사
카시오페아
반론
1848
넴
##전문지
##경인고속도로
동굴
에이드
소우사
와이즈만
신둔면
레빈
광촉매
##대법원
삼손
##건디
돕
##주증
황옥
리온
금기시
해양판
블링크
병행
PKX
KOVO
원작자
고매동
##말의
대중운동연합
wage
판다로스
관방
##외야
순서
김광호
마쓰시타
통일벼
##원본
인공림
##사란
교평
##담도
##경부고속도로
광해군
정휘
도카이도
구족계
혼모
야인
피레아스
박테리아
비번
##낑
다반사
불자
##모진
펑리위안
김형중
##마트
장신영
온갖
상속세
델레
##홍
아니야
브로콜리너마저
##토리코
Jini
LAH
##씨앗
폴릭세네
##정원
쥐노래미
용법
##또
거스름돈
마립간
김광삼
GMF
##주총
##WEB
##유치
미용
기념관
인어공주
송훈
아데
조정안
다다오키
페알락
곤드레
심리전
리커창
##로열티
야스쿠니신사
혜민스님
아랫집
방적기
##108
##후의
리복
homeless
thunder
##프로덕션
김태성
##줍니다
##캥거루
새겨져
텐데
##시찬
##결핍
바쳐야
공용화기
이영호
흡혈박쥐
Gold
EXPTIME
##소방대원
##불스원
깡깡이
첨예
##신상
##진동
주식회사
최유진
반대급부
##봤
시나
##대책위
der
##몰이꾼
기번스
##매달
##실업
후쿠오카
갑의
##파베
##사업단
##부통령
고증
중이염
원제
허철
트로스트
##정에
발끈
낙산사
데칸
스키터
마그
냐
##현기
입각
##녹색당
김민서
##소양증
##목도리
##혁
##상무사
##오젠
강민구
치웠
상한선
##이불
홍콩식
에브라히미
산물
##실드
매스틱
하울
##반환
서완석
원불교
##국문학
금비
이상헌
손택
유제품
헤롯
##114
433
##설로
보헤미안
제조자
백용환
맥브라이드
나윤권
##협조
오사마
Pen
이승휴
서숙향
모트
아르마니
##늪
박세당
우청
순발력
서전트
라슈트
##수색역
주크박스
시약
이방간
티몬
북극
김낙현
정승민
ISNI
##OGK
아다다
부활절
##수록
##변조
수니가
삼송역
레드몬드
SKIP
루리
뒷다리
##피디
국악인
권철현
담북장
금성사
광천수
고졸기
담근
등정
##보프
김민종
스타디움
##BSC
소아의
후쿠
광개토대왕
프란체스카
험비
##복분자주
실루엣
퀘스트
반짝이
세운상가
##Myc
민첩
##행해
안생
리샤
민병훈
중영산
##스케이팅
Lucero
##숙연
##카봇
미니멀리즘
아폴론
JIJF
BASE
에스터
류블랴나
이형범
저항성
##몬테
나스
##고궁
농구대잔치
친어머니
마이스너
필로
CSR
##윤석열
보컬로이드
육손
극상
##일가
고용원
##본청
##주선인
육상자위대
##중앙일보
뇌격기
##조열
GWDC
성신제
쓰레기장
임창순
임기병
김경철
　“
주예은
##채의
특급
##개단
디아고스티노
##성민
김정행
허드렛일
##윤락
붐비
심청전
##빨래방
피혁
조이진
민간단체
하이데거
##active
정승호
간과
##운위
##베틀산
##박세리
에닝요
##기금
마태오
원
오준성
##도행
##이증
##얼간
신용한
전자기력
연무대
##감시
스페이시
##화장품
김인혜
구독료
##庵
렉터
dams
베른
양곡
##me
##암정
##246
##1948
##관찰
개정판
선회
조우석
##읽
대방건설
정구헌
##재판관
##2014
도우미
정칙
애드
화엄
알티
포케
앙골라
김지철
##케토글루타르산
##****),
범해
##임헌일
##1953
##유황
글루코사민
그린푸드존
수취
캐린
레이크
교단
축차
링크
서비
성석제
##거주
##修
##tpl
펠
SONG
기념사진
##광주
##포코
##분사기
미초
리보
경제자유구역
별
Tom
intelligence
반군
##각종
BIAF
지룡
센리
완델
후대
투옥
포너
##우당
##저그
모린
뛰어가
업의
바랐
딕
다운스
나라장터
##사탕
삼성메디슨
당새
##도시락
바비
##교부금
PER
아인슈타인
텔레마케팅
김형목
독차지
백유
##주민회
나빴
HGC
Ⅰ
공동생활
ㅣ
##포도당
##310
##정현
선주
##성벽
서지원
강민규
##만유
##다네요
재판장
##볼까
전대사
로보카
##출산율
Tissue
##SP
##진행자
당병
건더기
노나라
치의
심창민
##카르포
강봉
뇌사자
펜츠
뒤바뀌
YT
콜라겐
의정비
미끄러지
##다이아몬드
##민족
##엘르
##긋
황산화물
##접근성
플레이도
CNS
교활
JX
돋보인다
##사다리
##기경
우편함
퍼지
혼계영
##주부
##안단테
가벨
##고법
전인철
##강혁민
##예절
교환기
##속곡
##현희
추진제
그날
안민석
친위
##복자
##페랑
얼간이
경남
잇꽃
팬텀
##빛나
선호
탈진
##송정역
1250
##투기지역
##모토
##간섭
룰
##배당
홍나영
호랑이
얽히
절약
울산급
에즈라
##남문
##Ft
모란역
##크롬비
수피즘
##에쿠
##스러우
아오바
홀릭
명치
대공국
로크리
##새재
엠아이
보물섬
토란
롤프
##하슬러
##베이징
드락슬러
##UFG
둘러싸
아말피
##절벽
부속가
상주시
환웅
박희영
지층
##이연희
이주행
설인귀
불러일으켰
##도전
키세스
산토리니
##너겟
상속자
남치
XLE
김대명
처져
##□㈜
전겸익
##카발
식도암
##晋
김발
서경덕
populi
##eq
이종운
하숙
이화경
##웃
시퀀스
후쿠모토
함께
이정길
##예찰
AUMF
VMD
나팔
CBT
면목
트론헤임
이삭
절전기
디비전
부산시
카나
BWF
##WRC
체이스
선율
감소세
세운다
##혈맹
민코프스키
산야
케샤
편법
고인범
이긴
조용호
##반전
cordless
도나우강
실위
호르미즈드
대디
##col
육지
##생년
##%∼
호외
##작열
##드린
라무
##울버린
불심
NRW
##저희
##지하수
갈렸
bang
celebrate
버킨
하피즈
시간탐험대
지나칠
##브이
유언비어
헤나
##도토리
보인자
피카소
유쾌
고엽
한민
문
임보라
##암벽
김종천
도해
박주형
Z
##김윤성
골종양
##류지
고마다
영남
트리프
에드가
티티
리구오리
문흠
금주
Fund
1876
천재
윤설
귀성객
파레스
홍봉한
이영현
소포트
황적준
비싸
건어물
어울리
다케다
한묵
##고민철
옥외
사바티노
충북
덜
중랑구
##국행
곰돌이
에다
효행
##부치
칠게
부친상
비무장
##스타트
꾸민
office
포티스헤드
저고리
조르지아
불시
니루
##루비
슈뢰더
불가사의
묀헨글라트바흐
프루시안테
##관여
밀레시
토야
결선
##공의회
##민보
코친차이나
날
◇'
Cocos
최북단
중사
##에스티
교수회
바이런
##옴므
##운동원
쉰
원삼국
##벨레스
아스톤
일주일
##불타오르
고지도
##다이크
강윤성
김태민
진카
##프레시
자싱
관수로
단잠
황민우
##진환
바닐라콩
절리
##이승기
all
미드
조복
조작
궁합
백단
##두훈
김익중
Now
##바오
SBJ
팔목
홍학
윤종규
홍순철
##410
무증상
##양천
박성일
초어
##001
구심력
##2032
에어포트
##익스트림
##대운하
콩팥병
##토빌
이순진
통역
로스쿨
박명환
##ℓ(
##욕
매든
아렌트
HIMUN
스트린드베리
오주은
National
과잉
##템
즐겨찾기
키팅
김용상
##환세
스토커
##인가요
퍼트레이어스
CID
##모미
이현도
군악대
토담집
급조
##物
명필름
납득
가드
허용준
##오후
슈트
보호주의
강대희
조코
보딩
호메이니
고은성
할양
숭신
젖병
##122
아시나
캐릭터
##타임
Index
요아힘
카누스티
##랄랄라
##나방
##려니
아퀴
##택스
반입자
AWE
시류
성영준
하디
통유리
##羅
투우
##마오
##家
양대
폐과
바이알
퍼센트
장항
도토리묵
박승춘
##　|　
제단자리
철륵
##비처
핀처
TS
##타령
이력서
##슨
##전기금
반고
##쿠루
##고양
##모아나
##DMC
중도파
건전지
헤링본
##김호기
조동화
의령옹주
##글자
##진교
문지
고분자
##당진
징병검사
김정현
디스코
##저혈압
프럭토스
하루
김동철
이돈구
숙연
구실
확약
##LTV
최영태
에슈콜
##고민
##디의
디스커버리
##산분
트윗
삐라
MPEG
나라꽃
##풋살
##렀다
타이거
##多
##times
변응정
##영등포
비계
사악
이성질체
부쩍
주체
##저출산
army
##도리안
배당
대원사
암재
알레르겐
석벽
김윤희
##쿠노
진드기
DID
김유나
각목
공모
인기상
WM
##지니
##임영민
철든
모디아노
박찬도
##벽수
##마일리지
단언
허스키
뒤쫓
녘
318
유태인
##도시바
턴불
##mAh
##시내버스
김재정
후천
자칫
AHC
범일
wwe
동양제과
##예언
도루묵
##왁스
출생증명서
잡아먹
산드로
해성
##쿠부
김희애
##면역
김효원
노도철
##훤
주력
와프
구조주의
베루스
주트
롭스
교보문고
애쉬비
오버랩
##생김
##잠깐
##향수
신조어
##GSEEK
트리키
##해관
정선아리랑
화포
백지웅
487
결원
빚어진
이상욱
김숙희
##돔구장
정경미
책동
##윤리
공장법
광학계
남화
인프라
인력거
맞출
기무라
훤
recovery
우민
59
클레르
박결
답변서
바탕체
블레이즈
DNA
대항력
##대향연
##호출
Ye
엘런
##동창회
메트포민
CCCC
##콘스
판서
양준
감상
심야버스
카자크
겨레
박은지
##중음
민병환
중층
서성건
##가래
##자궁
said
##백악관
멘데스
##군복
강서구
기아
권기보
양측
Sense
##배낭
라영
한승수
Part
민담
우장춘
말살
벌였
심리학
##쇼타임
찾아올
##㏄
##USB
가시리
베르트랑
취약
##콘퍼런스
티웨이항공
##야즈
호재
압데슬람
지칭
비스마르크
##SR
종리
초유
입찰자
고민거리
뮤지션
라니아
박태민
봉상왕
##%,◆
슬로바키아어
통
다란
##연고지
슌
즐긴
비델라
지지대
##덴코
##타선
태광그룹
##스타트렉
강동우
시몬센
##十地
##鞠
치명
고든
통일호
박동
##히스티딘
실록
신민
강달
흥천면
##전막
QB
비아스
##퓰리스
##브레인
굴삭기
소송비용
벤큐
불태웠
##참전
총검술
꼽힌다
선택지
트럼펫
XM
HUV
훼미리마트
##비아
비니
##환사
##도와
김성일
##표의
빗돌
BHC
##던데요
##배너
도박장
도로로
취해
세속
이호
푸라나
##로지
보산
##캠
상경
##칠판
홍채
사망자
##경채
철퇴
임종수
##임신
미래상
김원
##인부
김진숙
##정견
패러
정준
이재한
TWA
아스트리드
##일구
한약재
##병실
베단타
군량
연령
추판
현재윤
관성계
처자
배틀로얄
타비
배츠
##이유미
##두유
##멤버십
조성민
하대성
감형
##대대
견줘
hurrah
불러왔
튀르고
양시칠리아
댄스
킬로미터
개태
홍다
희공
##장치
당뇨병성
거짓말
위패
##인조
피난소
노홍철
정설
사들여
크라운
상륙군
측정의
훌라후프
플린트
##연주
중립성
보물찾기
임의동행
시카
##키카
난터우
용사
Lakī
겹벚꽃
총판
사무처
##궁도
##유통
제복
식사비
황남빵
1140
키바
열정
윤보라
되돌려
장욱진
##이아
##RNA
##복거
##수렴
이건식
베니테스
슬랑오르
##밖에
임태순
KDS
보여서
##체감
엔론
##고송
김호남
문광은
항행
##건과
##막골
##재훈
wages
줄리어스
##미디
PI
임조
봄날
이소희
배틀러
##놀튼
Chubb
window
구대
##전문대
난징
십계명
##님
CHG
플라잉
몬터레이
좁혀
##찬스
##애양
Would
##RP
##굴목
징병
레콘
##완성
본프레레
파스토레
동아프리카
##내장
줄리우
PoC
서피
원종하
연주시
##사크
어쩌
부모
라르센
완곡어법
Deeplearning
주민진
환매
##광기
웨이드
##신경통
누설
슈퍼스타
1917
드라고비치
항공우주국
마르티나
일렉트릭
##보안관
정유라
따위
파슬리
##월송
##오무타
해지율
##비정
마스미
북극곰
##m
##이명수
MMO
연합군
정우성
이소연
줄곧
나바스
##CSR
지킴이
##三昧
##})
흥국생명
운문사
##앙드레
삼방
MLC
낙방
이에로
김기욱
벌초
호시절
##역원
##一
모레이라
헐크
만드
암막
도키마사
특임
오버
좁혀졌
당첨
장물
전가산기
오랑우탄
살코기
오비폴드
카포티
##탄회
박준원
들이밀
스모킹
##수신
##장직
##李
황옌
주파
놨다
마라위
##NET
자개
고별
##고두심
잘랐
##오랍
생착률
##split
휴게
윤종원
##으
맛있
전력화
가매장
기탁
학계
매클라우드
other
##린턴
서군
모녀
시동생
Motors
##생산자
심증
김종훈
찬
시전
편집장
변신
윤군
##여제
나이절
##BB
테론
녹번역
푸자드
##란전
외장형
##쁘띠
박영숙
##베트남
##㎉,
##세교역
자네
SAF
##기업체
##타투
##땅다람쥐
false
횔더
##예산제
집합
##승운
대법원
##점장
근저
##게르만
그랜버드
호박
핵의학
알파
유익
모용영
##apos
동호
##커민
##해영
##외고
더넘이
할마헤라
##태아
편집인
애체
##언더
허드
##artclid
오럴
##수북
신계용
써드
금제품
##엇
향주
박병래
마네
고흥
HB
알메이다
##충렬왕
퍼시픽
##숍
DMD
##박계
##독립운동가
대칭
Hot
##H
엇갈려
무암바
맷
fiscal
##서점
금선
기교
블리자드
약체
박재형
##edu
오쿠보
상선
##클래스
##주력
##캡처
SAMA
클리닉
##획지
채
##내의
Mr
미시감
##옥새
정윤희
##생회
##TP
탈당
PCM
바롱
삼현
##쌩
와전류
NIW
엘러리
이초희
비독
모텐슨
안성희
젓
##NAND
보르가르
보이트
메이디
지존파
왕계
강태욱
양건
니콜라이
위석
노타이
합격선
##호구
속지
창원시
##믹스
메디컬
##유후
피오피
김태효
설의
강남이
성장산업
중성자로
##TG
숙자
##중재
##소방원
거문고
베레모
추정
신석정
조승
페르미온
포르투갈어
오카미
보란
테이텀
누리
브라우니
##검색
##나스
장철웅
##목상
탁주
프리큐어
떨쳤
낙화
포탑
엔리코
심종섭
초한
##국교
홈서비스
증설
##주상
##동원령
송탄
왕손
##습관
##인골
##이엘라
##마르
##체고
노찬
##♥
가나안
왕녀
파브레
오자서
미니스커트
##㈜(
정부
##아이브
##더우먼
##약선
조선혁명
HNC
##대표인
뭉친
##소증
겨울
송연
##포시
select
계장
본떠
하브
##契
##디펜
##명함
이정호
##파우스트
##FB
##려는데
만찬
결혼기념일
##勃
뒤틀림
기대치
CNK
TL
##최원식
##성모병원
##거안
##성표
만점
##하자드
깅리치
하이페츠
##피케
530
##정비사
류현
남편
LBO
KOSEF
건봉사
선두리
최보성
크리시나
최태원
매그너슨
##본부
경선의
##폐쇄증
##서양
##데칼코마니
웰벡
##민국
##크루트
##운임
초속
퓨마
##산삼
NCS
주한규
고시
찐
박경림
들러리
리커트
인신
샥티
김일융
이리저리
몬카다
##항아리
최백호
원용
##어머니
BIFF
대답
부본
쟁반
메울
수륙
컬버린
##아자
처녀자리
뉴헤이븐
##건대
때렸
온정리
약
##치만
당쟁
##나와라
##나갈지
유파
위조
##族
내장형
식물학
코셋
Know
백승주
싸인
수월관음도
##민속
샤프
기회인
##폭력범
풍홍
##수조
##AA
부화장
미와
조지현
LTV
##페이스
단국
나침반
features
늘어난
박예슬
브리티시컬럼비아
공구
##급결제
가
##암사
중립지대
##이병헌
##미술상
코덱스
WSBC
깼
식욕
호적
마쉬
RTD
사이
황금시간대
드빌
모교
박세정
과대평가
규율
고추씨
##제학
홈인
타바레스
갯바위
##여래
삼각산
조니뎁
브레그먼
시집
이민
무녕
이정인
문창극
##루팅
돌렸
##求
냅
고교쿠
wOBA
이경심
기변
무투표
대관령
내려
파력
미스
삼성생명공익재단
##재역
RSM
contents
##모라
백태웅
방문
##총조사
강남길
SEPC
토지개혁
정조준
백승호
엘링
무역의존도
난동
이준익
마리아
로마노
##장단콩
제일
중심
진공청소기
폴라
품앗이
##청과
마레즈
##감옥
##Net
LCS
전기차
베이즈
##흥청
일루리사트
상고
생계
##&;
참수리
자산가
다이키
경진
##씽크
버림
여행비둘기
아로요
##실례
##세르게이
##재일
김호성
대각선
ROM
이세이
불임수술
팥죽
##잉여금
우롱
도출
기시
##에브리
##휴먼다큐
벽산
##辣
최동
원균
김진형
테세우스
##헤이케
리아네
햅틱
핍스
이상철
##켓
##和合
리야
HUS
중추
어버이
부텔라
메이웨더
월송
##유학
도지사
##문은
통진
온상
스크랩북
윤용준
벤틀리
##각인
더욱이
매설
탄원서
과학로켓
##영봉
페소아
코란
위룽쉐
##오디오
타르타르
그레이브즈
수도고속도로
번개탄
심환지
스터릿지
VTOL
웨스트브룩
##비둘기
##주갑
석가모니
고레티
IDT
기왕증
##QS
양감
다이얼
경사도
브레인
##dl
쌍떡잎식물
광역
이홍렬
##신비
전민우
##마징가
설
마르퀴스
탁재
정호정
무샤라프
##중개
##시티몰
메소
바샤크
풍경사진
대종상
미시령
강홍석
미카엘
방류
##SG
김호연
허버드
마진
디키
건국대
점자
##THE
##지네트
수목장
훈장
ℓ
##신용카드
##카스테라
고카
만질
##유니콤
사회봉사
##SAM
푸카
##%)　
##他化
##마윈
##￢.
##융의
##보라인
예금주
고판
##몬지
밭작물
구석구석
##ojsfile
##돌리
비익
압연
랜섬
##KNOCK
##수상
잔인
##녹차
##취감
기백산
긴즈버그
난투극
복근
##류머티즘
조상
##음대
올
시저스
요흥
세바
조대엽
의부증
종친부
여력
김종욱
114
##웰
센다이
신지호
##영입
NICE
우르
차성수
LEI
##버네
ABAP
댕
오세종
걸세
인아
레지던트
##잠정
콜린
SEI
부교
적소
난조
콘딧
사막여우
투반
아임
로스데일
실종
배전
박재정
##얼마
항동
제갈근
킴리
치르치르
왔어요
##철음식
산다는
##Pro
다가갈
MBTI
예규
달빛
##BTS
까스
황건적
##대마초
직감
불패
서신
성주읍
카일라스산
히데야스
고공
##국동
바나나킥
##禎
강습상륙함
##미워도
Facebook
보디라인
##영제
프론티어
페기
##요는
##흥
마등령
나기사
가입
##중학교
##거든요
##직영
더글라스
신시아
선진국
이영보
Xsan
##가닥
조주형
##서현진
랭스
##appendChild
포백
##Lifted
##박하선
##배고파
##비행사
##좌장
##신생
패러다임
합의체
서이
접두어
오르티즈
재실
##설재
##윤하
면진
가리기누
임재신
최형우
배병수
이충주
아라곤
비선
황선희
##조약
단풍
도서관
##도도
신사군
##포화
문성근
워즈워스
##⑨
반듯
##가드
설빈
##숙녀
기밀문서
카이머
던졌
난충
새문안
재경
##證券
진술
이수성
##깡통
뮬
걸어왔
굴러온
의열단
소연명
겸직
자치사무
조현문
남순
##제도
종친
훈데르트바서
##정적
적조
출원인
##儀
##물감
aŋ
##사드
##환자
##전투화
김재훈
일리노이주
옆자리
##露
아라고네스
AESA
##소설
대계
팔콤
백희정
달항아리
##베네통
베르됭
건교부
DSO
외르스테드
소두
수수료
##살육
스무스
IFCi
신문선
##승빈
염행
김보경
신재하
끈다
해거드
당서
구광모
##추스
닥치
Orchestra
정만식
선구안
발랄
물자
##산업단지
##’-
##변하
군집
진료비
케임브리지
주목적
매닝
debt
노처녀
##올빼미원숭이
플러그인
##신다면
##고과
##청원
##이규철
청혈
윈난성
북한산
조원태
##근태
PMS
딸랑이
회합
메르디
엄두
주루
##밥상
새하얀
##연예
QOLED
음향학
창문
##산금
윤건
Security
르윈스키
##극항
Na
쇼우
HFCS
##포드
박선
##리베이트
##MBA
##부민
##로드
##헬리
##관한
Boy
##부고
코리아타운
##resize
관어
##헤픈
##법칙
더블헤더
심우준
휴직급
동사
제이크
##불법행위
##환우
캉타우
Tencent
KIOST
트래프턴
##000000
코르테스
##난징
##풍자
5070
##잔역
##무의
황소개구리
Pillsbury
번외
유리제
##구직자
바튼
픽션
##양생
ZEPP
Tu
홍고추
##코어스
관절
##음력
시에예스
이강
권문세족
##비중
권선국
##슈퍼맨
따오기
##수재
카밋
동작대교
MBK
평균인
##구찌
능곡
에닉스
정육
피칭
way
도너
##티크
숨져
밝혔으나
##Webster
잔골재
대창
임동섭
급성중이염
티비
##LOL
콘트
사족
범접
미켈라
노근리
Syria
trillion
매더슨
##사이즈
양학선
##플로트
채워졌
알베르
##LTE
어간장
가짜
급물살
성동구
권오준
##롤프
차동
##텐더
##나누
##보더
##속집
산은
##仁
정방
청순가련
팽배
민망
##만세
이여송
아이칸
통역관
한국지부
##카라바흐
##코기
배추김치
##현역
##완
털어놨
##오른쪽
지하경제
바하마
가쓰오부시
최정우
##군중
##了
##귀엽
##광역
하재영
동지애
대동강
##치즈
야스오
결자해지
연파
##친
관광버스
##성희
PZA
##껍질
전투복
식구
##wg
보여준다
XTU
팔
쿠차
해임
류태
수송함
##703
월터스
델라
딩고
이몽희
##덜미
피더
벤슨
윤진숙
장애
조난
비상용
활막
도쿠
박세창
##앉
조짐
##통신업
젊음
돈가스
픽셀
해신
보니파키우스
##살림
차단
루체른
젖니
구장률
복신
아라비노스
리의
마키구치
##건설기계
원추세포
호칭
##정미
##337
개똥쑥
화흠
서리
떠올라
쿄코
분배금
가정의례
심해졌
정두영
##pop
##"*
인목
##브레
東方
##발주자
이발사
BME
##노희지
##場
1996
카탈란
WWE
##당과
박민
BLDC
책방골목
마스터링
주어진
신승
##BAND
##요시노
허준
유성체
고시니
제작
안재석
비젼
부블레
피상속인
류카이웨이
인듐
컴벌랜드
갈레노스
의문사
##140
외발
김학우
카데르
##무비
##추안
##고질
##자연사
ADP
정루
aid
▼
국수전
부영이
조폭
증거인
외무대신
##그동안
##기조
종반
다카오
송내역
수소화
##테마
##이르
Week
sibiricus
##메뉴
##굉장히
서피스
문희상
괴월
##위아래
운송료
이환희
손정의
욜로
##write
맹가
##1972
발자국
조각가
AQI
오정현
##살균제
요시미즈
궈푸청
특별
드렁큰타이거
##할증료
##쥘
배스
##르망
##옴
##기구
살펴본
훈련장
낙상
영등포
스무디
##후손
마애불
턱돌이
사이먼
##75
비크티니
아드리아나
중병
치산
자연식
##액수
바라밀
영화인
태웅
혼성암
한지근
밤바
하먼
##빳사나
##ESS
주지훈
강민경
테이프
레디
베르게
번은
유미자
광픽업
CBR
##생물체
봉군
프라페
최재윤
이은범
콜라로프
전기레인지
예매
우산동
##불개미
뉴욕
##공파
##가해자
##서촌
열무
##꽃밭
임종화
재외
##포스터
##실행
세장비
알파카
임계
##즉각
##이티
##연애
##고랑
서희경
북보르네오
박주봉
GTR
SEA
티도레
스틱스
강대국
##환형
하민호
##노이
신태일
파이널
신광영
쿠프랭
조준경
##강변길
SystemTap
수험장
소길
레지옹
##처의
빨간약
비룡
인사법
##우의
##형사
행군
##법령
하주
종친회
##홍반
규조토
문화축제
##수스
복식호흡
##인천시
엄홍길
김윤미
한국식
인과관계
피아제
중산
사희
##디렉터
##체인지
##로고
적용
비춰
당산동
지병
용두산
본업
##독전
플래툰
##Studio
부스터
공지영
공세리
HRT
##회보
젬갈스
Enterprise
가물치
Quattro
추심
##드라이빙
와룡
족발
성토
상호계산
규탄
박종혁
8500
원대
##은하
꼭두각시놀음
약밥
##수전
임흥식
가곽
무용론
송호근
파란색
압구정
보금자리
크로캅
##리드
양적
아이링
##분에
임성언
독려
고야
##보해
##로케
황녀
담당관
안소현
앞둔
##soirtsseoul
화요
한민구
우드먼
석도
청동북
논스톱
변승업
##PAG
별시
트라우트
##교포
##파테
##라이페
느껴졌
##부주석
##중성자
##보물
##명품
##배소
##해바라기
##치마
럭셔리
##에릭남
도시조
##등급
##뎁
한옥형
북아메리카
##@▲
오옥만
##안병용
내각
PVL
GDR
받
##소이전
##용암
##김종인
민스키
##흠
연애론
##華城
퀄리파잉을
##수촌
필수
오토파일럿
퍼치
전통주
solid
저수조
베이비
SGA
##추첨
##실베
홍상수
EB
로턴
##클라이밍
##심곡
증가량
박범계
##태학
환멸
삼지연
##큐
반면
엄태구
대웅보전
##송원진
##工程
##입매
김범룡
##정립
열흘
##생도
잔느
이영범
사심
##시연
주영섭
845
##추류
코크스
##운동자
##콜라겐
호죠
피살
조정호
시야각
귀재
QRD
클러치
웰메이드
을지
심한
봐왔
묘목
##헨리
2371
그려
컴튼
이비인후과
##;><
##iN
포미
두루마리
입숨
연출가
초간본
＝
닥칠
타투
그랜저
##우륵
##병의
##현장
거주민
3700
이란인
##자명고
문무
억지력
캘버트
참혹
루비듐
AoS
다비도프
대륙회의
단다이
##靑銅
잰
오동희
송병준
중위
KOREN
인화
후쿠시
오목가슴
백창수
##조현아
1878
볼륨
<<
걸인
##자임
##대명
읍내
벌어진다
가누
인시그니아
장원준
##UI
통신망
약정서
##정균
KNBC
아스테어
포트먼
합명회사
갈치조림
##유사
카디
##위첸
면장
돌격소총
##pq
공중선
주니어
##取
라그나
PBS
쉬크
##이기
금속판
##영수증
수종
연구비
부분집합
시클
##01
한일어업협정
##라이즈
갤러
목적세
OMM
준성
##중재원
수공업
##역비
그루터
진균
제임
윤지영
김형선
β
다르푸르
##사격
드러낸다
파키
##사상충
마르키스
##후송
##의원
현산
공작물
요리
CU
프리마
UWP
연륜
탁구대
##LI
맨투맨
루키
오락가락
조현준
##이외
신관
김영성
##이마트
##표사
반사율
사르코지
세라믹
Heo
마틴스미스
##우대
EGF
김현철
앰브로즈
무진
힐리어드
폐결핵
부실시공
봅슬레이
##스톤스
신윤주
대마젤란운
##돼온
##강판
선회장
전시장
해설자
이철하
크롬
Anbang
알렉산다르
김명순
가쿠슈인
##γ
##박철언
노루
##밑
퐁듀
피에조
##모의고사
히데요시
##라스베가스
놓일
##글루
란츠
텔레토비
##스텔레
##배한
1910
동중국해
TOHO
프랑켄
윌리암
##부내
PUA
잉글
##운송장
임구
##국법
순두부찌개
##디즈니
컴프레서
대
파이어폭스
샐비지
뇌출혈
##두만강
개정안
금대
##정심
말버러
##한겨레
오창읍
농수산물
##능력
씻김굿
##SEOUL
김길태
권력욕
##뇌혈관
334
##취골
본사가
##라자
열심
##이청아
메밀묵
와트
소경
떠받치
##의
##MWh
뱃머리
벨트란
소호
촉망
곗돈
탄약고
옥저
바스티유
##불선
##재관
도장
폰세카
##도립
##간지럼
강혜정
##상차림
##ICC
##손맛
벼락
하명희
테일즈런너
##생태관광
송주은
쎄
체류
잔치
휴어
글로브상
↓
충무로
하준호
##이치코
워치
보스토치니
66
##newsimg
##일상
나얼
플로우
##인더
야스히
양쯔강
쇼트트랙
추문
나초
서튼
실버타운
전대차
판의금부사
분주히
##누티
프라우드
훤히
귀순자
조원철
산도
아르세우스
##선법
##도매
##삼성
우도
MLP
서황
어시스트
폐건전지
##650
##인의
허문영
지배층
리정철
낭
쌍방향
막아서
마그나
##마방
애정만만세
경혜
갖은
칸
킨
디렉터리
가숭어
##緣起
에비누마
이동건
도밍게스
아코디언
추장
꺼짐
##인기
구민식
창해
공각
##1997
제제
축산업
Dynamix
베르
김미순
김대연
내다봤
유슈프
김한수
##참가
람베르토
스윗소로우
##지와
랜덤
밀식
##¼†
팔루자
full
보람
페랑
##발생
##위축
달라도
글루카곤
벼르
휴가철
RBC
편중
기쿠치
로열스
마선
##MC
에버노트
네스토리우스
배추
블로커
조안면
##처럼
빌보
유리창
갑신정변
이양호
성숙도
안현필
##함
BGF
IDF
##-->
박진선
불편
##귀뚜라미
다뉴브
아세틸렌
소후
##어고
합니까
##평양지
Health
히노하라
회진
최장기
에어리어
##수급
##구조물
김재웅
양기탁
옮김
리서치
차준호
##마르파
##임종석
86
##견
온전
##****)”
##女
##인승
신약성경
##손가락
감성
##상황
월화
절터
팽양
##비빈
##바나
데이먼
펭귄
1958
Investigation
사냥개
##직능
마드
데리
전족
MIT
765
인형극
##강심장
##적출
열방
권수정
##온난화
페르난데스
무관용
##모카
AKG
##유전
##재편
오징어
##물리학자
##절차
깊숙
고대사
황정음
인종주의
##燕
오태규
배울
##모스
무서명
층간
흉상
서혜정
채연
이장석
차일환
넙다리뼈
파산
숙잠
양귀비꽃
패거리
##중형차
아이덴티티
와
##김부겸
경일
##촐라
정궁
시라트
##피부
야야
곽동혁
heart
티라나
동남향
##산개구리
삿포로
린킨
수의대
RNEP
드림하이
혈기
가족사
##초
다뤄
유제원
김윤철
호오
정태우
##정반
FRAC
김용익
만타로
##사남
로라제팜
신광렬
알바트
카누
실리
영식
##dB
##주영
경찰복
아포베
관모
##베타딘
곳간
##레바
부스
##직무
##Hello
재입국
구멍가게
##블로우
남경민
정선
스트링
이세미
##쇼박스
한혜리
전매특허
약관
온누리
세금
강준영
seals
##SAS
베테
장병권
화학사
##종돈
##뮬
##바벨
신우
##콜레스테롤
남기
##평일
불응
시민운동
##미치광이
키르허
##태자
##연평해전
스토쿠
발사체
본가
SWIFT
민홍철
##매력
##보이비
김연명
세포주기
뒤끝
그레고리력
홍도
이투스교육
##CI
##燈
복압
우시
순욱
단말
커서
김사랑
레게
　-
##Re
##미분
김용
진학사
##오해영
머큐리얼
간택
지국장
펠리페
##예과
귀현
SEED
##화현
울주군
##자이언츠
동백나무
##뤼넨
을파소
프로젝터
##쓰이
##인디언
베수비오
국정조사특위
뱀띠
마시
##문신
본네빌
웅
##처리
탑블레이드
##조희연
가림토
나바
##집수리
운남
타오스
서래
신세계원숭이
식당가
스텀블어폰
서강
##무덤
후스토
서영우
생활지
합병증
MCN
리간드
##다시
제자리
##민설
등수
구현
##매실
##스톰
##페이시스
롱
히피아스
헤이즐
예수원
준지
조리사
경평
한달음
운영비
##파르
터너
경덕궁
트랜스
##서부
왕당파
안토쿠
##연맹전
인중
##춥
조세범
소름
##쌍용
방순희
극락전
둥팡줘
맞춰야
##김재인
주령
##이창섭
선우용녀
나무엑터스
##잡화
가본
##하모니
보안
SO
하와
고우리
쌓인
이루어지
랑군
물속
ADXL
민판
##노드
밤샘
모리스
조광요턴
초퍼
류여해
박찬종
크립트
재하
송파구
숫자
헬레네
공사비
고재호
오른손
상원산
유세
바디스
래핀
읍성
##투조
##복정
##공증
지참
안이
감은
듯
Action
맥포
까먹
보두앵
##의공
##별기
Remix
##윅스
055
출산율
##랩스
피르
아르눌프
##덕혜옹주
상처
product
밀워키
##지선
화해
보라스
출입국
미터법
변개
왜가리
##진갑
발싸개
세탁물
이심률
이민혁
서은혜
이미소
##중립국
소거법
##농어
##문장
##이슬람
031
##회가
가신
훈육
셰르징거
##73
자아낸
낙원동
신은섭
##금리
##명벌
국산품
##터닝
##두나
채웠
##혹시
##테스
결합체
벨리사리우스
strategy
##풀하우스
##睡眠
알탄
##시스터즈
멱집합
외환카드
##남해대교
강익중
최중
강태양
먹구름
끄라비
임세영
##공덕
##콘돔
계량화
TFC
##나드
묵리
탁자
마인츠
아까
floor
독경
##김현종
##어방
외상
미쓰코시
맑스
재스민
암행
bbq
굴레
##밤도깨비
능동
김민석
설문
지치
고국
학조
##트루
본건
##말뚝이
순회공연
##유병열
##행인
아동
야마
511
스완슨
벅시
좌옹
신징
block
카네
투르크메니스탄
주특기
식스밤
곡
영건
##미나스
스톡스
##티맥스
화곡
diff
팃포탯
본류
지채문
377
통일연구원
BBB
국군수도병원
본지
전력량계
##토대
통화
쌀뜨물
백운산
##광은
김복선
##디플로마
##기념사업
##해항
스텔론
덩리쥔
부르릉
런닝맨
494
NGS
침입
TCG
◆‘
더럼
##동포
##합전
##1996
이윤정
추려
탈륨
유신
보험자대위
볏가릿대
김회권
삼중수소
##탈라스
##신한
마르크
쇼핑몰
옹고집
자건
##전총
송사
##취미
감각
스쿠데토
##자홍
마나미
차준영
욕조
글래스고
이동근
##소충
승부조작
강시
캄차카
치환
♧=
속현
탁상
전유
윤서
주권자
##나일론
긴박
제중원
리커버리
김진용
요코
##와코루
타마마
쿠베라
##패류
맺히
강성원
푸생
채식주의
##파고
김영인
##이터널
프렌즈
리질리
김세헌
AFPK
##쩌
##임무
##김해
후지카와
골드뱅킹
신경전달물질
모건
치앙라이
엘카
요세푸스
레비
895
쿨롱
PCA
루트비히
삼천포
##남서
##적료
파생법
서밋
##멋진
분의
대구
월봉
습한
베트남어
##;})();
##비빔
##역
류승완
라이토
도그마
협죽도
카메네프
룸비니
오티스
##화백
##수도권
타락
석장리
누른
지정면
##저상버스
nForce
오즈데미르
##칩셋
##한자어
last
적힌
##정글북
##잡초
정신병
경인
끝전
토모야
##강안
채민서
##▼
have
꾀할
##영총
후쿠아
길렀
##실험장
뤄쉐좐
스파크스
헤나투
박규리
보르크
수습책
DFA
호재성
##화보
와일스
##려고
이모티콘
보첼리
낚시터
별신굿
기어이
##박승
Ah
맛살
권용관
백승우
하야테
디나르
매리너
달튼
가로림만
대성그룹
서머스
##밀림
옹기
##지조
##하청
##대용
천산갑
남장
톨라
프릭
슈테겐
행보
##소재
정선아
##845
하혜민
파키스탄
##성유리
블로
##분교
유직
분극
샤프트
##콜로부스
~
##다래
744
##390
천축사
승화
희소가치
천은사
브레이커
##│├
디트리히
교점
##양동근
취정
##분향소
부산은행
주현미
##석지
합성수지
포대장
수료생
주막
##남사당
조혈
##포레
선댄스
##고니
서비스업
필립보
CHOP
##비평
역
마다가스카르
##사례
##고딕
##지알
액션물
비통
김윤혜
##이선균
##은우
로스코
논술
##업위
갇혀
박경리
화끈
송기수
##prism
홍남식
tax
사쿠사쿠
##120
바론
##팬티
주립
극렬
골든디스크
##히만
HCASH
들개
신자토
콩국
##감응
##ROTC
교환자
인정
야구
누진율
##Gee
자이브
영대
비결
##최애
오리엔트
강의원
정애연
##신경
경준
브래몰
크로즈
인더스
##아폴로도로스
샬럿
사일리지
대방
공은
lead
장성역
천경자
##음협
##이택
양민석
불완전성
자심
관인면
검투사
토리버치
유치에
문라이트
화연
황윤길
아베디
link
강경호
##냉
원했
스페셜포스
정영모
성창
트렌치
##루마니아
뇌성
밍
##외배엽
##매너티
##청첩장
진오
억대
##리본
말끝
##보헴
가족주의
압둘라
송재인
##가네
##펌프
종종
천황기관설
##이승환
디지몬
##강통
아바르족
##5400
기념식수
리스벳
##박성훈
뉴클레오사이드
##논산
utf
의제
##루피
##요한
##각자
##열석
그로브스
##연못
박가원
##틀기
9566
##화합
식수원
외줄
다노
부대찌개
##지한
타불라
##낭만
슬슬
##메티스
##And
청동기
##미달
정종영
에스엠
콧대
장안
##샤블리
##온달
DSN
CVT
##ACE
친다
두골
서홍관
레플리카
##프루프
제이콥스
바리케이드
임재길
무호흡
화비
윤희웅
##일체
학예사
Lab
##Bond
최희준
##대의
김동명
가면라이더
매제
##메사
##바유
사우디아라비아
토드
시모
##미년
##JP
구월동
##모비
대재
##오빠
보라매
오경석
GPF
풀려났
30
##조정석
리자드
박평길
United
사각
##회용
나스리
전지
메뉴
##모형
김재이
1871
다져진
##주혼
##콰
절화
##㎢,
원수
웨스트필드
빙벽
용언
김미경
투항
##한라
##만성
위치토
##랜턴
##오락실
##大韓
하급자
호엔
신마
나고야
은전군
##팡웨이
Red
쥐
leaders
장영실
규원
명덕
김능진
##333
파마
##파쇄
셸렌베르크
브로더릭
##고려대
전기밥솥
##이버스
라그
##安
##공모전
##블로커
이동하
순천시
강일
홍금보
한언
배신자
둥스
아스필리쿠에타
앤지
유엔젤보이스
FH
부스트
수송선
##라임
##◈
창민요
손태진
실
자본가
##방학
##어셈블리
안젤코
##서적
마이바라
##채란
##기탄
췌
컨
무이카마치
물청소
】-
우메노
##광과
##지붕
##라지오
##정읍
보합세
##흡수제
##處
알레나
획정
랠프
##신동엽
안토넬리
김장현
EIB
오연상
박희태
서유리
셜록
이나즈마
송인석
비요크
풍수
백인천
성통
국내선
루킹
삼다수
water
##김여진
무라
허남식
초단
##상교
페스타
##마임
릴리언
포틴
ROR
##심기
극명
등
##PFK
지난달
탱크
에밋
화가
김소구
##土
##종친회
공대위
키오
사카자키
밀밭
이겨야
##BC
멘
마도사
위안부
물티슈
쯤
앤디
박준면
지소
권현진
한컴
##증발
##낡
아사
남초
Holi
유희
특허분쟁
휴전선
##페로
##호인
이집트인
##기피제
방관자
서복
바삭
소송행위
당권
진열
##체트
살바도르
RWD
두드리
##건축사
부정기
횡
초케
##EDM
독특
초월
선영
홍대광
윤화
##표식
장미꽃
예측
조피
중압감
역함수
탐조
##해밀턴
패딩턴
PwC
빈슨
##유일호
##냉전
투서
링커
정영훈
##브로우
##오티
##한용덕
갈소원
##캐시비
##팔레트
##Summer
신명
압둘
##단념
임형주
김형식
모리요
사리사
계금취견
##부흥
##추
##김창현
슬로
자료
짚
##카이
##중략
TVR
##야죠
청운동
살인죄
결의
지구대
우월주의
도저
접근
채울
이선구
주최
보조제
이명기
##유저
양부모
나카이
무국적
왔
해안선
말풍선
파레
숭산
야스미나
##의견
<-
##진오
송은채
##잘
imports
군마현
람캄행
앞섰
탐폰
##당비
##라이너
##323
UDI
편도체
최현주
촉박
와쿠
##연회
사요코
에리카
297
펜탁스
트래직
##ACK
##published
##어판
곽윤기
Belgium
청덕동
##順列
연료유
도매상인
평동
오클라호마
호지킨
##양식
로보캅
NVMe
##카인
마블
##㎿)
냉동실
코앞
U
둥
기념일
정난
펌프킨
린델로프
##소립
##데츠카
시윤
신지은
광산
출입증
##摠管
들어올렸
싱크홀
##숯불
여소
몸부림
하세베
##공장장
##증기
전동
스킨
몰려
토핀
BHA
##daysofadulting
모근
##매가
저팔계
##공관장
테오프라스토스
##캅스
소수력
##이건호
애완
비전
손호철
##留
##劇
텀블러
안치환
Hanssem
파브리
벗어날
매부리코
##별설
##고가
##클리어
##기원전
옥사
김희은
오메가
알리
총운
준석
##모스크바
도이
##스펙
법관
물들였
달덩이
김경
김혜지
가즈사
##동거리
##그라프
##메르
TC
이구
절의
PAH
옥시
##절차법
트리플
주현기
##기한
옆
타마르
카라즈
검표
카세트테이프
콜비츠
발콘
슬퍼하
편하
종금
스토케
박미옥
육박
다날
포박
##제사
반의사
터키어
##획관
취합
##였음에도
바버라
##스모크
앵그리
iœ
장원삼
보희
박해수
##print
RCPS
니진스키
최경태
literary
오래
올레
##돼
앙투아네트
DAY
김상용
##상표
##가로
##원왕
이바구
차경석
김병철
기독자
##입건
Info
혼탕
루팡
은비
강기갑
원숭이
번지
·
인모
##파밀리
나영돈
멧돼지
존칭
##상거래
합의
##크리스챤
메로나
칼리
침몰
##박상융
이혜
##퇴식
ICOMOS
안재욱
##＞·＜
##언재
가니메데
##혼마치
이태룡
변비
영광
MRC
차린
흉악
불상사
순항
피우수트스키
부다
장태주
커다란
입기
코모도왕도마뱀
라티움
부끄럼
채영
마츠타로
유정수
미하마
##강습
연임
##건만
이종성
내려오
발틱
##오바마
빠짐없이
음식료품
패용
쇼스타코비치
430
사내
말의
##화자
FedEx
##학제
음운
채소
##미궁
뭔가
포트워스
880
율리
홍수현
##제칙
처소
##와사비
결투장
모라
김남일
난왕
운서역
배산
김원균
마모셋
##연옥
조위
##공대
펑위샹
그로테스크
합기
다녀가
쇼마
쇠소깍
에우제니오
##인터넷
엇갈렸
##806
리다
Trilogy
마케팅
차문
빼곡
후발
최은희
DI
##자롱
##뎀
kiŋ
감정관
그라함
올무
##농어촌
카테
아사하라
##라마스
##피카레스크
뮈파
##순미
##발라
이멜만
##toastoven
##별점
박서진
IPv
오손
사이클로프로페인
김학수
레드햇
GHz
크리스티안센
##청단
하판락
베커
김호정
##보살
조선식산은행
##김성태
Beautiful
샤도
목시
##락과
윤익헌
조강현
꺼냈
##판정법
##합동
VR
정한
Canal
부호
김영준
##닛포
밤안개
##딜러
웨스트윅
송남헌
시기리야
조화순
##public
NWA
칼바도스
용평
여상규
귀퉁이
##Project
금란지교
양산보
박종윤
##夏
심혈
상환액
토션
회춘
##인젝션
me
##맨션
이머징마켓
스모토
스테들러
미등기
박기혁
요리요시
펜타곤
과음
재열
페인
##GDI
##에니악
진자
이정섭
양륙
##모닝
서동
##VR
##활자
승합차
Goodbye
정조국
전주비빔밥
카버의
곽낙원
##사이츠
다카세
뉴트
##리브르
도면
옌
수육
권희로
점도표
##거당
OGP
예선전
##위법
이정태
Parade
##초롱
카르데나스
벡스코
이근안
송광민
오른쪽
변협
td
저작권료
##파
##진해
섭취
주광
척안
*-
정빈
##로페이
이태리
융커스
##석제
구회장
##스테인먼
궁도
마르크스주의
드브로이
미셸
##포르
선입
그린차
##호라이즌
쫓겨난
INH
축산
가격대
##여소
향한다
NST
채운
대사
##8211
시나위
행복감
틀어쥐
##논문
그리비
문해력
보디
##선대
2400
아키오
베긴
신도
환자
##인터랙티브
##릭스
##샤샤
트림
spot
육재
##복권
over
##다면서요
##계금
지쇼
##네모토
하도급
합종연횡
GGGI
하모
고르
남성
자궁경부암
##턱
민족주의
##토수
##릿지
##소나이
절수
##령
심고
수운
status
보릿대
조산대
다중성
박선호
유창종
선운
자신
베스트셀러
최영기
##신동욱
푸에르토
알비스
떠나보낸
자동차세
와일드
대등
##커츠
동행
##항생제
##샤우
김여정
##ISIS
통선
##당림
엄지인
##제발
##지배력
백우
##베스
##”◇
람지
송과선
##돌아온다
##곡
##수회
did
학술지
##스켈레톤
주전자
아다마르
카마
##社
가물막이
외벌
크램프
##피닝
##아이템
이하원
KISTEP
황수관
##비옹
최현석
두각
##브라우저
송시
양혜규
##coke
진만
휴우
##빗물
어피
##다를
NAP
##PCS
군립
이정빈
집비둘기
##　○
푸조
##광구
인터폰
클리어
WRSA
5008
강릉농악
전라북도
폐포
##북정
경거망동
잔당
이마가와
MDA
최강희
##고고학
플롯
등록제
##동실
[
아퀴나스
박치근
가야읍
록펠러
꽃차
망가지
반추
인지도
##아르곤
숙식
심현섭
운용
버지
딤
세뇨
줄리엔강
동해시
annual
펌
맹모
나용
##스티커
최윤정
홍광호
선짓국
전산
박정호
양경철
FLAC
##결국
티오
떠오를
란타로
세노
카오산
회자
긴급명령권
##오산시
얼핏
##골격
앤더슨
엔젤
둘리
##면실
윤석양
##BNH
순리
유대인
바닷가
키에사
##보험업
##매시
형사부
경합
용문산
##부착
이규태
##비우
신서
##별난
##석면
스푹스
신새
진리
소민
##감가율
아얄라
출주
사지
##진짜
뇌지
양용은
정한영
입실
이호수
서베이
뷰렛
스토머
김민채
심선택
신학회
되비지
테오도시우스
억지로
허니컷
스파이더
##금형
노승일
##피쉬
##신곡
##``
고혹
차환
잭맨
##엔피
추암
거슬러
라도
##쿠사
퇴적암
##중반
상정
##비행단
##해커
주차장
##보라
##면목
정종현
##프리즘
##아당
받아들여질
설파
##버드
##貪
밥상
##》
##PO
주술
이세
신릉군
##골든벨
소재원
##Day
묄러
최제훈
드러날
마룽
탄저균
광산업
##재정부
콰
류성희
1817
작곡
염원
바이블
##엑
레슬링
임예진
러브호텔
신설동
##노이드
이성규
##조절지
광고주
돌하르방
쑹칭링
지압법
‘’,
development
복분자
KISDI
무과
MVX
김광보
##하얀
##331
##풀이
##経
JCL
유흥업
##탱고
에이피
##악대
에드워드
당론
심신
권정남
검사
##섬망
국사행위
##금번
고잔
복각판
산업단지
##사이버
##짐
투견
조약돌
##칠레
This
SVO
폐허
기시와다
이상근
가비아
리모컨
##동일
##150
내내
추정량
##촌마을
이기
반대편
전국구
##바캉스
중재
일조량
##㎡▲
미에빌
아펠
조영란
##View
항의문
##VJ
수국
수방
후암동
##리핑
##채색
김도읍
나카
차두
송사련
일임
은우
서영필
고지대
전신
성북구
키치
본처
독고영재
동파육
브루넬
##허우
##gmail
소감
해스팅스
탈곡
memory
##강일
##최우
물감
이윤영
트라웃
배성재
CDDB
동화기업
〈
완화제
요제
##영화
카페
주진형
피오리아
어종
합집합
쿠르투아
Impact
드링크제
##진다
정지
간담회
TW
##옥주
치아키
##살롱
##미소금융
애니멀
##SL
##통화
동하
##청장
무통
스리데비
##버틀러
데우스
손끝
불행
##키가
나이젤
장복
##-]
##品
이학수
오존층
축생도
##과
했는데도
##매미산
##American
정동진
경포호
매절
##저스티스
정종
전년
##home
킬링
성금연
Japan
##이성민
스파클
키호테
##환기
쿠퍼쌍
IgD
1990
조순
##천군
234
##하녀
##사량
##구호
대약진
베리모어
체증
##머니
가왕
박영실
김혜리
중상주의
##향군
##황해
##버팔로
##바이트
보해
LOT
컨소시엄
황권
│-
전근대
조동혁
주워
강훈식
은조롱
##요령
공영석
아름
고품질
##-(
##XVIII
##성장세
황석
우뚝
##DEMO
애니스턴
양장점
여의도동
신분증
포병대
과편
가스페리니
점퍼
몽
문근영
카모라
##부투
흥진
당간지주
박도경
장류
홀컴
상투메
to
황수범
##난다며
정문현
다정
##노블
눈덩이
##손문
##탐랑성
##무
무응답
##아무리
메토디우스
본의
##리식
##립식
노바스코샤
자바헤티
아스가르드
##책자
입적
이민지
채종원
샤룩
덮치
박노자
권응수
위클리
어촌
황제펭귄
김진우
김근환
몽장
구강건
가창
앙리
칼립소
도곡
울산시
HE
수에
프리드
구강
아카바
해친
엘림넷
위키리크스
고드윈
대리
플랫폼
시너
뎀바바
Food
##방로
김동찬
단둥항
광견병
UCS
테크놀로지
##그을린
##지평
마르디
기장
Long
구윤철
순환
##대주주
진폭
##키위
셔플
SSPL
##나야
코레
##오니
마르케스
##블레오마이신
##이다혜
##솔직히
김근성
호스킨스
신광
성냥갑
불
올뱅이
태종대
예술인
##줘요
##순환고
벨리즈
색전술
배라
이지함
필바인
김도형
##식비
traffic
EURO
접사
개인위생
##내기
##진우
고모역
배교
##산과의
민다나오
타카유키
가압기
고다이라
디애나
이체
##盧
이유범
##장학관
##한국은행
##Beck
##피온
라이엘
##코파
여준
구사카베
마티
재중
패킷
##전북
강경학
해람
##토어
LGU
##남궁민
##병과
간경변증
무인기
TBM
##장례
##태감
##프로디
위작
##규
릴리엔탈
의류
최장수
##필적
##명인
젠느
##왕사
김소연
황희
##협박
##도발
##바라기
나눗셈
윌스
케이타
벤츠
정용
조양동
수원천
##주란
노즐
친정어머님
##햄튼
와야
##리신
서초
##로마사
##이엠씨
옷감
클로렐라
##주상욱
스마트
##만드
이시헌
마론파
##내성천
벡키
단백뇨
화과자
점토
##차원
칠량
##아까
##야산
없이
식용유
##하정
택견
댄디
##타운
##등원
스쿠버
##인문학
##무쉬
##스티로폼
EUV
루디
##티에스
난닝
포크볼
##/.
정순
##겹
##용구
##동당
##미린
질색
##%*
봉화
units
포루
DASH
괴화
##연설
팍
디케이
미코
여주
하운드
오세르
##판넬
투표수
뛰놀
헤어스프레이
吉
##하겐
능한
JDI
##夫
박상현
UN
김수정
소득
설영
신재효
증조
캐슬스
##rta
미분
유정환
박해민
##050
성모
햅쌀
내부망
KMbase
맹신
번안
수월
##sharewise
##플로리다
##055
LIKE
여광
##독주
##──
칸다하르
미러클
사업가
##연강판
출동
현대미
금교
더들리
##핥
잔
라파엘
새앙토끼
##닙의
자연어
무정부주의
주유기
시게루
##뱀의
타워
##민주당
##모델
불복종
MVG
비롤리
이청연
윤선
클리타임네스트라
윤봉길
고무신
알백
Scientist
##二空
★★
이랑
some
슬랙스
##소방차
후유
장성필
헤마토크릿
포울
욕
피렌체
##현충원
##행법
XXXTentacion
미미시스터즈
강흥원
원본
##2002
孝
##재무
##민선
##추출
이종가
##준설선
나뭇잎
포승
왜군
백엽상
알틴
샤아
Deegie
양희영
##암성
AKP
##¶
조병창
##IE
##관광지
느꼈
##합니까
롯데슈퍼
##같
금정
Q
PGD
김사열
귓전
급유
성전사
살길
메기
김백진
점점
라밀
heilie
고전
최진기
트루스
초안
코시치우슈코
##본점
##픽
캐롤린
##分數
##거래세
##드로우
먼로
##상대론
조규선
치적
##성냥팔이
비핵화
영서
##Formula
##고속버스
개작
개막
##KBS
##고종
WPC
네안데르탈인
우지야마
CNBC
엔트리브
카밀라
오솔길
남인순
아틀라시안
이중성
하리
탐사선
히스패닉
과납
공주시
마르케즈
익혀
쟁취
관리법
정발
NLM
주미
호의
##출도
표충
클라이번
##영상팀
이빨
##신아
TESOL
옆방
##입자
강유진
박용운
황성재
아이치
압하스
포지트로늄
##이훈
혜통
전곡항
김태일
멋대로
닷지
살로먼
성문화
OF
한길사
조련사
술레이만
키메라
그래서
##민본
정수암
라미
코너킥
듀
기획사
##엑기스
알링턴
나츠미
고착
의전차
백핸드
##Splash
에소
##TAZ
개리
칠천량
쪽잠
시트르산
하벨
층군
가슴살
주관식
기낭
잇단
##김현수
서술
장세환
보호처분
문길주
규범통제
괴소문
##광체
존영
박필준
막막
래쉬
##당선
수증
불혹
할로웨이
조형균
##누수
선급
##찾
##시켜서
##수이
험지
##숙
1010020000
crime
전이경
##等覺
##퇴직
##백범
영속
DC
이
##숏
##마대
김갑부
##엔트리
루노호트
춘희
면역계
거리
##트리샤
노변
1577
코노
##緣
봉선
침산동
ACL
헌트
##쿠스
fWAR
징징
물
버섯전골
숍
세체니
rapeseeds
포획
##담수화
뜯어내
##codice
가게
살펴야
잠수함
##용궁
유승
탈옥
##방크
##짱구
헤어질까
탈피
Muslim
샹크스
눈삽
"'
맹순
라발
자이언
짓
채용
##가득
권혁수
녹양역
내추럴
IRB
배타
인산화
킬달
##뽀뽀
훈련소
##요구서
##확인
##레벨
왕심지
텔콤
마일스톤
수련
##결손
비엔날레
장광효
루치치
김관
SCMP
##노벨리
wood
조희연
미각
위야오
문성민
##042
다미앵
we
병음
##지봉유설
레프
보되
이동익
이모
BA
##권위
##피자
##아비스
##moi
샤일로
알제리
도주
##게르
김윤서
이건
심평
##㏈
파시아
벅찬
##민박
선점
UMF
삼신
##레저
회기동
##직업
PDP
##루트비히
대체
비에리
##비첩
##얼
조선신보
##기자실
book
운임
생크림
칭하이
새순
김익훈
박종철
눈꽃
농법
휴런
##의무
절박
##도문
##문화광장
##당호
순자
이세은
##통로
흥사단
##농군
타그빌라란
경복궁역
카니에
국회의사당
중화항공
##쇼콜라
##그네
중앙아시아
최적성
다카야
성골
##사카
##메르스
가결
케터링
라이노
은기
##영주
##각서
##부작
백아산
de
##CHEER
우송
어쌔신
백자
조물주
매립지
운지
소상
악
##수은
##드려야
코빅
##신윤순
##샤론
특이
원자바오
이영돈
김도혁
레이저
##조짐
세관
758
옛길
손실
야오이
HMS
안길호
##원피스
오스트랄로피테쿠스
사이공
무강
##を
기본군
##부산은행
평론가
앙
##하우스
##나가수
파라곤
폰즈
Studios
안압
장례
##원
흥부
김현제
토다
##복기
##서치
어드벤처
엠티
가택
##미림
##일지라도
프란델리
항공대
버닝햄
화답
뱀파이어
##리엔
키울
이달석
내포
국민혁명군
##여차
##어선
적봉
##전용량
##~.
예체능
##수화물
##손연재
림스키코르사코프
##퇴장
연체금
##티몬
##입법
풍광
세실리아
##설계자
crew
황강
##시킨다는
##KOSEF
##턱스
##게타
이창명
##KW
##조원대
보행로
전반전
백금
베스타
페럿
merge
KHL
별도
GSR
##라
##에다
손칼국수
서태후
##순환기
임할
##거시기
발착
빚진
미네기시
수치
금릉
VSAM
열악
동일
소진은
##성인
모범
피의자
##김지영
KHP
##TFEU
세이터
스페인령
##전어
##970
##겔바트
##니에프스
##선원
용해
송지선
월별
##브렌든
##데스노트
의금
##치부
셰일가스
##진운
##%}.
##아가씨
타오
꿈꿔
좡족
폐지론
##오디
퇴근
염류
천사
강부영
부족분
##칼의
##시전
서보미
핫토리
유적지
포지셔닝
이시백
미샤
##"━
안마사
IPG
중이온
손보미
파종
##르네
스탈린주의
매우
참고인
고베
##분위
##산기
RSS
##烏
장세정
##수리
녹읍
소비세
오초희
백선희
##과대
가천
테이핑
civil
##자생
이선영
기네스북
##강송
사카구치
후량
AV
전염병
##비대위
아웃코스
배구단
폐점
박자
안재모
##DE
##오광대
멀미약
방효유
프리킥
169
걔
야스민
##225
##출액
이가영
##콘트
크라이
이범호
먹였
한국선급
정예
에레디비시
하마
히마와리
Drako
유동
##까스
##신분
games
범했
##조제
엘리오
##주봉
성적
AEK
류재현
##PAGE
우리
##장세
베버리지
유추
##산업은행
반계
신준식
써니데이즈
메자닌
정은승
혈당지수
##봉점
##감염병
최희섭
감실
##슬롯
마스카라
JLPGA
##기당
침공
이대형
조선사
관방학
##삼
대형트럭
이와세
스톡맨
##나주
##분말
무전여행
##추문
##진역
##접사
EEA
성립
감점
재시공
플루오린
김정인
##김유정
권리
##미라
FRB
아오이
##거장
보여줌
호진
전유수
신젠타
선동렬
b
CNCITY
양곤
토스터
##유닛
인두염
##무류
추상
더닝
옮겼
##수르
##★★★★)
정진석
오천
노부시게
조동희
##회충증
agonist
##들레
##간편
사올라
##이종석
##***)"
전태양
NO
##내성
예강
아메노모리
순례자
털기
술율평
300
##戦
표본
동가
##캄보
전화방
장은수
##김승재
윤난실
좌대
##陽
고반
서향희
감지기
##극동
##간소
##강의
구인난
수군
중개사
76
홍삼
섹션
툴
타이티
##임금제
옆구리
##캐슬
규정
##YoY
홀시
싱그러운
##애저
여고생
실효
리콴유
콩가
Tip
금호
든든히
수출국
양금석
이기찬
넷
피라미
##발아
TBT
최운열
##역정
##불가사의
마찬가지
단초
##륌
시흥동
버릴
보리수나무
##다우스
발휘
##첵
김영대
미사코
김보민
오리고기
레터
위만조선
로런스
752
페스카라
최형
자성
엘게라
로디
##ㆍ김
YUB
말
회초리
누구
장채근
염화
골드브럼
OBS
##고촌
갖춘
##공명
호밀
##생동
##푸드
벌여야
부적격자
아틀란테
NOS
북극성
##탄산수
HSM
##제시
공릉천
##||[]).
##from
노송
왓퍼드
발송
##삼성전자
한국영
작
돌아가
훙
삼총사
경주시
민어회
말일
김은기
이고은
##데리
##Show
서캠프
인숙
수의사법
apartment
김경언
벨트
선례
##회의장
오락실
황지훈
지안프랑코
##색이
bpd
디니
##군산
##노래
지리학
암살
치아
곰배령
##킷
##MIX
와이더
##전회
##가공품
TrES
##모빌
##건조기
초범
롱스트레스
산패
##양대
일색
백사장
길퍼드
미우미우
풀
##泉
미켈슨
떠이선
직함
명란
##6600
프롱
홍문
데이비슨
##금제
법적확신
이겨
까다롭
TNT
안전모
##345
##딩고
##블러
목욕탕
이완구
##분배율
대입
##소닉
사기극
찰스
수요량
빙
조자룡
KCI
레드페이스
##대놓고
##세균
나나세
소취
##에이브릴
밸런타인데이
평의원
빙하기
성조
##탈락
재빨리
기판
치악산
##버진
외로움
무현
김석희
종회
유길준
농번기
후륜
##남지현
폭식
만민
셀레스티
르블랑
숙
KDX
남석
법인
건식
VY
마골피
초고층
안데르손
틸리
##032
역사
하늘색
빗방울
협진여객
인대
##농가
포조
##실러
교목
##계원필경
##능감
계란말이
효림
##MSCI
MOOC
##전고
톰과
휴비츠
다당류
##포라
우스
좀머
결사대
4050
주형
촉매제
경희궁
플레인
퀼팅
전사
소해
군주온라인
##ve
##륵
##고지현
##Well
##꿀벌
##흐려져
구명보트
스피큘
원성진
Police
뚱딴지
##탐정
##어반자카파
박원상
강형준
귓속말
스메르시
愛
##농성
##여지
행렬
##제리
심경우
잊힐
스픽스
최우형
##북인
##왓
진술서
y
##사채
##공산
마운
최장
원고지
동브
다당제
김용현
덕문
##사이판
가면극
한와
OSCE
김풍
##에
대원수
회전판
하트
##계기
아파서
##DGB
스마일즈
정황
대행사
CLIST
페북
무현금
쐐기
브레데
##우즈베키스탄
election
ITER
석준
인턴
232
브리스톨
대접
Monster
##나사
비역
##래
페어리
제도
임창훈
추아
##타입
respect
용정차
뒤편
줄어드
##선우
시외버스
헌터
미나모토
##만난
정찰대
시냅스
송적
목포역
이현재
엠마우스
소역
조황
아이나비
대상
##화복
##엔드
청해부대
이시이
차급
김정성
사세
정모
루니
마한
반딧
봉만대
##효과
Kakao
##"'
##드래건
객관식
남태령
애니메이터
블랜차드
##연설자
고스란히
아레나
##적절
역의
권수
파골
킵
자리바꿈
스템
다카기
꼴통
##서동하
##제르
##1004
162
히라쓰카
레즈너
RAW
그리움
찔렀
군용
폐쇄성
##疏
##미술품
발스
안혜지
##eb
높였으며
뒤러
백도
겉모습
반야사
낭떠러지
통렬
류정
잠정
바르베리니
그럼에도
길동무
##Sónar
초란
##리브리
##메디텍
밤무대
과천시
##知
##장엄
##대나무
생산력
김련희
메르
최악
장기표
##표현식
딴따라
대극장
##량도
##코노
마장
##이레
바닥
##근속
NRA
다부
기해야
김수희
셸레
409
Bunker
억측
##쾌
##100
직장
에이린
응모작
변월수
##니코스
##어가
진지희
medical
여오현
조루
##몰리
인권법
시디베
봉성군
리바이
정유신
야나
방응
릴리
몰래카메라
예산안
손공
##×
젤
라벤더
이시은
역발상
엔도
##아영
피질
채굴장
패트릭
임지령
연하
##"■
##我
고사리
##64
##920
허영생
임이자
피험자
조립제법
##발행가
##중유
해외여행
마스
상류층
Pu
람빵
에치
효연
이동욱
음악제
발뒤꿈치
구봉서
##여과
요제프
萬曆
김관용
##조영
PGT
##BTOB
칠월
국토
##공
##公
익수
##선택
Dark
이선일
tonight
##圖
무결
땅볼
파악
대타협
서휘
유타주
##㎞(
와튼
##도우미
남상수
모토나리
##금이
예취기
SMF
응축기
간상세포
브로트
##이칭
석촌
소임
우키요에
명세
메츠
할수록
##핸드
##신염
陳
제동기
김종성
##더프리스
걸복
꺾여
##아드
##워크
서정진
권순우
이화익
##鄭
김지안
##민족주의
##곡인
협조
양갱
뛰어다니
보리
##인피니티
김광동
키워왔
믈라디치
##침해
콘트롤
정치부
##노을
노광기
##슬립
종잣돈
실현
##용대
##org
BSC
심태윤
새우깡
정무관
##크롬북
첫
허니
##我所
상신
고조선
금호동
가산금
외국어
이아손
린다우
항구
피난처
버웰
굿
당밀
오환
##경고
박태하
##네미
마침표
만성
##수납
##안살
에어쇼
##제비갈매기
포카
파래
##장난감
##측정
로바토
GRE
##부
##기의
와비
##공예품
산업
##나올
정녕
정인과
##常
가온
타나크
짜증
##강부
##유식삼십송
개리슨
##꼼수
★★★★☆
##탓
##충남
##용문
에밀
사과드린다
유후
아바타
end
일어
사이판
Days
바르셀로나
신재이
ML
쿨링
교룡
퍼블리시티
##만
##충재
주르당
STEP
대양
린코
몰라요
로거
퀄컴
윱
##토종
에서
카다피
백조
소진
화의군
한희준
##플라이
상과
연쇄
아동용
계주
##탬버린
##펑
박지아
튤립
##컬쳐
김원철
##외공
침상
핌
양예
불승
너글
언해본
##군주론
##먼데이
취재원
호로
오이스터
자도
대강
##말아톤
발주량
사라지
##친일인명사전
600
이광재
송윤
##포젠
##호스피스
##비틀즈
샨
서민형
디벨로
발한
담비
커진다
NPL
유키스
주길
부산포
XC
지오빈코
분해
턱관절
패브릭
지능화
##㎥
부이치치
진형우
이정은
무난히
성환
수찬
맞물린
최헌
히잡
노령
오작동
##디프
##想蘊
##선행
WinDbg
김성래
##최주리
크론병
필립스
##무한걸스
차고
##어서
이어질지
##군사령부
살바토레
강재섭
조차지
##XL
파이살
도함수
##컨템포러리
내립니다
물수리
뒤따르
차광렬
동급생
##머나먼
의적
반점
##콤플렉스
SMART
맥기
상카라
안내서
광배
할지
##고사
꼬꼬마
로슬린
주영춘
##가진
##애전
깨알
풀러렌
##바리스
청바지
사마라
영월읍
##GSOMIA
어선
진매
이편
나루히토
순면
애덤스
GB
OXYNARA
귀족원
PIPA
전쟁터
자료상
##차관
가담
격앙
사하이
짐승
한교
##소나타
쉴드
##──────────────────
매터슨
김지은
##씨도
식단
DVB
##상용차
##국사
강화도
김사은
EPA
##관상
불개
점심
여드름
옌타
##마광수
##송한
##맷
심의위
적십자사
이왕표
기억
정회
이남훈
차리
생성자
바이온트
##프로젝터
가가린
금당
d
##띠
today
##산체
괜찮
##이스코
견디
KV
일류
반다이
르장드르
##캡션
비듬
뽕나무
##부사장
계란찜
##남이
babies
멋진
대기근
슈
##water
보충
사마리아인
판다
미설치
뉴스쇼
올드먼
충실히
##어울림
상화
뱀부
진신
##상품권
달랐
신도림
떠난다
##시한
부분분수
미연
햐쿠타케
##텔러
모델
무쇠
닫힌
현대차
이형택
신탁업
##정망
강서우
노년
생활체
##정희수
##표도
##밀로
판매점
박유
창자
살모넬라균
GAM
서랍
새롬
스푸트니크
모집인
난간
비잔티움
##法
단항
넥슨
##우주
##키아
##영역
최경록
전경
토리
##방송사
박환희
사법파동
##각시탈
검경
충전율
##의성
##idxno
감귤
##해동
이유석
1800
차단기
임명
터뜨렸
##대장정
##하구
##이우
##교무
필살기
진혼
서인
사리넨
오화석
##혈
##준재
규암
무쿠로
글랜스
사로잡혀
진중한
정려원
##림
##교재
항전
eat
개최
##접어
##에듀
##은섬
바칠
##소구
최진수
법과
소문자
제주마
##시문
##최초
##선정
나치스
##연수
교래리
그린필드
전류편
##발심
마케마케
##가축
##1001
돌파
전우
##임상시험
신세계
요증
플로리다
유키나
임영민
정치가
정아름
게리
##페인트
##순창
##晉
##매각
##부시
night
##¡
##장미
##불로
##일밤
GEC
잉그리드
대강절
쿰스
##김래원
책
비운
교수진
할당제
DLL
##at
갈고닦
##임직
소영
간구
황지연못
유니클로
향락
현영
선하증권
대전역
위징
빙그레
파형
광덕
들어간
##대조
##Y
논설위원
목호
달맞이
안도라
설날
##^^
주기론
##이주상
한동안
알짜
문방구
신앙인
씨모
##말린
후원회
##Bad
신소연
절친
플랜태저넷
하이드라
삼봉
TLB
소렌토
##온열
supervisor
김현옥
445
##트리프
세분화
테마주
버넷
헤이즈
##화명
##페리클레스
현감
##쇄
##순손실
엘론
##사랑봉
신령
캥거루
##얏
##연습장
착점
IN
바다표범
##프린세스
##한림원
과
항공료
샤오미
유황
##산통
지오캐싱
내심
남동생
아랍인
미드하트
재허
관사
##273
IPSASB
비행대
무리요
수택사
풍남문
〃
##데빌
CDSpace
연구용
따개비
에시엔
임차인
참견
농협
연예계
##항법
##無想
식이
##스토
조형
##溫
신재순
올리비에
담길
통깨
##게임
시슬리
김치냉장고
수회
담양
##대통
가스관
최금강
##착의
##인촌
다년간
베시에르
##소년원
아폰테
##완충제
임인식
예지원
생강
영상물
지렛대
##서기관
고도
##디미방
##캄
##제복
신속
##런처
ICOCA
강두
원칙
리수용
카포네
사재혁
##이름
##진재
##오티스
부이
임금
버젓이
##교란
헌종
##게티
톱스타
##1982
##HNA
린자니
국내법
피에트로
사파
블레이자
##회견장
물러서
김수천
김윤동
리에
윤대영
김민하
이겨라
고라이브
##쏘리
##이토
미드타운
분당
메흐디
내전
마석
##용이
비극
##진녀
잡수익
섹
이한우
##┬
요시카
##묶음
##선착장
미스피츠
##유준상
발파라이소
아퀼라
조성원
고뇌
##コナン
교대
박수환
##국제방송
##諦
간경
주금공
어떨
부쉬
##◎
##코랄
가남풍
진동한
##톡스
##순영
부속실
건너온
연구소
동양식
동호회
Technology
이요훈
숀
스스럼없이
영보
흑인
이윤
이혁
문관
상황버섯
##순방
유보라
Greaves
택해
정기회
신동일
##경우
괘불도
정대훈
리셉션
대출
파킹
돈육
PTKP
##홍록
듀런
천왕봉
카산드로스
치홀트
최광근
레어
##두
칼턴
##조차
레미콘
##카츠키
김충재
출소
먹방
선택
헤매
창업
男
이단
고경명
##지뢰
훈요십조
최강창민
바다뱀
##지현
HW
적격자
##카리스
모니터
YOLO
사춘기
세이브존
상비약
##리회
청령포
항상성
여보세요
FINAL
시퍼
상식
중림동
동성혼
IHQ
##겨울연가
약사법
##연합군
205
허일후
굳건
체이슨
유전학
마이티마우스
##골마
오로나
슈와
##채무자
##교장
개혁주의
아워
중앙값
아이어
PLF
##계원
사극
Gioro
유뱅크
##ICBM
이필운
##1942
1275
코칭스태프
최철순
##자락
김자반
김성식
서유럽
베네라
한랭
홍합
##마이닝
##공각
온양
돈화문
##테더
##ε
##미정
피자스쿨
바일
##KS
올림피아
이금희
국유지
용암
##8200
최고위
복조리
##瞋縛
상서
##풍선
지동
정진형
제빵왕
##마찰
##인포섹
평로
##파프리카
유영하
오페어
마윈
0
구세계원숭이
스택
범고래
은방울
##20160507
son
비루스
##승차
하커
살맛나
##奉
조판
뒤바뀔
아이마라
##KLPGA
베네치아
##연부
##대포
레이던
극화
출중
##부분
이문열
그게
##봉이
송현숙
학군
원기준
발표문
수부
홍준표
##염화
잊혀진
설상
민정
부스피론
박성춘
이윤상
##이재상
##피알
전의
야스다
스미
팝송
북위
사귄
사냐
VMAX
히라누마
이부스키
##수디
유대교
테베스
##어치
마징가
히로키
고위급
가네
##1780
##관리도
색역학
김산호
월평동
credit
노스요크
베이컨
해커스랩
하계휴가
##강전
##일유
호몰로지
김주헌
##운정
맞선
미사곡
경동나비엔
CiteSeer
한총련
##레일
참가국
절실
부산우유
플로랑스
##自己
마도로스
자아냈
농경지
포미닛
인호진
보일러
##단숨에
##행기
란
루시타니아
##개장
##베이커
게이트
CNN
천년초
돌침대
헛간
마나카
서귀포시
호시미
##고야
유생
GIB
김강현
꿀잠
비아이지
인센티브
##수저
카베르네
진상이
각도
##알래스카
컨피덴셜
유세단
터질
로망스
서식지
서울교육
에릭남
조롱
복공
묘석
바니시
미팅
##국유림
환승역
블록버스터
장동현
바운티
센세이션
##TWICE
동양증권
언론통제
##龐
스기야마
측백나무
##암군
##무호흡
황신덕
가지마
kt
##목대
현혹
##마아
덮인
접해
세전
기업공개
HVA
##마무리
직영
DLR
히타치
배심
비명
메리다
대표인
1861
##쇼룸
창투
만듭니다
##접수
##물론
##박찬호
순금
종석
채중
경사지
EPL
타임
송승환
##트라이얼
러시
##비대증
##으라는
도량형
여관발이
프렌치프라이
다리미
독립운동가
롯데
보고르
도맡
조달환
GEE
고이케
역술
이민수
##컴즈
Mark
참돔
##☎
relations
##훗날
조광조
##연필
병살타
eSCM
번숭
건실
아메리칸드림
##수납장
##할미꽃
신시가지
##스포트
솔베르그
##메누
액센트
야생동물
앞다리
몸무게
송금수
알렉산드라
은총
##앵거스
보론
백룡
##팰리스
##라미란
빈부
융커
리이치
전횡
정청래
총선거
김종범
시시뉴
군내
마티프
요코즈나
Sirhs
윤현
배틀넷
최태호
여천
혼노지
로섬
TCPA
##브러시
들려준다
박전
델프트
인명
김진익
##;~
예지미인
고리
자파
서려
디에이
후나바시
캔디스
최수인
##재판장
아메리카노
강효상
ASIA
기사회
크리톤
굴라르
##조지아
김명
나왔
착생
방형
안드로
##연령층
유예
##웨이보
보드카
리병
이윤철
발악
람다
이미쉘
쎌
모아서
양력
닭오리
영예
발해사
안민
##oMwYOlb
파나소닉
그러
##딥
ADsP
저명인사
빗소리
##준동
셋째
Hope
신성록
김영만
유부녀
##미르
군의
황금빛
신통
단발머리
##토닉
##다로
커뮤니티
##중심지
##지킬
TPU
WCQ
★.
파이낸셜
끌려
##양세
Childe
페레로
납세
채병룡
재료비
틴트
LATAM
##묘
코사인
전초전
ERICA
직공
Organ
홍제원
헷갈리
제갈첨
김한표
VPA
세이초
역무실
전용
##튁
알린
어퍼컷
##리츠
탐진
자동변속기
##막스
서울숲
창출
한승혁
최준희
##宮
현빈
사라
##산월
홍제천
카카
메릭
달고나
##변신
홍진호
인분
낭도
에티하드
유니터리
탈지분유
릴리즈
IT
고현정
소면
##스펀
면적
소비에스키
방화복
통고
전동차
##양원
135
서부교
패리티
죽산
난이도
타오위안
장단
바둑은
테오필
##완주
방랑기
육두문자
타마라
삼키
토모비치
##비니
##월링
구난
미조
하선정
신성
##캐주얼
##앓
##품바
194
##김소희
82
##수아레스
증모
고기능성
##LIVE
카사미
찬성
아즈마야
극심한
##J
##크리스탈
거나
제조업체인
##안민석
천일창
알비
조용기
상준
##아즈
열도
아차산성
안막
##1940
##김기춘
비원
##누설
누려
##유에
##공항
강영종
##gpt
만든다
##일과
##과태료
##조물
##파인
서철
국가인권위
셋톱박스
미룬
글래디스
김성규
엘란
월인석보
피오렐라
교의
##상한제
뜸부기
슈고
##투소
##인형극
비에스
##활력소
Al
싱크로나이즈드
##더군요
파에야
물안경
ha
##선거구
올바름
찌개
##피티
도선사
예편
Lovoom
프라이머
색법
합선
train
더킨
CGT
아틀레
##애초
가와카미
황인혁
디아즈
CMO
코드론
##출석
하치조
##선거
##클라르
중공
##팔찌
장옥정
이상용
랴잔
북서
##고쿠센
이겨냈
##스칼렛
##삼봉
##가리
크렘
신차
동대문구
34
계부
영천
##일자리
좁
태백산맥
뇌관화약
##차크
리베
오퓔스
##단군
"
복어
##케트
서남
##유성기
##탈죄
축출
추위
##그릴
오영실
세일러복
##단괴
메스티소
1100
연재
틈틈이
Odisha
자유
하진
##1905
허스트
##슬픈
오역
곽상훈
업적
NS
폴리그래프
##재테크
##철강업
험담
##주파
안무
처방
아이보리
리필
##겸재
당국
삼각대
##신반포
코스피
무신론자
##집계
##bull
洪
생겨난
##jtbc
리니어
##터지
##행수
##미유
소초
화전놀이
말브랑크
##라이튼
UNWTO
이동신
정갈
해티
브로
##촉
퍼터
스콴토
리바운드
통관
##바티스
명예
중과
##某
##키네틱
##→
펌프
보트니아
##글래스
산가
아르누보
송판
우거지
##컨셉
어얼둬쓰
1612
##탐방
##국민
엄현경
백종환
슈퍼
##산연
##glo
의해
##타오
AFoCO
JCC
재량권
진액
트리니트론
동덕
호머
심치선
##혈소판
임장
GTA
토먼
프로페셔널
PSVR
바라캇
용단
달려서
총탄
한예진
형사
요령
벤지
카트라이트
##전범
자홍
신검
란초
##유기
허석호
교환대
##PNG
뇌종양
홍신애
일데브란도
안향
깔따구
##운두
##오피
##萬歲
##하사
국혼
##원티드
##엠파이어
레모네이드
교문
99
박미연
김희찬
득표자
화개
##이온
##에너지
누계
토리코
샤르도네
달마산
레베
##John
대한독립군단
제이
양자암호
CWP
판결
페리오이코이
엄효섭
MTS
신보수주의
조화급수
기우제
식
RhD
##왈라비
##문학부
##예린
방산
되살려
포포
##헬로
리엄
##탄고
김형범
김군자
투습
##이선화
램페이지
치요
차란
미송
##선인장과
##밤바다
##단정
최현숙
박시영
##최원영
##쉐어링
도다리
##沙
IOI
line
매너리즘
그치
김지혜
##남부햄
주전
유수경
대륙군
##버르
##IG
패한
인덕원
맥문동
페케르만
바이슨
##냉방
방지
##게리
##경연
##皮
흡수
시레토코
신문사
##표업
모난
##htm
규동
인수
권능
LWN
##일간
마즈
지브란
펠레우스
##르반
마수걸이
##분산
##트라움
패턴
##아트리움
##테크놀로지
랑랑
왈리
##TPP
드럼
##겔
데리다
약쑥
흐루쇼프
펑샨샨
김무기
불영사
재소자
##정수장
##신청
##즐
##난로
후임
이다미
##밤
브뤼니
##形
##개척단
라이블리
오지호
##훈련병
PDRN
MIRV
제야
뱃놀이
##송도
다다오
카벨
로드웰
##어스
CM
이본
##타비
##OIL
톰보이
##김지운
천자문
태안
years
마량항
##HOLE
충청남도
##이형성
이행
카비
이응경
##분당
흐지부지
##뢰드
김명선
발렛
CKD
찍힌
재수출
자중
정작
Kia
내려간
자위권
서기장
가트
##세스
GX
##벅스
진성호
마음속
에헤
##추사랑
게첩
신규진
푸아티에
게장
오스트룀
세포자살
쫄깃
##세무사
전짓불
김종준
우정
하리수
##두툼
요미
베예
##주협
허경옥
낙타
오페라
Reise
특등
유강남
방발
##▶“
장덕수
떨어진다는
금조
##복리
흘리
##원당
이경
##수익금
이윽고
심볼
##어벤져스
수타
위임
플라
place
오혜리
양면
국화꽃
병아리
##국물
통감부
##시인
예천
라이언스
김계영
마르티네즈
726
네모토
##추방
##다야
장시호
트럼보
서봉총
백록담
고객
뢰베
강회
황춘자
요나단
알왈리드
핀업
야경
##다지
KAFA
밍크고래
이상돈
최규식
recruitment
##한의
##금태섭
##오에스
반항
##도류
황방훈
김광섭
##13
아스텍
심정선
김부자
거문도
##온도계
이네스
해운
멋지
##규암
돌릴
나사르
##킥복싱
노승우
STEM
##싯
##돼야
주법
##그라드
##유럽
##다는데요
쌈
봉선사
##법지
PIM
리엘
##지질
바키타
전모
##커피프린스
이헌석
포먼
##딕
홍순만
side
##Iota
##니치
겸비
남희석
바빴
작용소
##思
수역
##세린
##요금소
소용없
알프레도
임정
HANA
킬트
##붐
##도진
레오폴트
자취방
명실상부
약대
이재오
##align
##정맥
이중직
##명예훼손
송달용
송홧가루
노턴
##사명
새우구이
none
##모군
##TY
후디니
순두부
이혜정
##베짱이
##랩터
##참이슬
앵클부츠
영리
##상후
소해정
##된다며
들롱
다운
##산조
##EEZ
##제금
다이스
만리장성
LP
기술자
##격인
철창
포틀랜드
농공
PNG
김장생
##how
부르
##의준
양혜원
##메리
프랜시스
단념
개똥이
양극단
##클라운
동지
##성단
과격
광주은행
##li
VB
세르
enhance
강천산
비디치
권오중
##리어스
김학송
타계
재화
##환승
##마
방폐
스톤스
골디락스
황신혜
크로아티아
차기환
##호국
봄여름가을겨울
범퍼카
조선어
중빈
##사회
맬서스
방사선대
통항
킹왕짱
정은
부동액
괴팅
흡광도
##과원
##춘재
제체
강혁
르네
우맹
회원
점안
dd
칵테일
UTV
##비마
##무슨
##초선
##오거
신신애
대천천
오정
KIC
토치
##테일러
##기포
##시티즌
##NSC
파르
활발
##박연대
##역행렬
##키오스
##포이
결정서
##경공
스풀
메레츠코프
##고속화
승강기
빌프리트
##─────
조력자
미래숲
##것
텐센트
태음인
##소문
하드
##고비
핀볼
리드미
미래소년
##베끼
알힐랄
줄지
223
인시
임현준
칫
김무성
홍국영
페테르센
##세교
##CCTV
ν
은신처
##창비
마르크스
문산
##노래방
준공
족제비
##잠식
##HB
밝혀내
임진
데카브리스트
탄착
리스보아
안배
base
찾아온
산림
##殷
라인란트
야쓰시
##몰수
기간
##변주
스캔들
슈나우저
candidate
이영이
황주홍
호가
높였
##관절면
자아낼
0311
상왕
##비뉴
덕수
봄의
하이튼
##조례
DVD
##봉투
=(
김보라
돌출
SPORTS
##프렝
중생대
돌입
라비에
구제
고명
유물론
호식
시노
왈라비
트리클로산
##DTI
담보물
##에스엠
일면
##디페
체스
쏨
##1645
도매상
918
차상
##Jump
지산
류노스케
갑작스럽
##크로머
후쿠도메
AdS
##기회
MC
국민카드
조시모
켄징턴
겸애
르위스
퀀트
구독자
섀플리
##마드리드
베송
만문
양수경
##重
##아우구스투스
불쾌지수
초대장
##도브스
김경환
##식조
9000
화동
최원식
역진
애셔
##지배
상관
##리슨
##박태환
멈춤
도진
봄밤
##판독
WDM
로베르트
뾰족
전무
잔불
강태수
##262
인라인
알케
손색
##On
여적죄
##샤이트
도노
그래프
##레버리지
사쿠라지마
갑제
Sr
##我空
팔찌
운장산
바방기다
##케나
##태을
날아갔
MEG
반다
##이타
##예비역
필라델피아
##발트
예뻤
혈맹
무예
사육사
back
ISMS
예경
Vassline
##****)",
##과즙
손상
용유
식인
아이엘
##직책
##홍라온
##ㆍ청소년의
대전의
SCM
서주경
##퀴어
##병탄
컴퍼니
part
멜빵
##학기
어혈
##정체
마로니
무쏘
##서
##朝鮮
진여
##슬릿
##張
백린
##승계
고영선
최심
##지출
물냉면
매뉴얼
북벽
나우웬
슬러그
##스크랩
베세이
##비누
워치만
##연속
이성수
운전대
확신
BTP
##투데이
##격차
오설록
김인호
##Ⅳ
발루아
##도키
FAT
로트실트
수요층
##펍
페퍼
멈퍼드
바쳐
##굄
##군감
1110
##'"
##첨가
코엔
이윤준
##NORS
카리브해
견자단
공교회
##케이크
하이데커
공융
AMR
NOAA
꼬야
아우구스트
떨림
919
보울
찾아간다
##장소
허드슨
소마
아이작
투입
김상무
아누웡
##륏
정강뼈
##비보
##해부
글로스터셔
VIH
나니와
##격벽
##조선상고사
감자
이일재
깎
권상오
선소
##병비
파스테르나크
과라니
지금껏
이베이
세원
어업권
##니무라
무안군
##민시
백수
##저리
국무총리
leader
##Mcal
쇠고
크루즈
프룸
코레히도르
강령
넛
박흥석
사이코패스
DBMS
KEA
조직도
최정희
박경은
시엠
##퍼트
##순차
바나흐
##방송학
##산학
##진모
우천
STX
아합
전용기
##시베
속상해
##블록
##°¨
세숫대야
수염
##댈
가두
literature
티소
국경일
김제
승부수
##감축
##연정
김태규
아랫부분
가전제품
얼간
쥬스
##학생
루아
##웅진
주철
변화
와카
회사원
가벼운
##현천
알툴즈
##이연
##마미
##%)&
##폭염
351
게
성어
임무
우퍼
와이어
RED
53
##중독
우리베
##몬드
쇼드
야탑역
해탈
##이미소
##JDK
밀로
(
라자루스
리갈
COOL
스틸러
선취점
애물단지
스캣
크루셜스타
넘버원
문지현
##심상
김연화
##무오
쿤
안동혁
##볼리
감흥
##퇴
올라디
##Life
HS
차바위
##출자
호비
비보
스마일
예수회
네이션
1798
##페르소나
스테파니
##61548
##PFV
동천동
손해배상
엑손
구도심
##그물
적합
##강경훈
혜림
이하선염
티그
결단
탑승객
정보통
피싱
비토리오
녹턴
##rgb
디버스
수곡면
better
T
심재권
수어드
김
블룸버그
개념
##물의
참화
비레
##켄트
심사정
##영작
중독
##페미니스트
정우철
##CoA
##의경
실외
NIPA
황재만
정주희
##탱커
유지태
모
사회단체
하우
##해원
텐데요
하하
무훈
##주역
안병용
배준영
##가도
김흥복
감정평가
앞이
아이라인
노건평
##로빈
##관사
##Whatta
이몽룡
##아반떼
EPG
조승희
천문
광물
허언
변장
##잡채
전년도
##청결
분코
##지오
흉기
차태진
##철갑탄
탈무드
##TOUCH
##Ak
단아
VTOC
세포주
검의
주식
레고랜드
섹스
㈔
핀토
##墨
##But
로봇산업
##액세서리
허브
아꼈
필연
EVA
이샤크
방명록
##시립
산수화
##AMC
##■
마충
프레드
근본번뇌
이용실
우드스톡
삿대
##마그너스
이민국
부담감
##축구팀
PSO
포포비치
스코티
조진
큐
두기
##무게
##교보생명
율리아나
이응복
소모
절토
카파도키아
##水
##电
간행
군의관
동남아시아
생의
물건
##청귤
Marry
백돌
클리어타입
화엄경
##피크
Care
##설공
##결사
아라리
몸통
위키피디아
관중석
헤르타
GLaDOS
꺼려
넥센히어로즈
XIV
김민혁
마그누손
빙초산
유식
##고안
능성
##WINGS
청평사
Babe
호숫가
##직공
돈차
런타임
카도카와
누베
##바비큐
크루핀스키
창세
##리리
##FA
봉합선
탈퇴자
##작곡
카티야
군산
의심증
어김없이
메나
행크
##잉크
페퍼톤스
양사
VX
##환식
유축
이피클레스
##고트
양승윤
경윤
신정
페이커
소비
##속초
##천인
고층
싯다르타
티오피미디어
친애
차이잉원
ISU
행락객
리사킴
효창
=
서법
전투모
핵보유국
##IDT
세이렌
평택항
##Gper
##폭격
##야구장
액취증
킹콩
박진만
##소방서
##이까
임재
##베르제
VC
NAMBLA
가돌리늄
Gwangju
에버그린
##昌
프탈
오즈
##이중
##자음
르동
조종사
##쉬스
콩잎
##무두그
MH
보안원
##牟
보조
##맹사
##상소
이동우
대치동
생긴다면
장지수
배서
##리아노
##리어드
서현우
Out
자연주의
Repo
##존자
고운사이
##쟈오
부스스
보급
##홍어
동개
야나가와
북극여우
부서
윤사
니알라토텝
##교차
페드레티
##요청서
JLL
##가
##입영
##일까
유정은
클라이드
윤성열
양재
##메디
##><
##부대원
##본다면
셀소
통크
척추염
방증
##프랜차이즈
바오안
##강교
치열
시극
판카즈
용접부
용준
##지위
적개심
온다
Oxy
초산
탓
##캣츠
##소파
##기무
상류
##김해경
최익진
##키움
청린
##가족의
소대
로큰롤
전유물
미쿠니
함흥시
한결
치료실
##컬투쇼
연마
세스페데스
분장
통일교
UWC
document
봄철
꽃집
가래
신법
들여놓
하강
FCN
사실
신선육
프린시페
정규군
롯데월드
중간고사
아티야
##조폭
인두
명당
빅토르
##탄력
선언서
헤킹
완보
any
효제
015
much
##각국
카야코
이홍
##블라인드
##인민공화국
김오규
##양청
question
포사
시황
생존권
WB
신호위
로쿠하라
강연
숨진
##부적합
##해경
차폐
홍정희
미헬
Ezra
IEA
이을드름
##김흥규
공공사업
금호건설
석학
iframeResize
신저
박제
엠투엠
##부회
##Operation
포용성
##정원사
##균
탈세
##회원권
이변
다르한
백운대
변화구
카센터
연강
##령실
##그립
1953
##경조사
##48
##실과
교로
준
##시도
##금수
곽성욱
잎담배
정신과학
##사토
공실률
##春
전민재
야마하
##보통학
팔레비
장난기
죄송
참주
신사임당
##친위대
펜토바르비탈
흥겹
##UJ
##표범
치태
##공교
##****"
CFP
레이피어
위조병
항해사
장태유
강팀
불합격
전실
경봉
##패스트볼
Daegu
319
##아웃팅
타케노리
배영
담뱃갑
매스컴
보카네그라
으
##처방
##구조법
끌어들이
##arguments
##본이
마신
시나가와
우량주
Ma
해양
급기야
들뜬
CDP
장영수
센텀
고메스
##약수터
유영구
##700
룰렛
오슬로
천정부지
##스턴
##수요자
##祚
##호프스타트
측정값
문경
몰리나
here
빠져나간
##선판
##판장
##감지기
##조찬
바샤르
숀리
염상
다녀
시로스
간세포
정원사
상황도
연타
##주재원
##전도사
증시
김학주
파고드
북예멘
새의
정자동
군것질
##해맞이
쿠알라룸푸르
전기
##가시
보인다고
##산위
555
##금
##캐나다
이태리타월
설아
시일
나선다고
꾸며
##해져서
항케
김병춘
##20160408
BO
베이루트
##몰링
선속
##점박이
구텐버그
##2020
삼층석탑
##호빵
##왜성
▨
TLX
퀑
##테보
상쇄
덕태산
##시관
설원
##팀장
톈진
##계의
##VOD
올림푸스
##쿠보
되
##이스
##편식
옹진
췄
옮
북제주군
내편
들로르
##알리바바
인내심
타일라
인경궁
YPG
이호성
바나듐
커즈와일
계원
즈베즈다
옥소리
Your
용하
이광호
리영길
던스트
비락
크루어히
세일럼
##스타터
격납
친선
##소체
ACN
##망물
강사료
##홍석천
##EZZ
칼뱅
투투
모닝
모닥불
서근영
배분
홍철호
외사시
우정민
경제특구
변해
노샘프턴셔
지주연
##제제
다몬
법상
피천득
VRT
전자파
최우진
유동열
##척
남북한
##황제
주준
승강
##√
났
음악극
아나스타시
꽃미남
대지비
카슈미르
뒀
File
회현
옷
##Act
PTT
##윤주
롱펠로
벅차
##神社
##어야
##테이스티
유강
기타
험멜
##경보기
##보호구역
##순상
이동진
축구공
THE
웅취
도축
북청
곽정은
윤대
윤기원
컨트롤
승전
활단층
##%&
798
##ETF
세대수
5800
외과의사
리믹스
호한
한미은행
넥센
아찔
우피치
##견직
##수사본
반선
##계령
##엔큐
켈로이드
##온유
닭
로로
##세미
##수탁
##라만
삼성사
놓아주
행하
Horch
신정부
페캄
##중의
스텝
늑골
이신바예바
노사나불
포로
인지
허균
##매개
량현량하
신종훈
STEAM
고열
무네카게
레건
꽉
만수르
##유통점
즉석식품
##양부
에지웨어
##라우프
불어났
정취
DOS
원피스
동도
도호쿠
들어선다
수용성
구로사와
##deepmind
육상
곽진
##村
##510
담그
##쩐의
##부메랑
##荀
신현권
조향기
엘비스
김익렬
##고섬
##솔
대신
판검사
##봉사료
##조합원
##큅
##FFG
##파퀴아오
공과
##레시피
배출권
문종진
블레셋
##꼬모
유남규
##벡
계급
##복수
TTP
최아란
임영태
톡스
런던탑
객사
일제
전혁림
대당
이미연
##로럴
##평포
헤마
##상실
##림프
reproduction
##ac
감면
##환급금
비결정질
아르미니우스
김해
##상연
니시우라
##지지자
박혜리
웅진씽크빅
##교종
양도
고쇼
배우체
##오르간
연희장
돌덩이
채워진
Maybe
##비츠
빠듯
##화인
경력직
하우프
끼워팔기
송지
##미견
배제
육회
돌아갔
핍박
용산리
도움닫기
▷〃
보탤
고별사
밍크
mi
##즉
준공식
유한준
강리
김선혁
명서
이찬우
콕
아브드
##필링
##유방
##주간지
궤양성
이재만
##이큐
봉천리
향온주
##912
1992
유계형
김석기
네리마
순찰대
##*.*
##165
수라트
이선호
손모
##노후
한섬
성무일도
출판
##검무
롱주
태진아
##씻
##총회장
##리모트
불러일으킬
쉐
기노시타
스토퍼
증거금
히스테리
쟁점
och
피피
주부
스트레인
괘씸죄
코르테즈
정책
길렌
비자나무
##활물질
글자
망국
동의
도로포장
경대수
환계
구조금
김강훈
어미
##독이
가르침
폰시아노
지하수위
##파디
신정론
##강습회
폴루닌
콘덴서
오스터
알레
월강
##joyride
도서
Nova
covfefe
고성장
│(
##토스
남매
판스워스
유카리
사해
낱개
자행
동아일보사
꺼낼
황비홍
우상호
##일대
EUROBEAT
##昭
조진웅
일명
슈워츠
열연
##차저
##여덟
##윗
류큐국
부천시
모노이드
심천
이일우
주철환
성냥팔이
비데
##잇비
##생존
##인물화
신사동
뇌
맥클루어
샤킬
김진희
프라이드버그
골잡이
녹두
인디펜던스
신문지
프로베니우스
에드가르도
진인
판식
이영욱
042
##선별
##웅동
김행
SMS
##작범
티토
코오롱
시그마
퍼질
Li
장마리
##로스터
모리엔테스
##藩
메자
##개설
푸둥
맞춰온
카스트
프리드먼
후트
룸펜
채은미
자란다
사우스다코타
두란
추티마
SHOWDC
정탁
SJYP
##아이캔
더우
국방위
우량
소음
운주
70
로돌포
살충제
##상업
건전화
DTS
##현대모비스
##웡
영원
폐정
WKBL
보형물
VVIP
홍종우
##Fi
##틀린
강의실
사고
수막염
##우허
전무후무
김중업
빗물
노브랜드
인멸
생디칼리슴
##청년
답사
초봉
애플렉
레반테
##하윤
퍼졌
샤오시엔
불치병
조직법
APO
##352
음용수
##두께
suit
심경
##문인
영실
##머신
KMEP
노블레스
군수
겸한
바닷말
데스몬드
육군훈련소
##ICO
청정에너지
##신부전
##봐야
##재즈
차오쿤
박민정
문막읍
이석문
##호두
Call
##팬다
##바이스
##520
Janeiro
##네이션
##유탄
##역량
요구액
그지없
##스트룀
##생계
네슬레
##주무관
권석창
김보미
회오리바람
콜롬비
장희빈
강기훈
##단체장
크라운제과
원스텝
셔터
##광동
피스크
##델
##****)”,
##옵션
모택동
##작스
워싱턴
쪽방
이영환
빨리
버질
SEOUL
##샤오훙
장세욱
버지니아주
활
틀린
##브리튼
##호분
##난타
lg
왕유
##카메라
사그라들
##8600
나빠졌
란도
릿지
곽수종
카나메
Liiv
옥션
즐겼
속편
##사령탑
##대여
선암사
##김밥천국
##장범준
윤태범
##열심히
##권은희
전택궁
잔여
부담없이
##대혁명
피보나치
##만들
장포
반사재
##나르
굉음
##BewhY
최성봉
##마스터플랜
신여성
인지부조화
청호
소년단
밀치
NCSU
##라식
송기창
안티모니
공소장
##범인
침체기
쌓았
##버릴
서든
최현욱
최동환
지배인
##매수인
##썸남
프라임
VCA
얼
유청
##€€
##구고
농지법
이연제
##걸어서
라면
박재란
이지스
##음편
blue
베유
##사청
윙크
김동섭
희서
붕당
이동은
CKCC
##키다리
##드라이
##%;
조지
승부처
잔뼈
김지영
첩
이건욱
신안군
한지연
애용
박해춘
##페티
##La
일개미
##권익
원피
##현
현주엽
##콩집
MOK
옹기종기
누트
길리안
손영준
의약품
코니카
에가미
강웅
##마법사
포핸드
PC
##동해
황규석
이현세
엑슨모빌
방독면
815
이권
##근신
체더
컨셉트
##HIGH
하얼빈
##푸른
##축가
김처선
냉동기
ULA
무담보
플릿캐리어
가능
##합치
정종진
연근
고기술
연예정보
벽란도
##박사모
##%)│(
애커슬리
돌다리
##처
##호르몬
좌석버스
##티볼리
##신봉선
조동걸
##WORLD
##오츠카
유잉
정운천
캄브리아기
사섭
문래동
방도
##영심
왜건
프뢰벨
산화
##녕
액시온
홍경래
금민철
최원태
보통주
TPS
이유미
달라이
내자동
THANN
퀼트
맨스필드
##typeof
여울
영훈
##레인보우
내독소
금년도
경착륙
날아오
##’
고문관
대납
공작령
##까이
시프트
미워도
보롱이
##특혜
다와
광학
전열
임강성
곤지암
##왜곡
육전
운전실
석채
##부를
임지은
자부심
미혼
죽이기
##塚
요금
FHD
아유타야
명원
##윤영찬
프로세서
##한의사
##주병
맥킨지
분류기
##린카
보수동
부고
##진료소
해군사관학교
무협지
아공
##베르니
우스터셔
열한
##중씨
강타자
아흐메도프
의대
자코브
안종범
수입액
기항지
니더작센
모방
##영암
##콘서트
##합니다
어뢰정
수구레
원윤종
SAB
문봉진
유승민
이대헌
##봉환
소터
시절
두에로
방역대
박정근
악재
답글
창민
그리브스
달란트
칼린
##테마주
송신소
##항문
소식통
05
괭이갈매기
윤유
퇴임
서모
아닥스
이승재
담긴
지진
##숨바꼭질
물밑
사익스
길상사
과적
루브르
포블
별동
##DPLEX
##댑티브
##카드
서먼
488
폴크스
애플릿
남접
프리퀄
딜
%),
씨방
태평양전쟁
동건
ASEAN
##AOA
##반부
율현
각설이
칸국
##율
여민정
저상버스
상지대
그래피티
던질
송수빈
##유연
꽃
하메네이
cleaner
농심홀딩스
##815
날조
셰리
스페어
##번의
저의
원거리
타카코
금토동
과달루페
김성진
##바토
은박지
rain
##viva
코크란
##인한
##갈리아
##천사
라우렌시오
비칸데르
슈어저
##브루크
박진태
호먼
▲ⓒ
압수
##스러움
박홍이
HMR
##靺鞨
##우샹
컬러리스트
BOJ
##싸리
##혼설
엑스터시
남겨뒀
가래떡
##겨울
##대학원
오상식
역슬래시
실사
τ
섬라
황역
아슬
MTF
##홍주의
현송
소년범
트럭
산토
오승환
청학동
직행
김생
##티아라
최민환
215
리턴즈
뼛조각
음이름
오삼계
##특수
손색없
이회영
휴잇
박준태
##史
요란
##칡
철저히
눈빛
이어서
숄더
함석
연결
##욕천
플레이아데스
노르트
##양자
##화음
黃
셀룰라이트
##담즙
유부남
컨템포러리
##갭
CPSC
##지학
플라보노이드
##페녹
##청서
매향리
##테크
김상철
남윤호
##AI
cultural
발라스
Got
##곡성
파사드
리우행
포작
이현욱
##수설
##롬
이오케
쑨원
연료전지
놀라워했
훌치기
판매가
타슈켄트
##특정
솔잎혹파리
스미코
##신데렐라
흥
마스다
강유택
##Wish
동시
##곶이
도로
DaaS
알갱이
##파수
##xd
##永
윈도우
오거스틴
잡
비클
##편차
##커플
마이오
만국
무심코
##장위
1928
하기스
왕배
##덤핑
핵전쟁
득표
##UTD
Zastava
한조
지울
JQT
##보령
##체식
##스기
진산
몽고메리
둠벙
재검토
##停
몽우리
부잣집
미애
제주
살만
조반나
코랄
교학사
포메라니아
저술
시뇨
##물건
##냉정
알제
##사리탑
275
##실리콘
기미
홍영기
영생
캠핑카
320
##그레
주머니
미드필더
스타우트
사소설
조종석
##이오티
BLK
딩
김학철
권오철
MOAB
김봉곤
##박신양
##자제
보지제
##입학
녹두전
이인용
판화
##판도라
김재하
기프트
레즈비언
이유로
필재
박범신
고온
##주운항
##ᄇᆡ얌
비교
우창
아흐마드
확대도
Apple
건졌
##가펑클
마날
최욱경
##달콤
목록
##산타령
제물포
사찰
요다
죽력고
##서클
김조한
댄스홀
코라오
##그란데
명왕
##보존
##리야
앞당겨
##재기
##동맥
##일동
주안
주아민
혼동
##장태산
##중개업자
사시
##외국인
##STX
완간
캐비
굳
##니버
기업어음
사도닉스
like
특허품
임영규
피렌
여불위
이미숙
익호
김자옥
##해가
##심사위
TAZARA
이오카스테
CBS
순시선
UHV
SUPA
조연출
##폭포
링크드
홍경표
모여
##NGO
안할트
##閔
제이엔
맥도넬
야마자키
##금갑
사마란치
심즈
##우분
김상희
이스트우드
Jazz
##÷
윤성효
##공모자
나철
##소방본부
텔레마코스
복시
##일무
Rc
phase
린네
##파선
ALCS
미나마타
##토바
##아어
##position
승리
ICU
증정
이수도
노림수
팔로우
이해관계
##외무
유정현
총참모장
바르트
뒤엎
김유빈
배추밭
동적
##엠티
##루메
노랑가오리
##송환
각역
violations
만행
##클룬
풍파
바예카노
송요찬
소설가
챈
멜랑숑
디보
김기웅
##파업전야
산신도
서울산
에오세
채리
흑색
##羯
날려
**
전철
시간대
밸
신정왕
##성형외과
미코노스
##늄
##진남
교고쿠
출금
삼민주의
손미나
공여
샌드박스
##호사
랭킹
귀감
##시마
평등
PKK
##강연회
아래아
블록체인
거듭제곱
어려웠
질산칼륨
여객철도
이태경
##각화증
##불노
뉴멕시코
교열
get
영감탱이
##치카
룸메이트
김지향
공손탁
##리호
##여진구
안방
가까워진
개별
멜린
##파동
대환
아가토
신권
##투표
료
일지
영화사
할미
천안축구센터
이에카네
발톱
caption
##시야
라이마
건립
##2019
##진입
석시
문정인
CGV
나오토
신자르
수학
휴회
##초음파
이구아수
달비
신당
↑)
보관장
시금치
때리
일격
린스
루아얄
가스공사
로우라이더
골절
재밌
승랑
##서림
중국집
황치열
든다고
알바레즈
##사강
밀리건
찌꺼기
카무이
##토끼
부신피질
루즈
부글부글
청년층
##마련
자판
수막
박경실
열소
##양심
식모
박소영
짐바르도
##통닭
##농산물
이상해
KTF
소장
서자
이승민
##향후
프로시
##토성
테
그랜딘
##더그아웃
기동민
##메이산
혈당치
최우혁
조용
내력벽
시오엔
질런홀
쿠미코
염증
명령
Valley
아동기
##부경
##전관예우
무단
쿨톤
서커스
박흥주
##쉐
드베르
행낭
##ㆍ승점
##트라프
##7200
dreams
대홍수
아빠
##설희
홀든
시골집
짓궂
남월
롬니
##The
도이그
##ɛ
낳
쁘띠
기괴
챔버
횡령죄
11
ㄱ
만평
##이선명
여의동
브랜디
코롤료프
성장률
비관론
객잔
##구축
포상금
항쟁
장송이
케테
q
##글쓰기
##수처
조성택
없다
휴턴
##u
히카리
SCO
249
말없이
동공
티라
##코스트
김기성
##하우제
청성
냉풍기
文
##우표
##iOS
힘입
둥글
##만능
귀고리
충족
태금
은존지
서거
징병제
전남
박상우
세분
달라스
동요
이성진
강도다리
##곱창전골
트렁크
##공연장
바오
곤돌라
shy
##사관
##시사
세정력
목선
##라고도
##대변인
㎡
심강
##작업장
박태석
던진
크로
##스승
신경수
진옥
퇴직금
##광속
##평민
##BNK
만주국
##-?
다카스기
신장병
내몰리
영사기
김창배
애너글리프
피에드라스
##스펜
스트로크
쇼크
뒤집혔
공원
발토
##EB
##대박
물러가
면세점
열의
멍멍
##;’
맞먹
##대차
마티유
그레인
인터페론
큰개자리
##ß
##평등
재료
페트로나스
홍위병
라파엘로
비서관
조디
##師
##　　　　
##색인
##반짝반짝
집진기
##공사비
조현재
우마로프
시운전
성관
책가도
브뤼셀
영월군
어반
명민
싸웠
팀장
야스
music
고자라니
어깨동무
##?
##양곡
신도환
소행성대
DJ
287
HCR
속달
아소
대부분
레이저포
GEM
##로크
쑹메이링
몬
박정순
자랐
##응웬
##인당
사용자
결근
레오폴드
시가전
##로이
##뽑
##등장
채굴
아야사토
생동감
상배
트레비스
태구
희수
다케모토
미군정
##재림
##개정안
○&
##여충
고전주의
브레넌
반인
주의의무
최지만
Fantasy
보나르
크리어
헬레나
키드먼
아이누
인코딩
복본
##공산주의
##에틸
SIFI
팬코스프레
드와이어
##감성
""
##신부
##라타
원권
##출자자
오염물
자연환경
##표제
최희
##티오피
##류준열
돼지고기
바일란트
오클라호마시티
줄거리
이철수
민수진
##데뷔
이선화
춘복
박력
로켓탄
##양호
특가
제주항공
신진서
택멸
곡비
베고니아
##괴
막사이사이
초수대엽
다다히라
강아지
##모연
상고허가제
기표
지카무네
리소토
##즘
샬
Chain
##루팡
##00017
불빛
##여석
##공영주
최사
곽도원
Exx
전윤철
흡기
테르툴리아누스
실내
조차
싱클레어
##국극
나트륨
최인호
Coursera
set
수세
울
스튜어디스
##歌集
VI
##닥터스
바이탈
##무더위
경선
에프엑스
부담액
##맛의
조모
브라헤
TFBOYS
##어름
##타우린
##이상엽
인수아
르펜
북카페
관리인
칠산
고엔카
정할
신청인
부엉이
##매사
질서
애너벨
이영은
손길
##김선
닷슨
박윤식
연출자
##캘린더
엄밀히
투철
KGT
장점
공항
##모씨
감정인
체내
##조망권
어거스틴
복족
##장벽
울트론
김밥
소득세법
신유학
##눈덩이
일부다처제
야마모토
노두
발라크
다연장
##시리아군
구들장
두터운
코넬리아
매니토바
##콤팩트
쇠약
발정기
TTI
FreeBSD
엔터
유석영
##이어폰
##인터엠
장려상
남항
##表
##무안
##무상급식
##국어
법정지상권
:
##전주
위약
영제
않아
테메레르
##승용차
역삼역
##모래시계
쉼표
현충원
류현경
모인다
송남영
전도띠
##스피드
##신용자
글감
눈동자
편수
히젠
##비속
미
권한쟁의심판
##순도
수서동
##PlayerSetting
##레기
##강청
여문
기보
##전태일
##노루
##외설죄
##핑크
Paulo
##줍쇼
켜져
철십자
##협대
응원가
우월
도축장
##오단
시완
방계
총칭
스퍼
##Park
##Shaped
##TF
지루함
강예진
분해능
무죄
자택
##질서
##선발
메종
쿨리발리
문중
불라드
위로
##빌드
##수복
border
에반
강태
##식도
JFL
이경은
오우
수하르토
법륜사
산발
##뒤
지프
신봉선
에릭센
영혼
##수퍼
ELM
et
뿜어냈
극작가
양비둘기
날린
장병
##최경환
##여수
##실천
참회
줌머
구마모토
동의서
군화
기부자
##시린
MTN
할인
누웠
##6800
원더걸스
##승모
못지
##애쉬
##만부
김태경
행한
끼칠
지상
유프라테스
네이피어
다크틸
튀기
이두황
레겐스부르크
숟갈
HIAG
다니엘라
후투티
오수진
컴
개회
옵티머스
메로페
로블로우
정지나
##메디아
양경수
Dae
엎드려
계몽기
안양시
김흥수
염화수소
숙종실록
##비씨카드
휴교령
##ALL
##랑가
궉
김보형
들어간다는
아르카
우문화급
##조화
##고세균
##함바
##지초
에이젝스
인사이드
##환율
##$(
알파걸
루핀
시정
세이무어
##트레이더
해명
##에티오피아
진단
빈손
##베르토
퀴몽의
애버딘
향약집성방
혼인
신민회
가대
브리기테
순국선열
마이어슨
김정환
퍼스트레이디
서브
KDVA
##8010
레반도프스키
캐비닛
풀럼
##돈의
##대사산물
원무
##파시
인기가요
##斷
탈놀이
크레이스
##어의
##제사장
##야가
KSP
꺾인
핫샷
심성암
##싸움
##연구사
##;"
##출렁다리
##의뢰
##RBC
가와고에
Pass
볼파크
버치
드려도
국제여객
충사
##균주
각급
fdisk
하비
퇴교
##예영
##불독
권준욱
김진화
마리치
##페인팅
황대식
봄비
고립주의
벽제
##정비창
##自在
물뽕
##¡°
박장호
완결
임모탈
##모하
##쿠닌
화의
선본
펜듈럼
##사우디
귀인
모낭염
Nirvana
##소집
##오비탈
파넬
라이덴
튀르
임태호
브라
김일손
##승급
##mt
##mon
노현희
비밀
##지렛대
##개인
사세보
이정해
새마을호
SFIO
애드블록
##초의
이강덕
Association
미카와시마
아르마딜로
##침례
##회피
먹통
##광무
티키
##벌레
베이츠
도톰
##허그
BTS
##Beijing
오승범
유대치
##술대
content
김현태
밴더
##탕탕
나이키
##틀리
뫼즈
Lee
##IAAF
곱하
##레커
##헝거
나상욱
##돼선
권도
싹쓸이
정릉천
##티아민
당혹감
마지드
휘트니
##융성
붐
193
평의회
까르보
삼세불
Nothing
위너
표적지
상비
욕구
씨름
아그리파
죽도
백도빈
자랄
민방위대
최석영
옥상
박시후
##주권
갓
커져
##法部
특수
심권호
최정숙
##싸구려
용돈
##동명
뭡니까
발사
##더럴
석축
##레
위증
토백
##소매
난독증
유토피아
솔방울
##자와
홈
도철
곽태휘
수매
##불면증
에밀리앙
##세인
루팅
템플스테이
고농도
알레그리
로렐라
보답
음모론
프로비던스
##고로
유지민
어려워졌
##라이어스
##BUY
접신
스트레칭
##로셀
철우
폐쇄기
갑사
리웨이
##친수
병기
절연체
병역법
문재
아르튀르
산더미
디와이
스페셜
송민형
내린천
비안
reactors
오마이
##고유
에리트로포이에틴
마셜
건문제
왕치
목곽
##정차
##곽정수
아웃렛
WMO
무가
김늘메
★★★
반주
동아일보
바로스
루가노
김지성
가이즈카
##티브이
직업성
도츠
요망
슨푸
나영희
##砦
콜트
\
former
조르
김봉연
특쾌
염천
항력
韓美
패리시
지리
암산
##지고
켈프
##사별
##었
##銘
소목
간레이
신봉
적중
쏙
##로맨틱
##투란도트
강동
양부
정상부
신디케이션
우예
정당
##보검
베네치
##공공
한국가스공사
훈독
##맹원
##對北
숨겨
구다라
박상기
만담
##노모
만토바
보살피
박주영
연평
볼든
비켜
이동발
##이식
원내
섬뜩
##동거
##마왕
공격수
tale
귀밝이술
##완벽
##메카드
서남원
베티
##5800
##광해군
경계
##개최
기탄
비열한
##소형
##폭스
도안
국산화
사이안화칼륨
##왕상
##은닉
흡혈귀
해결
게라
##크세르크세스
중지
태고
##반찬
표차
##배우체
해킷
발갱이
시나이
지수
고연호
##식
리더
##박수
젠슨
바이애슬론
information
기억술
계서
제압
헤닝
겨누
##풍기
김민교
정혜진
감별사
자립
저체온증
볼퀘즈
벨베데레
라이카
##소와
##고통
헤이스케
##경찰관
프린스
##레스토랑
##방형
##이젤
##호에
이정화
류우
나가사키
베르트
##ㆍ중
선거관리위원회
커플스
과한
158
NPE
이동점
1971
##백자
아민
아토피
##촌의
북미
접속
요압
치밀
1597
앤틀러스
쟁의
누에보레온주
리쿠젠
##법무부
윤종오
유원상
로닌
임성미
BB
##KISA
이동보
##서에
##산천어
##조서
윤주태
푈러
이명직
범어
##사재기
##향우회
연산
##국악
완벽히
##구증
트랜잭션
스쿠알렌
등유
##수호
조갑경
주성욱
노라조
##싸이월드
콜럼
##지니어스
김갑순
암리차르
이창동
##섭
정차식
##토크
레스닉
아르티
WBG
물렀
유쿠
생명
##구균
가습
비약
전노민
둔촌
길재
손병석
로시츠키
##바둑
노원구
석정
백운규
##안
관세율
바래
휴고
289
박용하
익선
고후
그레이브스
##245
포레
##로울
공중전
수하일
Amsterdam
어휘
##다리
소칼
##국을
감세
닭강정
엄항섭
##아파
##백의
##~?
귀빈실
이요한
##동두천
부녀
##꽃
##非
문책
사제관
##i
나루미
노바
##취의
무늬
조반
##학년생
김우형
##연락
##마뇰
##쑈
##BAT
여덟
석화
코니어스
고속도로
우선시
←
힘내
##동복
퍼징
GSH
##ㆍ해병대
브레머하펜
아머
서브웨이
김시곤
##소비재
복단
일체화
바람직
##교과
한태진
왕릉
한지섭
용병
##시라카와
while
디바이
quam
발뷔에나
##相續
목조선
cDNA
플루미넨시
최민식
EMBA
김병만
##솟
원성
CFBDSIR
길기트
헤드램프
기라성
김수남
파괴자
##과잉
방화벽
##일죄
완만
할렐루야
##넌
윤철
##기부
간질
프라이스
##평상
유루
조대환
##퓨터
강간범
최황
음악
흉부
FMD
yu
웨스트모어랜드
옥기
복약
라디오스타
제이세라
비르지
##도령
##로틴
유우키
세야
##복면
구본창
약수
##文
##미용실
##³
KF
로스만
##주적
액설로드
도매점
역설
박정배
김우람
##콩
##포진
##연화증
서태지
경자
##기타
냉철
류성룡
상수도
랜딩
아사야스
##포사
Matter
##12
최신호
근해
주니치
성찬
케이티홈즈
아이기나
##공정성
허송
김구
##특선
피츠로이
근속
##투표소
주무르
트로츠키주의
일러
찰가자미
##심리학
수난극
청등
냐짱
소방수
##이승연
박종석
##배급소
약전
##고리
칼케돈
파비오
심계
가슴지느러미
이석우
재가동
##기발
테네스
특별영주자
되게
변사
왕혜문
타케루
##민관
##텔라
승선원
OPCW
돌체
##ㆍ간병통합서비스
##중견수
##敬
##근로자
##공기
불찰
##태
##대소
##난지
쾌
리베리오
##리기
##열전
##미터
덕화
벌떡
일곱
박보
##카라노
KEF
##RA
솔향기
감수성
불평
포인핸드
미도리
##우량
자모라
##행사
VOC
Objet
김옥희
직무급
##train
##신년
목전
농부
사변
유영두
##이재훈
원전
globalValue
##노르드
사탕
무민
태백산
왕페이
##풋볼
##디스플레이
##권성동
투사
톨
그레그
홍아름
김사훈
다도
뜬금없이
테러리즘
결합
##영서
##—
DSEi
고르드
##반도핑
간주
방동리
##담사
##삼성카드
수원교구
##造作
##노임
골드먼
최요삼
##성심
신중현
콩도르세
섭
숙박
웰터급
베이커
##***),
##페퍼
TLD
경계표지
프랙탈
FAQ
배우
바로우
의성
캐슬린
섣부른
##스펀지
쿠얼러
청개구리
아누라다푸라
검붉
오영란
##TL
보조군
넘어온
원망
설옥
##천부경
최수아
모사
국왕
##웅포
환산
이자나기
정기
##테너
센차
##보현십원가
불온
닥터스
선결
##공저
##日報
왕곡
네이멍구
부견
##인먼
##235
자코메티
대한
이의정
##총선
##탐
이해충돌
이성헌
재경기
##차주
##慕容
금탑
메인이벤트
##SJS
##라인업
##선체
동재
석촌역
재니스
##운동
세밀
신기남
이엉
김종만
색인
##prime
아나트
동티
##초계기
반대론
##』)
육질
意
전혜숙
##김남일
채찬희
비각
키클롭스
멤
##상황판
헥타르
셰
라말라
##일로
젠타
뒤처리
바
##투성이
초회
##나탄
홍종찬
사약
판석
##바레
윤종록
##FS
디브
##국토
조달호
릴링
독발녹단
엠펙
다큐
##도둑
1932
##방용
##경제육전
자연산
이명영
731
##시리아
##금오
FTAAP
서유기
캐스
파이
웹캠
피했
##speed
##30
개교
##곰소
##직교
예후
##포니
##필러
바가지
권재현
본궤도
모작
경정비
##CT
##렉서스
간미연
심왕
윤성일
이건용
분납
대주교
광전
훈포장
황보
친권자
##보처
감염
방송가
해빙기
결절
##퀴진
아방궁
314
이주형
이경수
가즈오
광동
##처빌
원금
##佛敎
하극한
##해와
주주
최성원
침략자
뤼크네르
DIVISION
명군
히로
잠실역
로튼
윤상
세목
단복
젤다
멤버
##갈치
##=)
부민관
숙희
팔복동
##피커
지우산
##도엽
4014
질감
남벽
페넥
복덕방
##정착
신효
##셀
자이로볼
Foundation
##학부모회
장목
아쇼크
##씰
반정
플루토
카울
##음수
칼리드
##터너
코렐
주제가
사카가미
홍현희
##단부
##소카
세액
WCD
눈물흘림
등산화
세이부엔
광저우
정파
##내총
게토레이
카포에이라
건널목
청통
모제스
해즈브로
문희경
포에버
##EUV
아베이루
남해화학
움직이
곡예비행
네모난
##상인
이승조
##류관
##그레이디
이천
보건소
##자기장
알마시
종소리
버금
##민간
피에타
##바크르
옥추경
아깝
도열
격정
후강
도넛
##르소
녹여낸
거닐
IAPP
생매장
##政治
##蔡
중전차
##김현중
##쉬리
맥도월
자미두수
성세환
##아신
##오드라
서태수
##잠금장치
915
프로톤
##누스바움
##레드햇
USS
길러
회기
김나영
미묘
##정리기
김미현
수행자
예이츠
필사본
김수빈
마우리아
TTL
##리모
조인원
터뜨리
ZFC
멜렌데즈
##아원
##장기
경무관
체력
##탐상
포옹
##%)#
##WITH
홀트
##도자
리스프
광선검
생겨났
활쏘기
축구팀
##맨손
파니
이포
서두원
오규원
구더기
##Billie
강정만
물물
총성
차저
##금품
##귀정
##토
##°€
바잔
배표
다중
만화방
휙
켄트
##<>
##카르멘
특무
##예프
##기병
##CNO
##보름날
Sciences
##南
구지
##찬란
##산국
진제
LSE
튜닉
이종걸
##클리닝
##인센티브
광명역
끼어들기
##능자
이슬람
##오토
of
발레파킹
##무과
외화
완득이
아이언
망건
##다가
APCS
지질조사국
손상대
하시은
정했
저먼윙스
##과세
리스트
##이충무공전서
박해진
성시경
그걸로
##雕
##선문
9600
쌩
크레이지
##에디터
호러
출하량
민변
이승호
김선규
지도자
224
농포
복실
##크리크
##IP
김능환
##리덴
##빅리그
사산
##박열
##▷㈜
홀리필드
라마야나
##영양제
살펴
클레인
##군집
IX
몽생미셸
##회수
조승우
##포교
##필요
이양기
추근
##전단
충수염
##하위스
강승호
마쿠하리
택배
한다면
막
##개정
Bizniz
어른
엠버
##신문사
은근히
아자리야
생말
열려
생텍쥐페리
설렁탕
##십자가
등갈비
##세유
발원
양철
다스
벽돌
현악기
##양지
요시테루
WFF
무제한
두개골
조갑제
##백은
바알
앤틱
부재
진노
오르후스
올란도
묘지명
홍상삼
##소판
수택
알타이르
결산서
고고도
중농주의
오카모토
오엘
##뉴클레오티드
Dead
아카시
이상
종미
##버력
스트레인지
##아나
강소연
##".
바이오웨어
윤세원
치주염
주기장
엔키두
261
시낭
##입경
신청서
틴틴
황금어장
JTN
약칭
매슈슨
##난동
##자며
복부
김충환
##어종
##DWT
콤스톡
율령
김유선
기원
Episode
대피호
##고고도
거창
##원두
메구로
위수령
브로드컴
프로덕션
##증거
저밀도
이윤희
청귤
##농부
유재순
배상안
##화사
돌볼
남수
극단
##수입
광일
강명헌
김우상
##하수오
찡
이재익
비회원국
##유한양행
사과문
지휘관
##하이트
방조
무도회
##시그
##유전자
찍혔
후니
마르께스
##白
상족
##浦
블루밍
황후
한국전력
꽃말
정기운
마사
클라리
기망
고유종
##원종장
란차
##골층
부귀
##아르코스
동대
뚝섬
계면
신린
##슬라이딩
킨슬러
##부토
흉
리포
##법화경
##화경
##보충대
위상
Arms
##CITES
날카롭
##BGF
##첼은
HSI
##집니다
오닐
형아
##터로
사람
빼앗긴
빠를
초상화가
구근
##하키
1905
피용
베냉
오수정
걸으면
##003
##고광표
항균
궁금증
MSC
김재식
처서
완벽
하이메
청북
챔프
타나
110
라떼
##챠
다다노부
변월룡
반불
담보
리키아
금약
##DOC
장중
라이징
카스텔
##육감
##고보
##은혜
베라왕
##득제
##클리
랴오닝
인권
경호실
파비
Communication
##곱창
회절
구결
윤민
31
뉴칼레도니아
이경규
이령
나무늘보
##워크아웃
이수만
251
엘엘
조난자
해답
영국사
전자지갑
##대체
인버터
벌집
##성공회
김창길
스타십
Chhibber
종이접기
##khan
##수지
류재영
##루가
5400
꿈
##체르
##프라이버시
구엘
##숲
한정훈
내놔
마이라
이모할머니
##화학
소행성
관람객
##측천
종남산
벨가이
상당
##란산
##´‰
성루
김용섭
Inz
차준은
도리
불명
켈틱
백옥담
##랄
##분관
BMD
이상화
송년회
마천
##할부
##스러워했
##월봉
안디옥
희망찬
##가의
도현
##투리
나이프
한드
삼미
##스키드
nos
전차대
##출동
벵거
580
IARC
토노
박원식
팩
##叱
##모세
오사랑
후퍼
##경민
사모
역고
전거
IronFX
##체력
##가중
LKA
##발의
마십시오
위법성
덕혜
##청자
페르디카스
525
조왕
허위츠
성노
여교
##오일
피어솔
테렌스
##한다고
사절
브라초
파바로티
맞붙
스티븐슨
##범
산란광
본다
정다운
##625
신현숙
연식
##항만
맹지
금감
##스터
##끝전
서천석
신한은행
우수관
##김춘성
에저튼
단감
##단무지
변강
앙부아즈
##데어데블
가늠
빙고
##실명제
뒷모습
담양군
##윤활유
PMID
곡률
평결
##금지
##KON
##민
기윤
머리털
생성기
##외교부
##잉글리시
##이엘
##日
##계란
시토회
안형환
가까운
밋
나나미
유설아
버진
한유라
적석총
테크노폴리스
양육권
ER
##만선
양도세
Style
시코
백낙승
##선데이
ASASSN
##신축
안후이
슈만
이재수
에리얼
오영수
##해공
보자기
##조현재
덤벨
셀리나
직토
##호텔신라
오드
생생히
재건축
페르메이르
##줘서
주조
문부식
##패딩턴
##원의
사브르
원편광
명문가
자예
뤄후
입산
짱뚱어
단숨에
혼용
엄한
이복관
펼쳐왔
엿
스기타
공주
최종일
바이루
묘한
서명
이문구
동맹국
프
##KOICA
위니펙
컴퓨터
안지영
##먹방
국론
이쁘
##페오
송두용
유과
안락
부정맥
변덕
서승
잡념
경감
##으려면
##리트
##하카타
season
투지
슈왑
김경수
##나가사키
PKI
##기독
무신론
용덕
##방초
실재
리미니
방열
지심도
##체당금
히에이
NGC
##일지
특별석
칙서
##내림
##센트
민준
허발
AmkA
##私
##국기
호스팅
헤드
알아봐
페이스트리
양유찬
활석
덴트
7500
##흥업
##CLX
지구본
홈리스
속인
전위
##켈로그
ALD
##정지
항생제
BBQ
펠트지
최홍석
롼
##도매인
모실
부쉬넬
터졌
##범현
클레이튼
Teen
에덴동산
나스카
데모
혜서
##남기
##김일성
보온병
반
리얼미터
박지영
##알로하
내셔널리즘
##부문
##후반기
펠롭스
세류동
##Dear
##참모부
yetu
##뚝
노컷뉴스
##카라
##불멸
미래도
소성
316
색깔
해비
밥집
##니마는
##쌍권총
오실로스코프
유개
##통통
생업
발기인
카를라
##동세
##명절
배수량
행선
##130
동초
##함부로
ave
나타냈으며
번천
오메기
키리이
##경제인
##420
신랑감
정평
김흥제
宋
추징
##영수
박균택
용팔이
해치백
##실의
##함양
범죄자
지공주의
##냉동
##동의보감
히데이에
노부타다
교원그룹
참관인
오스코
마창
##치가
안대희
노부후사
##수린
장시윤
근점
조윤선
cabin
의석수
카를
이충
구정봉
헐리
두루미
트라페주스
순림보
화령전
뇌교육
사부
전준범
##이밀
손전등
생물학자
레하겔
Electronics
알렉사
승희
##독스
엿볼
KBL
##마니아
##sagain
육룡
위험물
ballistic
서명희
장효조
아시가루
다민
-'
저희
들일
싸잡
##★★★)
##무회계
번식
안영학
원명원
앰
##3008
강영조
^
하한가
스코다
##탈이
운구
이승현
솔드
Speedway
##모를
KOC
집시법
해관
##시의
##족
##약관
밴디트
개척단
분모
MIMO
증강
영업권
##ə
##강재시화
트르나테
##브레니
NK
조지프
디기
히다리
##세방
##반딧
낙찰가
배추벌레
중싱
권했
링케
리비히
##홍차
##금비
##업데이트
콜롬비아
토대
##성중
애교
소갈비
학설
킹이세프
제국주의
통정
익스플로러
##범주
##팝
26
난포
섬서
백용
앰프
라브르
##비어
녹스
##testo
승려
박민선
문세광
에카
원나라
일밤
매그넘
다이어트
DSC
한상희
levels
토단
플랜테이션
황거
##영화상
우대금리
카테킨
확보
호르몬
##둡
고흐
발모
감마
##지옥
##다음
부르바키
윤상직
칼리오
담뱃세
테헤로
가쓰라
위문품
배태
##친다
꿰찼
주재필
김재익
롱런
##1971
톨게이트
##멜린
이중
뮤지컬
생쥐스트
605
둥근
##다민
##TXT
##북한
##본인
마고메
넵
낙하산
이광환
카이퍼
##마담
메이스
##독재
##구이
칠갑산
##임페라토르
##2001
순행
배상액
컨설턴트
낙선
뇌리
sgyoon
##회화
##장자
김미진
##090
##스트라이크
사미
거버
등반
낚싯봉
##창
대항
화장수
사무총장
섈러메이는
683
경품
환청
태상
과채
로터리
탄수화물
안성무
##기석
조진호
AB
Telerik
##원서
##마이티
유준상
경기관총
김홍균
##대표소송
회암사
문경새재
고즈
##네리스
서영석
낼
##슈바르츠
라나님
##인공지능
천칭자리
##이질소
각계각층
##씨수소
people
##취군
##전용주
##ROAD
신은성
콜모고로프
평방
SRPG
CAMP
##재순환
설성면
##반발
조카사위
##미간
##개벽
김홍섭
##이지호
게자
유엔사
##마세라티
##사일런스
도경수
이기주
43
라무르
휘그당
##소련
##함몰
##MV
*‘
기다림
##려인
열과
삼순
수동
스티비
##분류
큼
옥석
유원
루머
분비
만난다는
미메시스
위프
스피츠
##84
##털기
##일당
##문도
OMG
##제혁
##야쿠르트
영가
베르토네
##물병
KOPIA
휠체어
##퇴한
##창극
문체
##딜레마
##이즈
배드
밝혀진다
##전통문화
##PlayX
##지방
이승엽
미성
##탐지
##탁과
##苏
이예찬
샐러리
##소매점
##디너
##苯
혈당
방담
퇴거
펄먼
꽃마리
방전
박은령
이용한
##NFC
##천재
콜게이트
##압력
위어
담뱃값
에인세
이앙기
불출마
SK
강제력
단돌로
##월래스
조르쥬
구립
753
##우정
자공
##파스
브래드버리
곰보
기재
김인재
##축구장
KfW
안경환
휘슬
와파린
다수당
##지지층
화물선
장제사
original
황제
밈
##무제
살아날
침향
RS
권해효
속리산
미케
##엔터
나훈아
AMG
뻣뻣
노현정
##캐릭터
원더풀
IoT
심원
명수
달랬
다둥
일교차
WAPPLES
큰뿔사슴
##걱정
우민호
이성계
간호원
##위크
##신체
EL
장윤주
스토크
##얼짱
돌판
교착
버건
도합
환호성
유진
##른크네의
##LogisHub
청산리
랍비
##collapse
family
송재경
콩밭
완구
반소매
항소
##서버
##신세계
만동묘
##부자
혁명
##금산
FI
내야
김지완
##784
마라카낭
접선
임병찬
데이비드슨
관숙
이귀현
##치프
##잠사
##요크
##하람
##저감
환차손
WCC
곤혹
김태욱
돌격전
조용찬
##구로
강당
##오뜨
##융칭
##김종욱
##部
VIPS
##방배
부끄러운
TICN
##스타
SLI
김범진
외형
##보전
##이효성
서혜
hotel
반복
##킬로그램
##to
##항공사
가건물
홀리데이
오영채
##>,
덕성
##ASMR
##현은
GNSS
##可
하우스룰즈
박유진
##코더
##래미
영작
##코마
##광우병
오찬
##+=+
플랭크
노사발전재단
빌로
##Heroes
##▶"
##재정
조권
반덴버그
지한
애니팡
cache
##작물
메커니컬
##마비
##블리
##符
##이승철
5000
아키네이터
##탈취제
관변
덴마크어
##향식
이만득
##LSD
마스크맨
##스쿨링
MRI
키보
경시대회
1896
##은커녕
##자시
8200
##book
에네스
정성원
띄어쓰기
SaaS
내장산
warhead
##쥬얼리
워프
하수관
경각
Mass
##조선업
구상찬
한이안
강제집행
낑
##벤딩
환류
박단
불타오르
##승
난대림
인공호흡
복구
##치장
##오미자
163
내로
조영수
헤니
당겼
오디오북
붕붕
아시안
동선
해독제
포이동
라이
오세티야
개개인
##람사르
폐관
축약
##>
##전병석
해박
위내시경
보편
##和順
##탠
굴복
동거
프러시아
고차원
##퍼슨
한참
카포
린펀
연투
모자이크병
##_
초크
##소견
##김윤석
##도정
이뤄져야
제명
##%~
##장애인
##모자
##부림
상당히
김세인
합비
##샹
돌려줄
##응급
진영각
파보
방수
##차나
##일수록
용역
##존재
맹강녀
누워
회피성
호창
스태프
##울이
##응고
재치
308
개천
글러브
갈리치아
이총언
소라넷
##삼계탕
방위비
드골주의
##USS
##잊
##Leo
부피
수건
##성무
본다고
##도프
##첨지
이민기
저질
무당
막바지
ㅂ
CIBE
##남정기
##ERP
##다시피
통화량
권수명
##바디스
##블링
##전강
##노패
##슌
##민정
서상배
송기석
키움
장소팔
SCSI
메이크업
뉘른베르크
오티콘
카지미에시
스크래치
##군단장
카오리
정욱진
오창환
##외파
##7017
언더그라운드
##묘역
팀원
가르니에
뛰어넘
원더러스
230
##다원
박상돈
감독상
보시라이
산들
상세
베트
##검역
##오닉스
##경찬
서학
비수급
##소회
##AR
카셀
##벤쳐
아동학
##뚜
##㈜,
##그랜트
미루
최장기간
Commentary
##오일장
##경향
이토
필체
동주
##정의당
양범
옐로카드
오후
김혜선
속독
##지트
카날레스
일소대
##혐
영장류
▷(
실의
역선택
TQB
##침입
라르손
##음실
세계
##치과
##마황
##정진석
##렌쇼
구본형
공명당
지존
강인숙
##신속
주다영
행크스
CTC
타쿠로
테헤란로
##자말
베누치
신양
듬직이
노부카쓰
##장배
##CAN
오반
전자전
AM
윤정훈
##티하
Td
유유히
강장
##르바
손짓
함진규
셀렌
한복
##텐
##렌즈
##난티
64
##보육원
다르마
##영실
##유증
구박
가만히
##상세
걸로
교국
센토
사탕무
재
디엔비엔푸
1924
##월성
##SIB
민유
익비
그리폰
2
답례품
정샘물
환난
##탑비
하이얀
프리포트
시오도메
윰
##윤보선
가마타
심복
##트림
##한별
정환
##보호금
독신
##〉
성산
boycott
전태일
성안
##권부
앞쪽
##교
##야자
킥
##에인절스
판공
##정조
세토
박종필
EAFF
김한정
마사토
##라루스
##평준
성매매
모타운
원효로
raw
클론
올리베라
마감재
##냠냠
파피루스
세검정
이긍익
ECW
민스크
공공근로사업
바꿔치기
##인선
jsonpCallback
이경호
294
제재
##게임차
##어른
정금란
원심분리기
도보
ISSF
김호복
임병희
심각
스트로급
그립
##목실
치어스
정승
##헤어스프레이
태가
비트박스
김환기
경운궁
##586
영업장
홍현
##마나
##花郞
그러나
##순복
암프
##랜드리
age
재입
불릴
##聖
##]
##혼불
더페이스샵
브라운스톤
VU
바예스테로스
##뇌전증
스
적발
출연자
ERP
SWC
영종대교
양재규
에피소드
인상파
##카스텔라
켄터키
김필수
마우나로아
마누스
하와이
##㏃
von
##플라스틱
##퍼츠
페루지노
지역주의
외반
##전문학교
박병석
서인국
케이엠
화운
##예진
날림
할까요
신기루
까만
##이닝
XS
YouTube
열화
garde
이치훈
컬킨
##스릴러
핀
##폐점
녹취
핏자국
페니
뛰
젖꼭지
요추
##고고
이선정
missing
##가입
실학주의
##중화
##시병
##환심
KOSPI
##BWV
생길
##미운
##처에
##코노미
##비뇨
야욕
##실질
##광화문
아이유
옥살
까맣
바뀔
##생침
귀경
##대주교
보고회
권익
메이필드
진열대
저소득
핸드폰
주검
당정
서창석
##경천
Hall
##키나제
##프로메테우스
포겔
문희
앗싸
##상병
실소유주
현물
정암사
##웨스턴
##감식
##甲
풍국
설형문자
실뱀장어
고릴라
##연남
##라호르
매혹
전우애
카페베네
말죽거리
불온서적
##포원
널려
블랑
고토바
용비
##페디
##cdn
연골
##장전
파듀
티엔
오운
빙켈만
##라스무스
벌써
차별
당도
##스캐닝
김중구
먼데이키즈
강화자
놀라움
머시니마
얍
##──────────
아브람
##축소
초평
괴질
##연비
##수량
조각보
맹활약
1450
브라더스
헤릭
##질병
이효춘
선취
##차산
내연산
구스노키
김격식
감출
샤오얼징
##Game
기본기
Baseball
터뜨려
다우존스
유구
현기환
##영종
바리공주
노화
##순은
conservatives
MVNO
국민대표
하프타임
##레츠
통일그룹
##강국
영업력
마
##심은경
##궈
간신
건드리
쓸모없
테일즈
헤벨
우조
스네프루
교환원
선수금
##밖
이어받
나아질
##KC
양강
아미
카로티노이드
박현진
Op
##박창명
##순간
한지민
창극
숭늉
관천대
##triangle
##판매액
이리
관로
서희태
##필지
경인선
##이판
배동환
##관마
권준
행동
역모
릿쿄
상분
Choi
##015760
##판도
DTD
##號
손소희
##일치
##늙
독락
다큐멘터리
흔들렸
##리터
빼앗기
##受
모두
##제창
##김병철
187
홍기훈
##점식
##영재교육
정준영
##㎞/
레더
##마녀유희
##라라고
현대
과분
장순애
범어동
김용구
ECA
검출기
허전
일양
편인
##지폐
추자
##float
식년시
##짧
##공구
윤지호
오딩가
장렬
##인삼농협
이타치
옥채
##포터
집계
##슬래그
##마술사
에누리
다소
호봉
이륜차
##제이콥스
[...]
